[PAD]
[EOS]
[UNK]
[CLS]
[SEP]
[MASK]
der
die
und
in
von
im
den
des
mit
das
er
wurde
dem
als
ist
zu
ein
auf
für
eine
##s
##n
sich
an
war
nach
am
auch
sie
aus
bei
bis
##en
##e
zum
es
einer
durch
werden
einem
nicht
sind
zur
wird
##r
über
einen
oder
um
wurden
unter
dass
wie
jahr
1
seine
vor
##a
##er
vom
nur
seit
##t
ab
seiner
noch
sowie
sein
hatte
zwei
diese
jahre
aber
dieser
zwischen
hat
waren
so
eines
2
jahren
ersten
gegen
jedoch
zeit
stadt
während
etwa
drei
de
3
man
später
##o
##es
beim
teil
wieder
ihre
da
dort
of
##m
5
seinen
seinem
##i
heute
bereits
mehr
kann
deutschen
liegt
4
erste
##y
ende
##ung
ihm
a
konnte
dann
wo
ihr
gemeinde
kam
##l
mai
haben
dabei
##in
januar
august
märz
damit
ihrer
oktober
the
20
anderen
ihn
alle
m
zweiten
september
6
juni
us
vier
april
weitere
10
juli
können
universität
erhielt
dezember
neben
beiden
diesem
##d
dessen
15
kirche
november
hier
000
gab
b
deutschland
gibt
saison
zusammen
zunächst
jahrhundert
berlin
8
7
18
s
platz
mitglied
zurück
19
sehr
februar
##us
u
deren
16
ihren
##k
ebenfalls
erst
keine
stand
bekannt
dieses
befindet
12
dies
ort
namen
allem
km
14
begann
neuen
nachdem
einige
schon
film
9
30
worden
13
2010
selbst
##g
sohn
was
deutsche
bzw
17
steht
neue
i
anderem
2011
personen
familie
2008
ohne
nahm
2009
statt
st
spielte
großen
deutscher
allerdings
erstmals
denen
d
gewann
formula
wegen
0
##te
2007
2012
wenn
2014
fünf
außerdem
bezeichnet
ins
##on
2015
immer
gehörte
aufgrund
2006
11
jahrhunderts
2013
25
new
danach
band
andere
trat
ging
viele
name
große
art
sondern
titel
dazu
meter
gehört
##u
sei
rund
führte
v
insgesamt
z
leben
mehrere
seines
weiteren
2005
ii
##ten
schloss
zudem
menschen
diesen
besteht
hatten
##z
arbeitete
schließlich
2016
##ch
fand
weiter
friedrich
ihrem
studierte
nun
sollte
gruppe
genannt
2004
##den
##de
geschichte
2000
soll
21
tod
##h
anfang
letzten
24
gegründet
mal
neu
kilometer
2017
unternehmen
wobei
##um
erfolgte
1945
gebiet
sechs
kurz
doch
tätig
##ing
frau
folgenden
22
johann
c
insbesondere
karl
musste
einwohner
mitte
la
liste
usa
meist
blieb
anschließend
wechselte
gebäude
form
2003
jeweils
100
straße
region
lang
erreichte
welche
übernahm
vater
2001
e
23
erhalten
2002
darauf
##c
verwendet
bereich
siehe
kinder
land
innerhalb
prozent
norden
führt
mannschaft
könig
bau
gewählt
verschiedenen
and
besonders
beide
entstand
fast
album
haus
oft
davon
28
26
je
spielen
tochter
wilhelm
wien
2018
gilt
rahmen
folgender
##f
daher
erschien
münchen
amt
alten
27
damals
millionen
##berg
süden
finden
erneut
errichtet
konnten
also
1999
einsatz
university
rolle
dorf
zweite
verein
ließ
john
50
stark
eingesetzt
gut
heinrich
beispiel
weil
sowohl
zahlreiche
richtung
h
weltkrieg
arbeit
##is
##an
folge
provinz
ca
frankreich
hans
partei
bestand
jahres
osten
eigenen
allen
1990
staaten
gemeinsam
darunter
lange
starb
kommt
französischen
beginn
westen
seite
york
gegenüber
peter
29
1998
gesellschaft
zog
paul
heutigen
muss
zuvor
schule
ehemaligen
verschiedene
beispielsweise
paris
##p
welt
entwicklung
musik
habe
31
landkreis
##ng
##ischen
regierung
höhe
alter
betrieb
spiel
bevölkerung
darüber
findet
ursprünglich
frauen
insel
sieben
##le
zwar
folgte
fc
somit
1994
teilweise
sitz
arbeiten
burg
1996
##b
werk
1997
kreis
zehn
1992
acht
team
österreich
bedeutung
pro
##mann
##el
deutsch
krieg
häufig
serie
veröffentlicht
lag
kleinen
1995
1991
##chen
mann
meisten
##dorf
ihnen
europa
stellte
amerikanischen
gemeinden
40
sommer
professor
hin
kleine
geboren
l
folgende
spieler
lassen
hinaus
ehe
##au
1993
dafür
internationalen
besuchte
##x
##os
geht
setzte
kamen
mutter
gehören
##sch
gelang
hamburg
ebenso
##w
machte
##keit
liga
etwas
##v
karriere
1989
london
erster
befinden
armee
zeigt
maria
möglich
franz
strecke
kein
direkt
schrieb
eigene
weiterhin
arten
gleichen
hinter
tag
ddr
##ler
dadurch
##ner
einigen
mitglieder
entstanden
vereinigten
aller
international
obwohl
sehen
vertrag
schweiz
georg
genutzt
stehen
vielen
national
reihe
##al
gründete
erreicht
bruder
südlich
handelt
deutlich
##ne
dritten
##ia
wasser
buch
weg
##na
ziel
saint
##bach
stelle
county
aufgenommen
gleichzeitig
t
nördlich
nähe
chr
1933
1972
politiker
letzte
n
ludwig
##se
grund
bahnhof
##gen
veröffentlichte
lässt
daraufhin
studium
bezeichnung
1988
weniger
hohen
##schen
michael
berliner
ob
liegen
ganz
linie
mehreren
erwähnt
1987
1980
west
iii
1970
olympischen
werke
preis
europäischen
kommen
absolvierte
##or
k
erfolg
euro
##ie
stellt
kloster
kaiser
raum
##ig
präsident
thomas
truppen
mm
gewesen
1974
klasse
ernannt
besitz
san
museum
laut
1939
recht
1986
1938
robert
entwickelte
nachfolger
##ach
wenig
##ungen
benannt
1984
1985
welches
stammt
dar
teile
trotz
1975
system
##as
selben

spiele
kehrte
league
martin
familienname
alte
größten
einwohnern
lediglich
1944
umfasst
landes
britischen
köln
##ische
macht
1968
schweizer
sprache
verheiratet
verbindung
bevor
gebaut
60
ihres
einmal
1978
1969
nahe
##isch
sogar
bildet
1983
1971
französische
1973
begriff
ausbildung
johannes
bisher
ernst
amerikanischer
diente
bad
ehemalige
1982
heiratete
meister
200
gründung
ortsteil
fall
1979
1976
italien
befand
kunst
zusätzlich
tage
wahl
500
1946
1960
erreichen
frankfurt
##ka
einzige
damaligen
größte
ich
england
o
zuge
bischof
spielt
weit
theater
city
cm
##ge
sieg
otto
1950
1981
regel
nr
carl
le
entwickelt
hälfte
##ck
länge
besitzt
see
politischen
joseph
bahn
institut
hilfe
hohe
##1
grenze
bald
1967
stil
1977
stellen
1964
östlich
wenige
general
##ra
reich
ag
deshalb
sachsen
rang
wohl
fanden
leiter
##re
späteren
westlich
herrschaft
zahl
müssen
vermutlich
firma
leitung
frühen
leipzig
park
1965
zentrum
viel
rennen
produktion
verbunden
früher
groß
gruppen
g
schlacht
1966
al
division
##sen
enthält
jeder
beträgt
van
1961
entfernt
##et
wiener
neun
gmbh
##é
heraus
finale
dr
1963
eher
runde
##at
daneben
1956
1962
christian
zuletzt
1952
denn
1940
lage
1949
einzelnen
republik
du
r
kanton
##ke
1948
fort
fläche
nord
##lich
machen
##0
heiligen
brachte
##2
##and
ausgezeichnet
abschluss
will
tour
##ta
##ter
##straße
baden
##sche
rom
1941
sollten
jungen
akademie
führen
1958
##nen
version
##ur
1943
hauptsächlich
aktiv
künstler
wollte
1942
##3
bayern
##ion
männer
##ar
fest
verlor
schiff
beteiligt
dienst
vorsitzender
literatur
##feld
würde
1959
david
politische
##sten
ersetzt
schüler
km²
projekt
##st
gegensatz
zahlreichen
polen
funktion
knapp
mitarbeiter
gattung
1957
roman
max
stadtteil
william
##4
soldaten
richard
sollen
1947
staffel
internationale
trainer
betrug
weltmeisterschaft
hof
1934
##it
langen
berg
hielt
1953
gesamte
verfügung
fluss
##ow
folgen
bestehen
kultur
1955
erfolgreich
erzielte
1936
zeitpunkt
belegte
stieg
1954
vertreter
nächsten
nie
inzwischen
basis
bilden
alexander
keinen
österreichischen
eltern
1920
1919
metern
besten
anzahl
meisterschaft
80
hochschule
1918
eröffnet
anschluss
##haus
leicht
##land
##6
##heim
dollar
weiß
##la
college
position
f
amerikanische
hermann
##tz
main
indem
großer
70
hauptstadt
mussten
folgten
wiederum
einfluss
for
anlage
markt
katholischen
bild
##man
1937
kaum
1951
##rt
1935
geführt
unterstützung
james
öffentlichen
lebte
entlang
seiten
bürgermeister
verläuft
##ers
namens
35
schnell
sogenannten
jean
trägt
gestellt
##da
darin
##rs
überwiegend
china
1930
lebt
90
fußball
union
##9
##8
george
spielzeit
##ce
gehörten
zwölf
dritte
j
gefunden
mindestens
cup
beendete
papst
fiel
erfolgt
##nd
ausschließlich
river
p
russischen
übernommen
dresden
rechts
vollständig
los
legte
bietet
gesamten
ehemaliger
uhr
zusammenhang
lied
turm
historischen
wuchs
##ns
gymnasium
bundesliga
verließ
##7
verlag
heißt
galt
hoch
schauspieler
graf
heutige
##burg
zerstört
hannover
##che
verloren
schwer
dagegen
mark
südlichen
##zeit
familien
1914
school
minuten
verwendung
direktor
erwarb
1928
auftrag
selten
lebten
di
tätigkeit
erbaut
regelmäßig
zugleich
nimmt
1929
1932
japan
gleich
45
zusammenarbeit
##hof
englischen
jugend
american
1970er
lehrer
##der
stück
schutz
club
zeitschrift
genommen
größere
welcher
wirkte
stiftung
leitete
verfahren
relativ
monate
iv
josef
##tal
durchgeführt
##ca
ländern
programm
##ll
1900
kopf
weltweit
300
walter
orte
wahrscheinlich
world
thema
wichtige
alt
ähnlich
erstes
département
spd
seitdem
zeitung
betrieben
friedhof
gemacht
folgt
##5
kg
herbst
anna
kampf
verkauft
1980er
stunden
stuttgart
wochen
mannschaften
russland
organisation
weiterer
gerade
charles
umgebung
dennoch
seien
autor
##ern
modell
grafen
politik
nichts
außerhalb
junge
32
motor
punkte
artikel
gelände
hinzu
1925
süd
juden
weitgehend
solche
1960er
brücke
nationalmannschaft
entdeckt
bildete
kind
##igen
bekam
zürich
dient
##rn
wert
startete
kapelle
gründen
1924
erschienen
bezirk
städte
gold
co
oben
song
teilen
##ton
stimmen
zeigen
anderer
1990er
jährlich
wagen
philosophie
1927
laufe
neuer
tor
wappen
vertreten
##heit
hand
verliehen
möglichkeit
ost
verwaltung
außer
italienischen
mehrfach
nördlichen
römischen
abteilung
jazz
preußischen
single
allein
tv
bank
sogenannte
400
weise
1910
##ja
größeren
vorhanden
produziert
gehen
halle
et
beginnt
all
boden
staat
##ei
freien
maler
schriftsteller
geprägt
führung
gebracht
sodass
nordosten
westlichen
##ki
breite
größe
entsprechend
verfügt
ausgetragen
tal
verband
anteil
per
roten
neues
1931
siedlung
1921
weltmeisterschaften
frage
1923
regie
##ni
parallel
angaben
berufen
geworden
spanien
weltkriegs
gegeben
open
1926
stammen
wort
##itz
grand
jeweiligen
unmittelbar
wolfgang
jede
1912
sah
herren
elf
beste
darstellung
w
rudolf
großbritannien
eingeführt
schwester
unterstützt
südwesten
gingen
krieges
del
##iert
hingegen
opfer
1922
kraft
hervor
früheren
eingestellt
bekannte
bekannten
württemberg
endete
rechte
daten
frei
bedeutet
verlassen
##werk
rock
katholische
setzt
linken
gebildet
geben
##platz
sammlung
sprachen
zuerst
abschnitt
ergebnis
führten
oberen
##erg
gewinnen
##gruppe
bayerischen
award
herzog
wäre
technischen
verlauf
nordwesten
tiere
typ
##no
##j
65
kategorie
bewegung
genannten
nationalen
##ert
westfalen
wir
trug
aufgaben
louis
arbeitet
schweden
##ein
königreich
hessen
albert
rot
x
mittels
schwarz
enthalten
höchsten
südosten
united
wald
zweiter
rat
mittlerweile
breit
##ed
links
##ation
heimat
##ger
hierbei
winter
ss
themen
tore
##ren
beschrieben
nacht
##urg
weist
bundesstaat
hätte
##em
her
quellen
festival
rechten
washington
könnte
allgemeinen
britische
sieht
##ier
##hausen
wenigen
inseln
bildung
kosten
1913
start
air
höchste
offiziell
gespielt
halten
ortschaft
geld
punkt
tragen
entspricht
zählt
fahrzeuge
sinne
grundlage
##ige
anders
radio
##ort
teils
frühjahr
jedes
ungarn
ebene
weiteres
gleichnamigen
dahin
anfangs
royal
bremen
##th
turnier
vergleich
rhein
hergestellt
vaters
schulen
kurze
versuchte
standen
punkten
on
medien
wichtigsten
weißen
jüdischen
75
polizei
1911
to
aufgelöst
aufgabe
kleiner
frank
präsidenten
objekte
zentimeter
##ingen
bahnstrecke
erweitert
##ien
##bahn
aufstieg
architekten
forschung
##stein
adolf
versucht
lief
person
##mus
angeboten
fußballspieler
gegründeten
jetzt
ehefrau
1905
musiker
geschlossen
##ich
1000
bestimmt
weltkrieges
teilnehmer
erhielten
umbenannt
studien
düsseldorf
bonn
nahmen
chor
1907
sur
schiffe
##ma
1917
villa
kindern
island
vierten
dargestellt
landwirtschaft
eu
text
bücher
gelegenen
gesetz
sowjetunion
##schaft
1908
##ee
cdu
##ker
straßen
druck
1950er
derzeit
erscheint
aufnahme
mittel
verantwortlich
##cht
zeigte
verbreitet
kirchen
einführung
station
nehmen
beschäftigt
autoren
##ste
bestritt
andreas
bürger
eingerichtet
körper
33
##nt
polnischen
leistung
wm
interesse
standort
söhne
erklärt
rückkehr
abitur
##lichen
##ville
tritt
besondere
erde
ortes
philipp
##ierung
älteste
bach
daran
unterhalb
##bau
teams
36
sc
##ts
englisch
ganze
##ß
zählen
werner
paar
technik
moskau
1906
top
besaß
formen
en
alles
el
klein
brandenburg
##ey
preußen
genau
nieder
fritz
orgel
flughafen
östlichen
ferner
##ine
aufbau
königs
historische
zunehmend
liebe
silber
##ut
wodurch
kritik
records
##il
hamburger
münster
##ken
häuser
länder
veröffentlichung
##traße
sänger
niederlage
bestimmten
unteren
unterschiedlichen
spanischen
blieben
##li
kontakt
römisch
gezeigt
zweimal
eigentlich
industrie
sport
##ri
1909
vertrat
live
französischer
34
auswahl
fenster
evangelischen
mädchen
##len
marie
durchmesser
traf
ausgabe
stets
bringen
##io
bilder
stein
1904
müller
elisabeth
belegt
nominiert
les
australien
##meister
films
daraus
früh
gute
verlegt
regisseur
kanada
150
wirkung
tatsächlich
erzbischof
angelegt
alfred
ebenda
pfalz
besitzen
prozess
hockey
nahezu
marine
möglicherweise
anton
nürnberg
vereins
1915
ps
gemäß
wettbewerb
spitze
pflanzen
entweder
richter
nummer
zug
geschaffen
bleibt
##á
rand
gott
natur
sv
übertragen
bestimmte
##tion
fließt
holz
##bar
freund
japanischen
verfasste
south
nationale
erkennen
material
hält
treffen
älteren
studenten
filme
gelegentlich
bezeichnete
meer
gelten
fuß
bewohner
errichtete
##inger
henry
medizin
deutschlands
##kirche
dienen
nordrhein
hektar
state
north
gehalten
##ya
ferdinand
parlament
cd
kreuz
vorher
rheinland
probleme
öffentliche
hotel
modernen
umgeben
brüder
nutzung
38
auflösung
geschrieben
1903
lieder
angeles
gewonnen
spätere
wesentlich
inneren
mio
einzelne
werde
öffentlichkeit
company
erklärte
erstreckt
schauspielerin
einheit
reise
zugeordnet
freiburg
informationen
tradition
jan
debüt
figuren
hafen
energie
1916
begonnen
##son
kleinere
mittelalter
fernsehen
pfarrer
ha
55
2019
theologie
##ngen
parteien
wirtschaft
würden
politisch
leistungen
mittleren
ufer
moderne
christoph
verkaufte
entschied
gebiete
##lle
##raum
house
music
abs
völlig
linien
jedem
1902
##rat
zeiten
formel
##que
bislang
gustav
struktur
tode
übrigen
bleiben
##aus
luft
benutzt
regiment
architektur
theorie
griechischen
vorwiegend
##art
revolution
kommission
star
baute
1848
prag
1901
schwarzen
starken
hall
gemeinsamen
zuständig
##ieren
lebens
verstarb
##ko
erscheinen
geplant
stattdessen
##ro
schleswig
##ga
tagen
konzept
wesentlichen
situation
unterschiedliche
##age
gegründete
spielten
unternehmens
fuhr
aufgestellt
einheiten
lauf
600
nutzen
##liche
zeichen
fakultät
tonnen
64
wissenschaftlichen
##hen
1899
ausgestattet
daniel
besser
europäische
laufbahn
##co
##tor
neubau
ritter
städten
zentrale
zeitweise
guten
##am
ursprünglichen
internet
millimeter
umfasste
bauern
maschinen
grab
boot
wahlkreis
hintergrund
fragen
##ski
österreichische
mitgliedern
kalifornien
angriff
qualifikation
schied
begannen
promoviert
37
ausnahme
status
herstellung
urkundlich
kongress
chemie
küste
42
##ling
high
seither
wissenschaftliche
quelle
ns
ungefähr
##system
abgeschlossen
teilnahme
pfarrkirche
metal
##nde
beziehungen
aufnahmen
sieger
südwestlich
kiel
ganzen
infolge
ausstellung
kurzen
züge
sowjetischen
lehre
südöstlich
1898
plan
hersteller
heidelberg
figur
##ry
stellung
gar
verhältnis
44
##recht
feld
besuch
stadion
anwendung
geb
spricht
besetzt
grafschaft
essen
österreichischer
1890
landtag
allgemein
eröffnete
society
späten
schwerpunkt
post
ergebnisse
aufgeführt
verbrachte
chicago
##to
##ben
zahlen
erhoben
bezug
untersuchungen
erhält
##lt
englische
elemente
verschiedener
einfach
erfolge
ältesten
betrachtet
manchmal
anlässlich
indien
unten
##va
##ley
rest
basel
mündet
einzigen
beziehungsweise
nordöstlich
versehen
schwedischen
##tt
##form
nordwestlich
hoher
dortigen
klaus
lagen
staatlichen
mainz
unterscheiden
gegner
augen
800
santa
##ag
online
##ik
stern
##orf
ausland
##weg
praxis
heinz
szene
gesehen
pierre
entstehen
förderung
fahrzeug
werken
grenzt
schuf
##ang
angegeben
infanterie
eng
satz
1896
##ze
außen
1895
##see
software
entscheidung
hätten
zustand
gericht
promovierte
schweren
##anlage
sprach
lager
großes
kurt
##sdorf
show
##men
eisenbahn
beschreibt
starke
1870
mexiko
erinnert
universitäten
##ystem
aufgebaut
##bereich
unabhängig
chef
bern
russische
vorgesehen
fällen
dt
handel
besetzung
fällt
##sa
sankt
charts
kennen
1897
klosters
wollen
arts
##arten
amtszeit
herkunft
zählte
gelegene
##ad
##lin
arrondissement
##innen
##rg
bistum
1871
komponist
##atz
lake
jüdische
arbeiter
bundesrepublik
mehrheit
alben
##ius
flucht
y
##nden
sicht
weder
minister
charakter
freie
flügel
patienten
verurteilt
oberhalb
##fen
jakob
damalige
grünen
darf
songs
##tein
gesetzt
schrift
breiten
##ld
entlassen
##ve
sofort
idee
weisen
klassischen
miteinander
##id
einrichtung
##ell
waffen
48
##ina
250
wechsel
bot
gemeinsame
standard
klub
sender
licht
presse
studio
##ss
nannte
##wa
engl
##ismus
85
##ls
39
theodor
garten
abgeordneter
dach
großteil
besitzer
gegend
errichtung
befördert
öffentlich
donau
braunschweig
höheren
verhalten
blau
brand
berichtet
beziehung
fahrer
getrennt
endgültig
zeitraum
könne
super
zuschauer
türkei
wissen
blüten
vereinigung
evangelische
label
##me
##tte
oper
monaten
rollen
don
versuch
gemeindegebiet
halbfinale
regionen
entsteht
traten
wissenschaften
##cher
arzt
institute
krankenhaus
ermöglicht
eigenes
reicht
filmen
##verfahren
schriften
association
angesehen
##ys
weibchen
beschäftigte
zugang
königin
lernte
salzburg
no
zumindest
it
bestandteil
sozialen
##go
grenzen
verfassung
##wagen
technische
ernannte
120
1850
nennt
bernhard
##enden
1893
95
wahlen
vorbild
erreichten
##ende
halbinsel
##ium
andererseits
black
dänemark
existiert
rote
stellvertretender
priester
einschließlich
sendung
##q
jeden
schreiben
1880
komplett
ruf
1930er
existieren
##chule
italienische
##ek
gerhard
verkehr
##za
##reich
verpflichtet
göttingen
##gebiet
geborene
kontrolle
problem
zumeist
ergibt
vi
##ot
ordnung
leitet
landschaft
angenommen
errichten
bund
gouverneur
ulrich
texte
verhindern
auto
verbindet
##wald
video
gebieten
auflage
mehrerer
1892
auftritt
##los
ehren
academy
fertiggestellt
güter
belgien
56
zentralen
orden
einwohnerzahl
unterschied
schwere
ring
erlangte
49
wolf
benachbarten
schaffen
bibliothek
farben
ältere
anlagen
junioren
repräsentantenhaus
besucher
red
kriegsende
british
do
löste
52
ausdruck
bestätigt
##ō
niederländischen
kammer
1885
chinesischen
##uch
tempel
hieß
anhand
kölner
maßnahmen
##band
kleineren
##witz
netz
kunden
1894
##schule
handelte
center
##zen
bisherigen
mathematik
allgemeine
41
bay
widerstand
untersuchung
schlug
variante
scheint
wissenschaft
wer
oberliga
design
geriet
initiative
funktionen
höhere
holstein
frankfurter
kw
1888
nachbargemeinden
kanal
##rd
soziale
hauses
stammte
julius
43
vergeben
ortschaften
1889
##ann
vorstand
dichter
befanden
scheiterte
fischer
ausbau
offizielle
##do
nsdap
benannte
gefängnis
vereine
zweier
weltcup
joachim
überhaupt
israel
partner
##technik
phase
widmete
woche
produzierte
verwendete
simon
klar
einrichtungen
erfolgen
denkmal
bestehenden
genannte
schmidt
instituts
front
ausgeführt
sicherheit
wunsch
einzel
untergebracht
gestaltet
europameisterschaft
getötet
##ard
1891
59
##ha
##mer
mensch
schaffte
57
brasilien
##ff
entsprechenden
tat
fünften
gewalt
##unternehmen
meisterschaften
publikum
fortan
konrad
##ly
##ba
nachfolge
generation
##nn
##des
pokal
offiziellen
nächste
flächen
ursprüngliche
##und
1860
##he
51
inne
##sse
##un
britischer
weiße
47
museums
46
veranstaltungen
##be
einst
science
##zentrum
football
historiker
gekommen
orten
französisch
farbe
altar
erzählt
##gesellschaft
notwendig
party
hierzu
##ens
gründer
1874
##dt
mittlere
zweck
00
aktivitäten
##weise
evangelisch
street
##ug
ehemals
orchester
gewinn
städtischen
eröffnung
bedingungen
volkszählung
king
treten
eduard
1866
rio
höher
versetzt
vielzahl
afrika
big
bronze
##ität
reiches
behörden
königlichen
bauten
angebot
strecken
bord
##all
arthur
##raße
vorgänger
verbindungen
original
bester
bereichen
pop
volk
##eim
brief
zufolge
adam
##ischer
best
erich
br
umgebaut
1875
alpen
tiefe
organisiert
brach
dorfes
54
behandlung
trifft
##ae
produkte
schwarze
männchen
##agen
letztlich
##dienst
bildeten
ausgebaut
trotzdem
grad
lehrte
reste
weshalb
gelangte
vierte
group
mühle
dank
1867
geweiht
1879
auftreten
1920er
##ster
gipfel
handlung
gemeinschaft
gottes
physik
militär
entwurf
desselben
architekt
bestanden
beigesetzt
72
unterstützte
unterscheidet
1887
herbert
einiger
endet
entsprechende
tom
dörfer
lee
vergangenheit
kommando
unterlag
aktiven
private
maximal
jährigen
anerkennung
militärischen
1872
innere
kern
96
münchner
hl
##les
langer
privaten
1886
eins
feierte
66
distrikt
smith
##je
runden
lösung
bildhauer
nämlich
58
deutschsprachigen
kader
mauer
frieden
dürfen
verhaftet
eigenschaften
sächsischen
portugal
1884
sicher
grün
nachgewiesen
altstadt
fallen
magdeburg
operation
gemälde
posten
eingegliedert
##one
##ti
demokratischen
holte
tief
würzburg
as
kino
lokalen
spielklasse
hause
rede
modelle
states
route
herz
play
besonderen
kassel
zogen
1868
##lla
jährige
bedeutende
nationalsozialismus
bieten
you
transport
edward
basiert
kaufte
1873
1500
festung
senat
bundes
morgen
##ir
vorbei
tun
monat
schreibt
service
gefahr
offen
ließen
rathaus
verstärkt
wichtigen
menge
##ol
sinn
suche
wirtschaftlichen
liegenden
67
1882
jener
bühne
68
erhöht
hierfür
1881
herausgeber
mecklenburg
##ser
solchen
dritter
norwegen
##of
behandelt
gestaltung
wege
reaktion
sängerin
management
josé
beschlossen
pfarrei
unterschieden
francisco
methode
künste
anhalt
abgerissen
##ny
siegen
staates
jürgen
ermöglichen
##ssen
anhänger
zukunft
bestehende
aachen
1878
karten
einerseits
##ana
verfügte
neustadt
hitler
rücken
reichen
staatliche
möglichst
debütierte
beispiele
ähnliche
##scher
computer
##lage
speziell
niederlande
erworben
magazin
entgegen
stefan
naturschutzgebiet
beendet
prinz
feuer
entfernung
##gruppen
firmen
wies
98
braun
üblich
110
schließt
bezieht
drittel
offenen
eigener
hören
##hn
verbreitung
zusätzliche
frühere
datum
erwähnung
##llen
verkauf
##elle
rein
organisationen
beruf
fungierte
1883
größer
grundsätzlich
lautet
gesang
begleitet
##ale
700
master
viertel
dänischen
tunnel
1815
##zug
erfahrungen
wehrmacht
sturm
womit
mary
ex
kamera
wissenschaftlicher
1876
texas
register
53
##punkt
thüringen
werte
1861
abstand
krone
konzert
04
abend
##í
real
schluss
schließen
##eren
marke
albrecht
wirtschaftliche
fürsten
übersetzung
tübingen
niedersachsen
##eck
träger
auszeichnung
88
##ft
86
bekanntesten
sagte
99
kombination
militärische
##eld
autobahn
länger
diplom
pläne
führer
blick
definiert
wirken
oscar
beschloss
toten
stücke
übernahme
##ons
at
begrenzt
62
1869
##arbeiten
anspruch
##pe
reisen
##kreis
is
jack
gedreht
1864
regionalliga
69
streit
türkischen
christlichen
1865
hugo
mehrmals
beeinflusst
##amt
63
solcher
##ent
flugzeug
klassen
1862
ben
journalist
stärker
komponisten
regeln
diesmal
ausgestrahlt
entstehung
methoden
08
gelegt
##verein
engagierte
stimme
corps
##hi
bands
kämpfen
zieht
niederlanden
zugänglich
my
verboten
hill
1849
##gesetz
92
gewannen
manche
bronzemedaille
sonst
engagement
ukraine
offizier
strom
übernehmen
europas
durfte
etc
verlust
plätze
angebracht
sämtliche
ersatz
verändert
kandidaten
bass
09
umwelt
gleiche
eigenständige
france
assistent
sa
05
heer
interessen
töchter
74
innen
traditionellen
jüngeren
amsterdam
graz
augsburg
sir
wohnung
bericht
inschrift
1877
denkmalschutz
karlsruhe
forderte
franzosen
unabhängigkeit
qualität
benötigt
objekt
ergänzt
erlaubt
76
studie
aussage
klima
un
systems
##gs
existenz
ruhestand
erweiterung
oberfläche
hauptrolle
##lo
herr
fahren
ziehen
##preis
weltmeister
nationen
glauben
klassische
sekunden
##ty
unterschiedlich
sprechen
ägypten
uns
milliarden
eingeweiht
##ierte
offenbar
major
##isten
erfolgten
veränderungen
##pa
one
angeschlossen
tages
griechenland
festgelegt
betreibt
##iger
kz
##linie
dom
darmstadt
fraktion
eingang
prinzip
expedition
meinung
gaben
##ham
##mi
leo
freiheit
büro
wichtigste
führenden
me
funde
##im
amerika
klavier
damen
umbau
geschäftsführer
##cke
wiederholt
78
polnische
##industrie
errichteten
erfolgreichen
jena
fehlen
mission
ziele
motoren
übersetzt
lübeck
##tes
anerkannt
##tag
gang
falls
goldenen
getragen
haut
94
93
79
abgeordneten
bringt
beteiligte
europameisterschaften
vorgestellt
89
schützen
##ber
82
##port
sebastian
71
diverse
reiste
gebäudes
mount
nachrichten
gelb
medaille
entwickelten
83
boston
73
konflikt
1800
exemplare
minute
beschreibung
##ies
fach
sang
##auer
blues
stellten
east
##ice
ordens
ingenieur
bauen
western
baureihe
veröffentlichten
1863
fassung
nationalsozialisten
white
überliefert
aktuellen
spieltag
mündung
mir
kanadischen
setzen
hügel
entwickeln
##nger
drehbuch
italienischer
##by
antike
beiträge
produkt
konzerte
baron
freunde
##buch
##ino
ausgebildet
ball
rumänien
##wesen
nikolaus
bergen
kardinal
##ý
möglichkeiten
las
ungarischen
##di
jagd
##mt
columbia
##hl
malerei
dortmund
wichtiger
##halle
kabinett
herzogtum
verhandlungen
mannheim
botschafter
##ordnung
77
green
ensemble
antonio
fernsehserie
stahl
stadtgebiet
abt
##ule
##ring
##ica
helmut
61
serien
unterricht
kreises
verlängert
##zer
konkurrenz
beider
anne
##ic
innenstadt
übergeben
##zahl
tier
lokomotiven
love
gelangen
vorkommen
sprecher
fahrt
pariser
höhepunkt
dm
linke
hundert
temperatur
geburt
könnten
erhebung
darstellt
##mühle
herrscher
erheblich
em
beteiligten
eingemeindet
rostock
kommandeur
meistens
flotte
gelegen
leichtathletik
rundfunk
sonne
##leiter
kantons
krankheit
geringen
japanische
venedig
geblieben
##aum
gewicht
07
##brücke
maßgeblich
tourismus
baum
unterstützen
übergang
bundesstraße
bachelor
##stelle
bereit
promotion
archiv
änderte
löwen
madrid
römische
unternehmer
verteilt
##ai
84
heimatstadt
projekte
machten
verstorbenen
täglich
##icht
eigentlichen
virginia
##ist
unterteilt
irland
reserve
##zeichen
aufgegeben
81
##end
ereignisse
##om
ali
säulen
besatzung
ergeben
wandte
schritt
einfachen
verlängerung
planung
code
spiegel
1856
griff
bill
##verband
leopold
test
1840
kilometern
kirchengemeinde
glocken
beobachtet
breslau
einfache
##ment
dreimal
ad
oberst
angeblich
gezählt
bedeutendsten
jura
##wert
##ht
##nitz
geist
1806
by
unterstellt
prix
unfall
##igkeit
juan
athen
##fabrik
größtenteils
szenen
##ue
beschädigt
ortsteile
vertrieben
nhl
aktive
##adt
joe
äußeren
umsetzung
schneider
abgelöst
bekommen
matthias
##ky
central
indischen
kinos
1859
##är
##tischen
woiwodschaft
erlebte
spezielle
force
wissenschaftler
südafrika
premierminister
mittelpunkt
dauer
bundeswehr
gefördert
williams
spanische
##ou
##ul
berge
zeitschriften
nennen
reformation
untersucht
##án
nationalpark
umgewandelt
heilige
religion
maschine
up
organisierte
##ose
##ierten
gezogen
unternahm
fehler
rechtsanwalt
m²
ideen
systeme
renaissance
partien
rosa
##turm
möglichen
lord
mailand
min
langsam
unterschrieb
wind
abhängig
ansicht
##geschichte
barbara
erforderlich
geleitet
dvd
entschieden
verteidigung
87
handeln
vermutet
##ant
nunmehr
anwesen
rücktritt
fielen
umfang
direkte
geschlagen
bucht
navy
abstieg
jahrzehnten
siegte
##anlagen
landgemeinde
earl
arnold
##ans
##ps
koch
nutzte
##rten
kollegen
##ov
##ks
gottfried
aufgeteilt
##mittel
alternative
beteiligung
dieter
gesprochen
dynastie
brown
fabrik
emil
karte
ursprung
bob
##ds
regionalen
##ate
saisonende
gestalt
straßenbahn
trennung
christen
barcelona
harry
##tadt
horst
ford
blätter
alliierten
viertelfinale
long
plänen
gemeinderat
##tten
wirkt
##uer
russisch
##ellen
blut
unbekannt
wand
##si
berater
kritisiert
umfangreiche
vorhandenen
gründeten
##ild
via
urkunde
christus
kauf
albums
positiv
##gel
demnach
verletzt
feuerwehr
männern
korps
##ichen
ausstellungen
gitarre
##ak
##betrieb
##reis
integriert
aktuell
97
bauwerk
##zone
beschrieb
1803
carolina
analyse
wende
91
brunnen
sorgte
geschwindigkeit
kleines
letzter
wollten
kurzer
##jahr
eigentümer
ermittelt
##verkehr
bedarf
ausstattung
weiler
01
1830
1854
bereiche
basketball
landkreises
##piel
rose
derselben
wiesen
schwierigkeiten
jones
##ji
samen
voneinander
bergbau
falle
doppel
ton
veröffentlichungen
1857
port
westliche
erlangen
entspringt
florida
franken
treffer
1852
1855
usw
06
reduziert
tschechien
##chaft
spuren
nordamerika
line
verdienste
jüngere
gefangen
direkten
val
keiner
haft
hit
sichtbar
bedient
rasch
##höhe
##teil
geändert
##nes
reihen
obere
aktuelle
meyer
kräfte
dissertation
stationen
nochmals
fassade
seen
preußische
zugunsten
1858
tanz
##fe
witwe
potsdam
streitkräfte
dienten
aussagen
sed
verwendeten
saale
australischen
provinzen
ausgewiesen
gefertigt
leipziger
wagner
instrument
auftritte
michel
eingebaut
##ln
historisch
wiederaufbau
jurist
stamm
rechtswissenschaften
##park
errang
##ón
onkel
gebrauch
hinein
##führer
möchte
##ven
geräte
massachusetts
kaisers
typs
örtlichen
haltung
gewässer
schnitt
anlass
näher
innsbruck
silbermedaille
hauptort
begriffsklärung
mord
südliche
##ay
kritiker
arabischen
finanziellen
verzeichnet
obersten
scott
entdeckte
fürst
keller
monte
ja
trier
ansonsten
masse
erzeugt
sog
db
engagiert
##eit
geringe
datiert
wählte
spätestens
antiken
vielmehr
##forschung
ernennung
regensburg
mögliche
eisen
zoll
wein
versionen
freier
besucht
umstritten
gezwungen
symbol
gerät
blue
zugelassen
durchsetzen
gast
ausbruch
##familie
erhältlich
lebenden
oftmals
##kopf
streifen
platten
verlief
linz
lehnte
englischer
mein
durchschnittliche
bezogen
unterrichtete
maß
eishockey
ermordet
wales
first
##wechsel
ausgaben
verwenden
castle
königsberg
menschlichen
ray
sechsten
zimmer
3000
persönlichen
synagoge
varianten
1845
beitrag
##druck
weber
aufmerksamkeit
anschließenden
zusammengefasst
kapitän
jung
brücken
marburg
ohio
schottland
##stadt
1813
##thal
wächst
bruno
qualifizierte
abgelehnt
1851
##wasser
zellen
produzent
eigentliche
usd
##eite
siedlungen
stehenden
voll
marx
##per
vielleicht
##ise
schild
herausgegeben
flusses
konstruktion
erscheinung
bedingt
lizenz
mike
änderungen
zweites
darstellen
jacques
aktion
##gebäude
petersburg
sicherte
##field
versorgung
research
galerie
mengen
sand
bar
jacob
restlichen
1847
nachkommen
françois
toren
umfeld
##ī
argentinien
bibel
##smus
strukturen
lehrstuhl
sk
weibliche
premiere
##uf
anti
erfurt
erfolgreiche
bedeutenden
fdp
katharina
erstellt
moritz
##markt
bezüglich
felix
regional
vorsitzenden
1846
studiums
besiedelt
gemarkung
tabelle
gekennzeichnet
dietrich
##orm
##netz
block
goldmedaille
zerstörung
kupfer
vogel
##bewegung
wichtig
##her
flug
##ahn
jugendliche
dürfte
road
manager
abkürzung
läuft
hart
horn
geschichten
getroffen
vieler
##ford
gefahren
anstelle
kämpfte
mittelalterlichen
kaufmann
versuchen
üblichen
komposition
abtei
auseinandersetzungen
1816
##gasse
##berger
präsentiert
reform
beschränkt
kaiserlichen
budapest
längere
##mo
gletscher
eingetragen
nördliche
pass
gestaltete
##ini
natürlichen
##yn
##off
dicht
sekretär
sg
bogen
##cker
versuche
ums
schacht
aufmerksam
dienste
befehl
victoria
1853
fertigstellung
veranstaltung
1818
##ci
saß
##nis
gedichte
beginnen
##programm
bekleidete
##rin
il
liter
bahnhofs
samuel
tür
schwestern
österreichs
meistertitel
european
highway
hessischen
spiels
medizinischen
üblicherweise
andré
##tät
tiefen
ausgeschlossen
young
grau
geplanten
feste
papier
geeignet
##cken
armen
##ere
brachten
elektrische
warschau
03
maximilian
##kraft
##ms
durchaus
betriebe
bestehend
1814
finnland
schwedische
ruhr
pferde
richtete
ausgestellt
##rte
##leben
ehemann
##bel
##ano
praktisch
army
##res
traditionell
verfolgt
natürliche
graben
angeordnet
umgesetzt
persönlichkeiten
##rk
phil
aufgehoben
erkennbar
sowjetische
gelingt
goldene
##trieb
oblast
positionen
betreiben
personal
golf
auseinandersetzung
rekord
ausgewählt
##onen
##holz
manchen
##eg
äußerst
geschützt
ermöglichte
welchem
vorsitzende
kommunikation
##arbeit
##lan
##politik
fusion
werft
vielfach
##est
##ände
exil
liegende
räume
pennsylvania
##ux
muster
berichtete
einstellung
dreißigjährigen
##erung
weimar
griechisch
ch
anforderungen
francis
sitze
vgl
solo
##hr
gestorben
jap
verbreitungsgebiet
leistete
elbe
davis
beauftragt
schäden
lokale
jerusalem
kurzzeitig
jesus
luxemburg
zusammenschluss
messe
bus
not
verbot
##ide
stockholm
erbaute
infrastruktur
hinten
brigade
dick
##tum
kommunistischen
künstlern
urteil
neuseeland
folgezeit
rektor
arm
pflege
kapitel
vii
eberhard
typische
jahrzehnte
lat
regionale
ac
##lager
eva
darstellungen
botschaft
amerikaner
##spiel
abgeleitet
sprint
free
istanbul
ausführung
gefärbt
königlich
ober
kindheit
artillerie
schlossen
werkstatt
jesu
geringer
laufen
begründete
dresdner
asien
wohnhaus
erfährt
frühe
christi
studios
diversen
betroffen
##irche
beinhaltet
giovanni
##orn
wilhelms
lokal
weite
sound
hagen
spielzeiten
einzug
02
höhen
manfred
finanzielle
media
##rand
reichte
kooperation
dauerte
##gt
internationaler
briten
##träger
##wand
glas
##theorie
##museum
konferenz
##gg
haushalte
##ette
tokio
erbe
untere
verleihung
900
setzten
goethe
mr
erklärung
ans
sitzen
sciences
ep
jäger
##ock
ergab
brüssel
##nder
##film
erhaltenen
##tische
heide
##ins
gering
1843
hängt
##tus
windows
leiden
offene
enge
##lehre
gegenwart
zwischenzeitlich
ämter
entstandenen
hinsichtlich
din
stunde
auge
verstehen
charlotte
trugen
1832
panzer
##häuser
blatt
##erie
netzwerk
durchbruch
häusern
religiösen
##gang
henri
festen
schülern
einsätze
adler
kathedrale
##urm
##fläche
brauerei
norwegischen
eis
chris
##fest
1844
metall
himmel
illinois
lehen
boote
##ó
trafen
1842
eindeutig
bit
##werke
stadtrat
vorgenommen
##ea
1835
zdf
gedanken
##ère
anbau
helfen
life
politischer
roger
therapie
awards
130
begründet
abschloss
ministerium
##horn
effekt
genaue
vereinigte
letztere
schottischen
kontakte
steine
arena
seltener
eg
gleicher
180
##are
spielfilm
sprung
fleisch
##fer
klinik
entsprach
sucht
volksschule
buchstaben
palast
##formen
vorläufer
##sk
bewusst
##stand
ngc
becken
tennis
musikalische
freiherr
bayerische
inhaber
einsätzen
##sh
öl
prüfung
entscheiden
künstlerische
##ord
festgestellt
starben
ursache
verfügen
herum
hollywood
council
##kel
gegliedert
zeugen
lateinischen
publikationen
tirol
intensiv
berücksichtigt
##tik
committee
stephan
schicht
interview
##ura
johnson
suchen
markus
vorteil
tschechoslowakei
ständig
institutionen
gesichert
lesen
1810
weser
verwandten
##han
hell
technologie
##liste
sagen
eroberung
verordnung
enthielt
hütte
##organisation
steve
abgebrochen
dur
takt
erfolglos
übte
strand
1837
insekten
gt
time
grüne
gebäuden
tournee
flugzeuge
spielern
##ver
##insel
angst
schlosses
pc
##rer
kolonie
indianer
musical
hang
angesichts
justiz
geschickt
heeres
stock
abstammung
zahlreicher
chile
bedeckt
if
##bildung
zentral
games
sun
knochen
##cs
quer
regiments
persönliche
zeitungen
inhalt
preise
1838
nahen
grundstück
##od
woraufhin
professur
tieren
günther
verwaltungssitz
distanz
victor
oxford
vermögen
##abteilung
griechische
engel
anderes
böhmen
##ć
definition
schlüssel
toronto
versteht
fans
erweiterte
parlaments
mich
abbau
beamten
kopenhagen
journalisten
golden
erzielt
zeichnete
stellvertreter
são
eier
eigentum
##weiler
produzenten
besetzten
ard
kap
formation
##ums
##mar
##ula
##rad
persönlich
duo
oldenburg
##ez
austausch
parks
luther
doktor
durchschnittlich
350
##ete
grundschule
genf
episoden
auffassung
risiko
1841
sektion
california
erschienenen
vorschlag
habilitierte
leisten
verbesserung
fähigkeiten
knoten
stärke
zustimmung
sozial
bremer
flagge
sydney
produktionen
betroffenen
belagerung
samt
motiv
verlieh
kurs
1839
angesiedelt
winkel
kündigte
geplante
##ruppe
fortsetzung
schlagzeuger
geschlecht
felsen
leute
erhaltene
spät
ausschuss
ref
##wirtschaft
tu
belgischen
ulm
sam
darauffolgenden
iran
beherbergt
jersey
bekannter
niederländische
##unden
geburtstag
##lli
##kt
nationalsozialistischen
änderung
1836
##zi
philadelphia
entworfen
bezirks
jene
1834
pseudonym
gewerbe
rumpf
zurzeit
genug
darum
auswirkungen
##ara
umliegenden
verpasste
hinweis
##sberg
regen
psychologie
bisherige
dan
luftwaffe
##bare
heißen
männliche
musikalischen
##uss
##oren
voraus
series
mode
bruch
##tti
##nia
männlichen
##iel
langhaus
diözese
##ín
typischen
freundin
##old
off
kohle
angehörte
gesetzes
romane
erinnern
vizepräsident
stattfand
einziger
aufstand
stammten
typisch
##sis
##eil
verstanden
cambridge
katholischer
bat
seinerzeit
act
vorstellung
befasste
schlecht
prinzessin
wild
lewis
bündnis
##kow
1821
plattform
gearbeitet
##fahrt
champions
antrag
wesentliche
sichern
douglas
schuld
zone
speziellen
tot
##baren
tatsache
q
##ure
piloten
1200
schwach
last
erfüllt
##tsch
##fall
leser
legt
1820
künstlerischen
sees
eingestuft
verfasst
million
fünfte
##ata
cm³
behielt
taylor
jänner
##ria
portal
old
regulären
stieß
abgebaut
stars
frankreichs
ansatz
wachsen
##usen
gas
übernahmen
saal
schatten
eindruck
enkel
geschätzt
##änge
traditionelle
tony
reiter
nötig
##tin
gäste
konzern
besonderheit
mond
extrem
heirat
zulassung
##ian
jugendlichen
express
wiesbaden
##ac
erneuert
##ab
geschäft
volksrepublik
power
landgericht
trio
journal
loch
verantwortung
befindlichen
ostpreußen
stift
##lis
stab
oliver
vermeiden
orchestra
bewegen
bühnen
peking
erinnerung
geteilt
portugiesischen
glaubens
carlos
bestes
##eln
gewisse
wurzeln
partie
ministerpräsident
aluminium
unweit
wetter
schauspiel
achten
realisiert
element
ausgerichtet
##erte
bevorzugt
straßburg
centre
vereinen
generalmajor
russischer
karls
angebaut
ähnlichen
##ätze
sagt
verfolgung
##ah
stufen
##bo
160
##nberg
günter
fehlt
signal
ph
steigt
kategorien
grundriss
merkmale
territorium
mittelmeer
bezog
erzählung
##latz
deutsches
londoner
solle
verhältnisse
information
ten
verständnis
male
erzielen
wohn
glück
westfälischen
unterrichtet
gen
##bus
begraben
chinesische
jackson
instrumente
veranstaltet
bier
101
##gan
sandstein
bischofs
alleine
kulturelle
einzugsgebiet
suchte
redakteur
elektrischen
handball
río
unterbrochen
##äuser
roth
1831
ortsname
mandat
schweizerischen
beziehen
mario
profi
komponierte
angepasst
angehörigen
##ßen
südwest
##ii
dozent
komödie
1812
##del
##aal
##nz
legende
durchführung
##nummer
häufiger
corporation
##vo
church
##reihe
marc
enden
gefolgt
kandidat
vorbereitung
busch
point
erlitt
gallen
gefährdet
##möglichkeiten
bin
restaurant
müsse
lieferte
materialien
junior
römer
null
antrat
draft
town
selber
gesundheit
platte
##bank
angelegenheiten
##ahl
jährliche
##namen
may
zeitgleich
fährt
erfahrung
weiten
weiblichen
unterschiede
times
bundesstaates
teilnehmen
deswegen
##tisch
verlegte
diskutiert
zusatz
marathon
aufweisen
wilson
verwaltet
drama
östliche
country
##produktion
##ho
vorpommern
ostsee
eishockeyspieler
annahme
##we
##rich
opern
##material
tschechischen
pommern
gegenstand
day
banken
willen
##ogen
neckar
##erk
gewidmet
##rum
regierungsbezirk
with
forst
5000
freundschaft
##don
besiegte
todes
eingezogen
verblieb
patrick
drehte
vorstellungen
##unde
kulturellen
gehörenden
##nge
chemische
gebirge
bistums
schicksal
unterschiedlicher
nahrung
1808
1817
olympische
eric
ersetzte
anordnung
beweis
heim
bauer
##iden
be
stehende
gewissen
jury
restauriert
südamerika
non
##nten
beschluss
circa
schichten
niederösterreich
qualifizieren
helden
gründe
stationiert
schiffen
identisch
amtes
ausgesetzt
ärzte
duisburg
##ald
##wo
verbliebenen
mitarbeitern
funk
##verwaltung
weimarer
werks
##lauf
präfektur
empfing
##nau
älter
bezeichneten
1833
jahrhunderte
na
model
begleitete
akademischen
kavallerie
hammer
reichs
gießen
festivals
ausrichtung
bochum
xi
erhebt
wesen
religiöse
erfuhr
law
ablauf
seitens
demokratie
herzogs
##plan
ausreichend
privat
##ereich
1828
marken
##ings
beruht
##aft
nordost
areal
105
1825
dokumentiert
##gut
##ire
versuchten
jim
wahrheit
saar
haupt
hochzeit
zählten
##ionen
verfügbar
##leistung
mg
##pen
okres
forscher
medizinische
vergleichsweise
besuchen
entwarf
angrenzenden
verhindert
retten
existierte
à
pflanze
wolle
lutherischen
bezeichnungen
##tis
##ausen
blumen
mag
##dy
vorübergehend
unklar
kreise
##ani
nassau
erdgeschoss
entsprechen
davor
angehörige
##kirchen
kanzel
liberalen
umfassende
##š
##vertrag
typen
entstandene
kontext
sophie
zuschauern
wohnte
islam
benjamin
geschehen
programme
##ec
letztes
zweig
ice
##ola
bessere
##nischen
besiedlung
rückzug
gesellschaften
konservativen
landwirtschaftlichen
fuchs
##ast
zusammensetzung
christliche
1807
##direktor
ereignis
verwandt
night
sturz
finanzierung
soldat
sank
hinweise
aussehen
##leitung
##funktion
vize
orange
##els
##kosten
##rie
anteile
führende
gattungen
verteidiger
little
bestimmung
olympia
##rechte
carlo
bedeutete
identität
nation
abgesehen
uraufführung
sorgen
hauptmann
alters
hc
1809
haushalts
teilte
championship
nato
##förmig
unentschieden
gebiets
abgeordnete
stammende
eugen
decken
140
anwalt
schlesien
##asse
untergrund
sofern
hauptbahnhof
iso
mont
labor
sonntag
leer
sports
gabriel
belegen
sauerstoff
garde
historic
##alen
mathematiker
geschäfte
court
##klasse
erforschung
##daten
sozialistischen
kpd
##musik
##chor
vorne
vorsprung
nowiki
end
##räume
or
great
berichten
erhöhte
zugehörigkeit
landwirtschaftliche
winterspielen
lautete
dunkel
betreut
##à
##titel
speicher
flach
überreste
roland
überraschend
##aten
verluste
##ene
mühlen
vorderen
1826
einziges
##blatt
quadratkilometer
dfb
spitzen
##owski
au
##ron
diskussion
out
besitzungen
qualifizierten
##baum
waffe
bernd
koblenz
auszeichnungen
erfüllen
türkische
marmor
summe
##ı
entdeckung
umgang
finanziert
##rung
schwert
m³
gleis
##kommission
erkrankung
siedler
##eben
atelier
salz
hinweg
ausgerüstet
##llo
##ā
mitbegründer
lebensraum
1798
wall
handels
format
unmittelbarer
lernen
befasst
kämpfe
jugoslawien
rande
claude
erfahren
##sheim
wären
##rücke
triebwagen
rajon
durften
nebenfluss
endlich
back
##bild
krebs
herrn
früchte
florenz
lebensmittel
sahen
jüngste
worten
vögel
bäume
##welt
verbundenen
michigan
neapel
einkommen
dänische
costa
erfasst
übernimmt
hielten
erkennt
##kapelle
erklären
bekanntheit
reihenfolge
##ite
zeigten
vereinten
kompositionen
entlassung
moor
südseite
stufe
1829
grundlagen
##nte
großvater
##lar
gefeiert
##graben
adel
ü
gitarrist
zeichnungen
ecke
vollständige
1822
eben
##kammer
box
##gi
statistik
1824
1802
theologe
chance
ruine
glocke
gefangenen
##las
ursprungs
gesetze
naturschutz
phasen
büchern
technisch
wirtschafts
zwanzig
ross
bauarbeiten
aktien
##tta
höhle
##eis
##zt
weiterentwicklung
siegfried
gesamtwertung
##artigen
völker
abgegeben
siebten
mans
##flächen
training
natürlich
##gemeinde
vorerst
dame
museen
verbesserte
betreiber
sache
kim
com
wovon
spanischer
osnabrück
gefallen
feiern
prince
gesicht
lyon
schwanz
jenseits
verzichtete
erschossen
saarbrücken
##kommen
schriftstellerin
zucker
erreichbar
fälle
skulpturen
primär
yorker
flugplatz
hot
analog
bände
verbände
hinteren
stoff
landtagswahl
positive
erfolgreichsten
singles
valley
nutzt
theologischen
erkannte
nordwest
##acht
hände
residenz
##zellen
bestimmen
hamilton
planeten
mannes
can
uss
mac
beach
südost
verkaufen
mitteleuropa
zugeteilt
##raft
##gas
america
##ong
bundesregierung
amts
gulden
testament
zusätzlichen
##ok
##bert
fotos
vertretern
edition
brust
soweit
fahrzeugen
wohnungen
##zo
rolf
erben
hals
namentlich
fördern
mineral
offiziere
aufhebung
##auf
gesellschaftlichen
versammlung
originaltitel
reine
##felder
bekommt
verbandes
täter
##ud
bestätigte
##pel
töten
aufenthalt
geschlossenen
brian
publizierte
gelegenheit
nachfolgenden
worauf
streng
1819
denken
sammelte
maße
##lose
foto
eintritt
keramik
gräfin
##haft
zurückzuführen
bevölkerungsdichte
##ore
1811
staats
berühmten
milch
dj
plötzlich
pfund
zentimetern
niedersächsischen
menschliche
fred
gewinner
verlässt
manuel
anwendungen
hoffnung
oberbürgermeister
erhaltung
geöffnet
andrew
##üge
seminar
verbessern
erschlossen
mitteln
klang
frequenz
erziehung
mi
ms
kapital
##erin
index
##latt
ic
gerichts
vorsitz
##uk
aufklärung
integration
kreisstadt
kriegs
rohr
##ufen
napoleon
autorin
##ors
bundestag
##og
wahr
ken
verbreitete
##jan
unesco
beförderung
unterwegs
wirklich
salzburger
lebensjahr
vergleichbar
mars
mischung
schach
##rf
##losen
fiction
##wahl
platzierung
forschungen
##iv
kleinstadt
finnischen
##züge
schienen
denkmalgeschützten
##isierung
opposition
conrad
becker
niveau
##kin
freiwilligen
business
flüsse
uefa
siege
schlagzeug
clubs
##nne
falsch
benedikt
schneller
comic
räumen
space
game
entstammte
geschlechts
plätzen
küsten
genre
landrat
slowakei
op
tausend
fellow
bewohnt
ruhe
##chef
sammeln
##kunst
zwecke
##rate
spur
geistlichen
1805
1827
polnisch
stillgelegt
generell
berichte
komponenten
##geschäft
kv
schwerin
roll
tim
verbinden
großem
##ala
bielefeld
hospital
ausscheiden
geregelt
höchst
offensichtlich
hoffmann
hut
bulgarien
kunststoff
abwehr
##jo
komplex
holland
pferd
bürgerkrieg
##chi
dialekt
1801
tätigkeiten
schaden
marsch
##so
zylinder
beck
aufnehmen
arbeiteten
##kampf
rief
grande
lissabon
dialog
digital
lippe
##aren
spenden
umfangreichen
besaßen
floh
harvard
normalen
geschah
##anz
maximale
gelangt
##oy
alkohol
palais
schlechten
cross
dichte
manchester
##itsch
bestattet
hauptrollen
regime
theaters
helm
guter
begriffe
vertrags
kai
bridge
dörfern
endspiel
vizemeister
spö
gemessen
spanisch
minnesota
gedicht
fein
bernard
getreide
bildern
berufung
fertig
statue
railway
wider
##lingen
fliegen
##ille
##schutz
rückte
creek
verleger
lösen
normalerweise
fund
half
sohnes
konzentrierte
antreten
amtsgericht
debütalbum
1793
landwirtschaftlich
bekannteste
gutes
tel
äußerte
temperaturen
befindliche
beschäftigten
negativ
##ngs
badminton
norm
##rbeit
grube
sammlungen
prozesse
home
kritisierte
johanna
125
alan
literarischen
junger
hubraum
haar
##aden
problemen
##ender
städtische
111
##mm
unterscheidung
##ain
landesregierung
sterne
eingeladen
nordseite
gespräch
cover
##ye
auseinander
##öl
##ów
königliche
fox
##barkeit
thron
lady
hochschullehrer
sklaven
export
lorenz
dreharbeiten
pionier
dinge
tafel
fisch
entscheidungen
umfassen
übertragung
voraussetzung
codice
##mannschaft
hund
beton
##kreuz
pflicht
beobachten
zeche
##stedt
##nlage
1804
sanierung
erzählungen
rad
jr
danzig
est
##linien
friedrichs
äußere
zufluss
automatisch
archäologische
hängen
ec
antrieb
katholiken
keinem
##cus
li
powiat
seitlich
gerne
##wood
wellen
##lagen
unterhält
##ase
endrunde
kommune
umsatz
kurfürsten
georges
jüdischer
württembergischen
verteidigen
touristen
umzug
schiffs
chefredakteur
münzen
##su
alex
verlaufen
staatsexamen
schwerer
nacional
##ess
loire
nachfrage
##ges
peters
weichen
public
mund
abkommen
##teile
vereinzelt
schwierig
mittelalterliche
beinahe
sr
unabhängige
reiche
koalition
1823
vorfeld
bgb
##ndorf
engen
nick
stammenden
##stellen
kommandant
heilbronn
hotels
##telle
dna
oskar
etablierte
kugel
ausgrabungen
tisch
details
##artig
verletzung
verteilung
##ska
talent
##up
erwies
begründung
beenden
##inen
##führung
abenteuer
erneuten
arbeitgeber
##dae
nürnberger
inklusive
ausgelegt
##kultur
kriterien
wirtschaftlich
##hagen
installiert
eigenschaft
umbenennung
bamberg
hard
redaktion
vornehmlich
##krieg
unterlagen
##unterricht
rainer
##winkel
stattfinden
erwachsenen
bauch
dance
moment
##theater
urkunden
nordischen
entscheidend
nationalversammlung
##nie
höhlen
verletzungen
legen
zweitligisten
fulda
chemischen
islamischen
##shi
turniers
##ologie
unabhängigen
ix
##logie
##satz
gerufen
könige
han
uk
##ank
##beck
elizabeth
##ble
fan
demokratische
steuern
turin
allmählich
bestellt
senator
schreibweise
drogen
aufführung
##reise
tiefer
##cha
weinbau
oslo
##sel
vorlage
orientierte
##team
##ett
veränderung
erhebliche
death
schöne
steuer
bewegt
zugeschrieben
1790
regelung
einzeln
forderungen
begegnung
115
angriffe
##länge
bmw
##viertel
racing
##chten
premier
benannten
betont
mithilfe
erzbistum
##tand
1600
##и
ersetzen
voran
hits
versorgt
112
turn
pest
begründer
##ora
ma
1940er
hop
geehrt
wechseln
verbands
kessel
gebietsreform
priesterweihe
we
nachweis
lou
interpretation
elementen
allianz
osmanischen
dortige
archäologischen
andrea
zerstörer
überführt
vereinigt
königreichs
bbc
1700
web
ankunft
willi
meine
texten
kandidierte
barock
seele
verlags
deutschsprachige
he
##yl
landtags
##nk
dauerhaft
romans
voraussetzungen
erstligisten
erzeugen
litt
zeichnet
voller
var
farm
##urs
welchen
erneute
leder
patent
ausgangspunkt
##ittel
stiegen
motive
unbekannten
##ris
forum
vorhandene
gebildeten
traum
wachstum
größter
os
nachts
ibn
##fs
##tätigkeit
drehbuchautor
anführer
ausdehnung
mini
fu
##nus
kalten
vordergrund
monats
grafik
unterzeichnete
re
fels
harz
miller
aufeinander
kirchlichen
##nische
##dach
##ive
gefangenschaft
experten
109
lande
clemens
musikern
ei
gebietes
besonderer
antwort
hauptsitz
benz
##nda
pastor
dei
steiermark
verbund
pol
oberste
howard
hochschulen
porträt
th
stürmer
vertrieb
verkehrs
bewaffneten
fern
obergeschoss
überlieferung
einnahmen
eigens
forderung
einheimischen
##eten
probe
1794
104
bett
messen
etliche
dokumentation
meldete
haushalten
plante
katholisch
verwaltungs
anstellung
bell
##rei
disziplin
bedroht
tsv
modus
wuppertal
##licher
##po
etappe
##bs
##loch
schön
##quelle
geliefert
##fa
schmuck
institution
go
stadtbezirk
freunden
##änder
vorrunde
hinsicht
krise
reifen
gewöhnlich
mitunter
vorlesungen
reinhard
verkauften
freizeit
ungarische
sex
##elt
##garten
##ark
sicherung
generationen
##uß
bezeichnen
##iche
övp
ontario
gera
med
kommenden
nad
pilot
satelliten
verkehren
teilt
fair
116
erfolgreichste
spezialisiert
montreal
ludwigs
kraftwerk
108
##mmer
längeren
##nahme
übergab
episode
daß
luis
admiral
sterben
bauwerke
fliehen
harald
aufweist
eingeteilt
athleten
zusammengeschlossen
zell
heck
zeitgenössischen
friedens
gehabt
##hersteller
umgekehrt
bruders
chemnitz
neuere
modern
soziologie
##chte
wärme
fell
hd
from
##region
wettbewerbs
##lag
kanadische
polnischer
teich
akten
gestalten
atp
benachbarte
außenminister
verursacht
plus
reichstag
kroatien
warum
ds
malte
größen
gedacht
jörg
kennzeichen
felder
beliebt
kulturdenkmale
märchen
anthony
stone
aspekte
konservatorium
camp
motors
humboldt
einflüsse
studieren
faust
luzern
##äume
##spor
blauen
dokumente
schulden
pr
innenraum
medaillen
thüringer
gleichnamige
##zahlen
##cal
synonym
marketing
dekan
abgehalten
ressourcen
##name
kreuzer
fame
##yer
schnabel
pedro
107
##ühle
##ses
registriert
umständen
verliebt
102
buenos
sitzt
republikanischen
paderborn
missouri
verließen
foundation
##ée
vorjahr
##sky
irak
##wski
special
ansehen
##ats
enger
marcus
planungen
aires
sp
spitz
##bene
gemeint
##hofen
##cy
##gh
eingenommen
neuzeit
##sammlung
verbrechen
alice
besseren
fernseh
elektro
##sitz
strafe
propaganda
##nce
prinzen
titelverteidiger
roy
rosen
betätigte
flachen
miss
leichter
studioalbum
della
affäre
leichten
besetzte
##lia
stephen
periode
stanley
renoviert
leib
##tel
sky
automobil
senats
flüchtlinge
philosophischen
hunde
achse
publiziert
telefon
halben
##hilfe
##sta
##enberg
rené
güterverkehr
##lus
siegel
georgia
flecken
geheimen
blei
julia
750
good
nova
##ebene
##ane
inter
bataillon
##sbach
kompanie
letztendlich
asteroid
kranken
komplette
gebunden
103
##ße
überall
faktoren
europe
kleidung
bedeutender
austria
frisch
##größe
##well
##ofen
##town
burgen
kolonien
erkannt
##hütte
sm
amateur
township
##gemeinschaft
genehmigung
boy
ausrüstung
verzichtet
##bteilung
helsinki
befreiung
##läche
##dra
kurfürst
viermal
transportiert
nachwuchs
senioren
götter
haltepunkt
bürgerlichen
konflikten
nationaler
exemplaren
konstanz
inc
autonomen
##iten
kritisch
lothringen
schädel
alternativ
sommerspielen
faktor
landschafts
##ücke
lexikon
darsteller
erdbeben
fähigkeit
adams
##ios
beendigung
physiker
départements
glasgow
##ras
louise
lok
##ost
##ppen
##modell
sockel
kette
kurzfilm
nachlass
ansässig
jüngerer
vergangenen
trasse
marco
##op
##ès
mythologie
matt
wahlbezirk
normal
leutnant
##stellung
achter
vorhaben
ozean
absatz
1789
peru
orientiert
1792
senior
##ari
hip
verkaufs
vorname
oberösterreich
district
brüdern
mauern
board
##seite
achtelfinale
schließung
juristischen
##lehrer
zerstörte
##ruppen
wissenschaftlich
ungewöhnlich
umfassenden
450
lokomotive
##ade
homo
düsseldorfer
berief
motorrad
taucht
fürstentum
generalsekretär
colorado
bande
fertigte
autos
##maßnahmen
projekten
##tar
teilnahm
##esen
##ringen
##hren
rs
gran
thailand
markiert
aufzunehmen
##č
raketen
germanistik
ferrari
##prüfung
erwin
##owa
##eister
vermehrt
kommunalwahl
gehäuse
willy
finger
117
##platten
festland
csu
##ührer
befestigt
##gau
global
syrien
##ros
##ehen
kuppel
galten
order
gegenstände
orthodoxen
kirchspiel
bürgerschaft
akt
entschloss
##eichen
ski
kuba
kabel
##tan
stuttgarter
##ator
wohnsitz
gegeneinander
niemals
##ller
westseite
ähnelt
mw
kampagne
hochwasser
standards
mitgliedschaft
server
herrenhaus
##grund
behörde
schlag
johnny
angegriffen
welle
##prozess
richtet
##oni
website
schnee
küche
laufenden
erstausstrahlung
##osa
jane
erhöhen
janeiro
freiwillige
these
schmalen
##bäude
gleise
geistlicher
##artige
relief
protest
aufstellung
qualifiziert
tageszeitung
communauté
warf
ausbildungs
einzig
erwartet
zürcher
schuss
jh
wirklichkeit
ehepaar
binnen
verarbeitet
urkundliche
reis
brot
jimmy
auguste
austragung
##werte
mainzer
beute
wählen
händler
bemühungen
##plätze
generalleutnant
##pf
sächsische
##maschinen
dir
inhalte
vorgehen
##spieler
entwicklungen
finanziell
##rennen
ukrainischen
bewegungen
##bi
niedrigen
gerichtsbezirk
jordan
einzelner
tatort
##lein
mobile
gordon
schwarzer
kindes
kaserne
gottesdienst
##äre
##ät
over
vincent
mitten
gekauft
lkw
litauen
final
##äge
teilung
finanz
älterer
##äure
durchschnitt
serbien
feder
aktionen
##nbach
##ecken
beauftragte
stämme
nominierung
marien
manga
ems
ortsteilen
ebenen
anlehnung
abhängigkeit
mc
##ua
sche
gregor
böden
frucht
stipendium
immobilien
halb
trans
abermals
##ären
textil
##tter
geprägten
##sson
wittenberg
gärten
airport
philippinen
individuen
nikolai
udssr
adels
abraham
fk
##ück
nutzer
genauer
##ührung
114
wettkampf
beschreiben
dementsprechend
sportler
flora
chemiker
wähler
vierter
personenverkehr
präsentierte
##vi
##richtung
##nnen
pius
sternen
landesstraße
baumeister
untereinander
ermordung
hahn
detroit
##sin
linden
ausdrücklich
nrw
liefert
irischen
##liga
kapazität
khan
##ack
hinterließ
phänomen
##grad
vfl
mercedes
jeweilige
hamm
##lm
##halten
bildungs
trocken
lebende
weiden
lp
keinerlei
nachricht
kulturen
stetig
siemens
##wettbewerb
bestritten
volumen
ff
##ru
ed
dos
dorthin
betreute
befreit
eigenständigen
borussia
sd
rue
fische
anstieg
##а
übertrug
##oli
queen
konzipiert
geraten
zerstörten
angekündigt
##tation
insolvenz
charlie
ansiedlung
empfangen
strategie
spendete
volle
petrus
##dan
verfahrens
massiv
bischöfe
vorn
gastgeber
verbessert
mayer
tote
continental
karosserie
genauso
##ida
##kanal
latein
sat
schall
arme
zar
luftfahrt
preußischer
hanau
greifswald
glatt
dokumentarfilm
##zeiten
paulo
vertritt
fußballnationalmannschaft
stadtteile
meeresspiegel
australian
##bruch
briefe
jährlichen
##nacht
erlaubnis
##net
##ions
kenntnis
feier
maurice
##orden
geschwister
ausgeliefert
kaffee
absolute
theatre
nba
beat
sub
##ona
##acher
##bund
hob
##prache
ä
erfolgreicher
##dorfer
wälder
##hase
##eiten
zugrunde
stirbt
ausgesprochen
cheftrainer
erhöhung
down
##ew
##usik
ltd
wisconsin
archäologie
erkenntnis
##phase
kärnten
berger
sea
##our
dieselbe
entertainment
zustande
ur
##systeme
kreisen
kennt
anwesenheit
werbung
fächer
adelsgeschlecht
haag
##ammer
gruben
hohem
angewendet
dc
##geschwindigkeit
rechtswissenschaft
blütezeit
106
abriss
passagiere
kreuzung
zeichnen
prager
hirsch
eigenem
elektronen
programms
##echt
staffeln
unterseite
dampf
wood
news
monarchie
##ui
verpflichtete
christopher
reederei
paulus
bildenden
verfasser
trieb
range
händen
wladimir
schräg
geschieht
granit
dirigent
fa
vorteile
head
1799
billy
literarische
industriellen
regelmäßige
##richt
haute
bären
philologie
##echnik
rasse
diego
vfb
sternbild
heiraten
atmosphäre
##strecke
##runde
##ku
sage
duke
##handel
dahinter
häufigsten
dreh
spannung
vorzeitig
gehandelt
##ick
cs
angestellt
viii
##ä
verteidigte
elektronische
si
spielbetrieb
place
verwundet
gestartet
größerer
gesammelt
rückseite
päpstlichen
abu
zeitweilig
german
selbständige
ip
polizisten
annähernd
ak
höfe
rumänischen
beheimatet
##osten
##karte
ostseite
abbildung
lüneburg
reden
beine
nah
##eitung
##biet
benötigte
lehr
demo
philip
##ö
verglichen
ketten
diplomat
klage
vancouver
québec
italienisch
##fahren
##dauer
vergrößert
restaurierung
mail
stifts
förderte
florian
##hin
hingerichtet
singen
##eur
1797
scharf
gymnasiums
gene
ann
##chs
francesco
##frei
pi
##min
entfernten
##flug
human
mittelfeld
##ufer
##din
handlungen
women
mississippi
ministerpräsidenten
##olitik
bewohnern
schlaf
niemand
gegangen
campus
doppelt
erwerb
##manns
moore
gänzlich
##dung
zugewiesen
unmöglich
gau
bein
##kette
##zel
##unkt
flur
santiago
kunstgeschichte
##jew
orf
listen
schaffung
roma
riga
moschee
marcel
wiedervereinigung
volkes
erz
sarah
überzeugen
##nal
wendet
wunder
municipio
lateinische
zehnten
abteilungen
metz
##anstalt
projekts
opera
anzutreffen
##ting
nachbarorte
dave
press
erfinder
notwendige
##stoff
grob
epoche
fahrrad
eingeschränkt
##fach
ländlichen
bestimmungen
##ub
clark
anstatt
who
gross
##sser
adresse
krieger
prototyp
christ
kindergarten
zentrums
abgrenzung
##etz
heller
werkes
chi
mer
##ampf
internationales
##ira
afrikanischen
##chutz
vorfahren
hubert
##uhr
produzierten
fischerei
##einheit
memorial
##kan
luise
verkehrt
mountains
kalk
zeitgenössische
geistliche
kansas
##enbach
profil
wahren
##ić
hr
bewertet
forest
buches
erhalt
gelungen
atlantik
guy
##wil
schoss
##way
##ote
cr
##rath
edmund
länderspiel
fe
erkenntnisse
verhaltens
mexikanischen
gehörende
##olz
##ager
story
schnelle
orts
erteilt
##tern
walther
siedlungs
gegenzug
ahl
melodie
sechste
##idae
ausgehend
wehr
laden
verfolgte
##körper
pacific
betriebs
sultan
école
tar
historischer
##chter
langjährigen
hildesheim
offs
deutliche
mangel
gewählten
stettin
eichen
landete
1795
##hal
verstärkte
erlernte
vermittlung
aufschwung
melbourne
zahn
berühmte
unterstand
ji
auflagen
##oi
car
verliert
1300
urban
vermittelt
leichte
##ça
angriffs
##isen
stadium
bart
aufgelistet
speyer
gesperrt
pflanzenart
porto
poem
anfänglich
notwendigen
angetrieben
heran
erwähnte
ansässigen
steil
##änger
##rkt
uraufgeführt
1780
lösungen
disziplinen
gotha
##ves
##basis
bundesstaaten
geschaffenen
##uft
jesuiten
dauert
##san
ändern
##erten
behauptet
##era
##ori
kanadischer
gelben
reinen
moskauer
untersuchte
formal
170
playoffs
##ind
lothar
edinburgh
##pitze
##punkte
wahrscheinlichkeit
hms
aufsteiger
mehrheitlich
##llt
innehatte
baudenkmäler
eingesetzten
##ères
##fenster
ko
geklärt
belgrad
##ieg
rugby
turnieren
brasilianischen
soul
veränderte
##voll
hauptquartier
wichtiges
unverändert
zeichner
invasion
id
rates
delegation
holding
ergaben
##line
verabschiedet
eventuell
berechnung
identifiziert
##ú
praktische
fis
liedern
bischofsweihe
handwerker
letzterer
militärdienst
kehrt
ethnischen
treu
punk
gesellschafter
zurückkehren
zuständigen
are
iwan
gewerkschaft
öffnen
château
magazine
giebel
wahrnehmung
3d
##mont
stadtmauer
beginnend
einfacher
##och
gras
abseits
absolviert
kontinuierlich
gr
biologie
##endorf
baby
westlicher
ruinen
meeres
steuerung
ehrenmitglied
ju
hk
richtig
kiew
microsoft
maine
wohnen
gemeldet
rtl
kirchliche
schuppen
fett
##rau
##lung
rauch
tr
##illa
südkorea
breisgau
##geld
vorstandsmitglied
anderson
technology
porsche
nordsee
weiss
negative
comics
113
silbernen
bewertung
##pass
palästina
fuhren
weihbischof
öffnung
##säure
stoffe
schlägt
##litz
mönchengladbach
feldzug
bäumen
a1
##har
liefern
lausanne
verschoben
pre
trainierte
1796
pfeiler
organ
leber
schmid
conference
##lichkeit
maschinenbau
schwedischer
##fels
copa
realität
sizilien
australische
kamm
dublin
emma
##oe
apostel
übersetzer
damm
##itt
indiana
##ão
hongkong
gefecht
inschriften
erwachsene
schiedsrichter
höchstgeschwindigkeit
erbte
posen
universal
mönche
##eich
absicht
bond
##ters
christine
vers
zwang
schwaben
wonach
schnellen
tai
erwerben
##keiten
verbündeten
roter
kleinste
##ous
##nik
schiller
heinrichs
standorten
##ding
##quellen
##con
vorort
##gy
##eiter
vorherigen
neunten
##typ
entwässert
##pur
balken
künstlers
konstantinopel
saniert
bayer
##iga
sendungen
bukarest
##wertung
gestapo
##platte
derer
ständigen
ruth
kilogramm
bundesautobahn
abgebildet
synthese
israelischen
diesel
##wein
tennessee
meilen
minderheit
gebaute
eck
tests
äußersten
kent
interessiert
4000
römischer
laubblätter
bauzeit
antarctic
jahrhunderten
chief
systemen
bakterien
europäischer
auswärtigen
benutzer
erlaubte
vollkommen
künstlerin
kulturdenkmäler
turner
uwe
audio
mine
abbruch
##ela
sakristei
interpretiert
niederländischer
gebauten
aktiengesellschaft
220
stadtzentrum
pedal
politikerin
entscheidende
##maschine
perspektive
ära
gründungsmitglied
##grenze
minen
gewölbe
wurzel
normandie
verfilmung
salon
##ausbildung
pont
##ysteme
##dia
brenn
staatsanwaltschaft
elite
verstand
bsg
riesen
absolvieren
länderspiele
kritische
dicke
unserer
aufzeichnungen
befahren
videos
mörder
bekamen
brett
japanischer
gegenwärtig
bedeutendste
##figur
lincoln
europameister
robin
käfer
kulturgüter
kult
heutzutage
##cia
rassen
##és
##reichen
stammes
himmels
##sport
giuseppe
abgesetzt
folgejahr
zoo
##trag
ba
fränkischen
dienstleistungen
behaart
barocke
1791
kenntnisse
konzerten
ir
regelungen
beschäftigung
auftrat
ari
##wi
anbieter
lübecker
denkmalliste
blaue
##club
gerd
meint
acker
##eo
lloyd
zucht
längs
fremden
freiwillig
breiter
##tier
tausch
angel
schatz
ablehnung
##kehr
kommend
nest
titeln
1750
oh
##ž
liverpool
reichweite
##du
verschwunden
gliedert
1784
niederlagen
leichen
inhaftiert
performance
zurückgezogen
motto
protein
held
reformen
##älle
fire
communes
##rsdorf
##ode
##mal
##macher
##now
##my
action
ermittlungen
naturpark
##pieler
erheblichen
berechnet
##utz
##gewicht
worte
merkmal
net
##ucht
##paar
##born
philippe
professoren
##mel
bruce
airlines
##kes
##heimer
café
vertretung
philosophen
##ía
##fahrer
passiert
##tra
syndrom
namensgeber
nachbarschaft
disney
nm
standorte
ausländischen
##aison
##verbindung
theorien
schenkte
ev
etabliert
sb
konzentration
gesendet
türken
zweifel
kalender
hohes
organisierten
techniken
deck
verweist
starker
gebraucht
oberflächen
stade
kanonen
benutzte
sara
wahrgenommen
jens
konstantin
1400
mediziner
ausnahmen
tropischen
norbert
steinen
pseudo
uran
schickte
puerto
ala
zurückkehrte
vorschriften
inn
connecticut
iowa
##geräte
department
kriege
sainte
fotografie
sierra
ausländische
##gabe
derartige
bürgern
spanier
viktor
verkörperte
mrd
##vereins
##rolle
basilika
##förmigen
##ont
jon
fortgesetzt
skulptur
four
moderner
##ran
hinblick
axel
kongo
social
geschlossene
##eller
angewiesen
türen
aufnahm
wu
that
vorgeschlagen
nummern
cottbus
mu
militärs
##tzen
##ram
##ott
ursachen
wachsenden
leon
col
bebauung
ul
diejenigen
besonderes
area
körpers
wohnhäuser
##zene
partnerschaft
häftlinge
##firma
##förmige
división
##ruck
bekämpfung
light
verpflichtung
ägyptischen
trainings
erfolgs
ziemlich
##verbandes
##ney
##aben
elektronischen
nördlicher
donald
etablieren
agnes
stall
##meter
jo
übliche
friedhofs
lob
nouvelle
erhob
böhmischen
nelson
##gewächse
maximilians
pianist
dominiert
apostolischen
charakteristisch
##kon
stammspieler
fordert
inszenierung
festgenommen
sh
plateau
normale
##hafen
##α
arizona
##zin
hallen
durchquert
solar
bemerkenswert
ausstrahlung
olympiasieger
trauer
tower
##hs
nicolas
bomben
##version
heil
schiffes
nachweisen
legislaturperiode
franklin
ferien
##örper
operationen
populär
##mark
##ath
eintracht
##schrift
moll
##sion
wissens
##ena
warten
glaubt
gitarren
##ral
##kern
vol
russen
renovierung
haushalt
luftlinie
eingewechselt
captain
juristische
wäldern
vielfalt
logo
gefallenen
katalog
wissenschafts
pan
offensive
##karten
regelmäßigen
dorfkirche
ansichten
produzieren
spannungen
pfälzischen
##ass
multi
abfahrt
##hoff
überblick
modellen
##ning
##ute
nachweisbar
realschule
nachkriegszeit
boten
teilnehmern
##van
laura
kunstakademie
hauptstraße
taiwan
##tur
braut
unser
##ix
aufbewahrt
##hu
claus
befreien
norwegische
hütten
philosoph
cruz
schönen
##tedt
einweihung
##bt
popularität
jähriger
wassers
datenbank
porträts
##shire
verschwinden
##ada
söhnen
staatlich
angabe
bayreuth
teilchen
zuständige
kämpfer
angreifer
##uri
zusammenbruch
harris
entscheidenden
chronik
berühmt
abschnitte
##schicht
job
gattin
schäfer
mountain
ole
zelle
gestiftet
edgar
trennte
hinzugefügt
verbreiteten
leonhard
schmal
margaret
piano
##reform
ve
##ult
monument
begegnungen
magister
ar
zugesprochen
neueren
fernsehserien
1785
überlassen
##egen
##cho
digitale
kevin
##urt
universitäts
volleyball
tee
apple
##lu
torhüter
magnus
unterarten
grundstein
pause
departamento
##olo
mechanische
vergeblich
gesellschaftliche
bauweise
normen
staatssekretär
##ary
staatsbürgerschaft
reformierten
seltene
wol
technischer
kaufmanns
##ars
hunger
##ois
trainiert
gemüse
notwendigkeit
abfluss
pazifik
kriegsgefangenschaft
denis
##enz
coburg
sz
caspar
##iere
pokalsieger
volks
##iter
sprachraum
lern
aufs
##row
worms
##entwicklung
schwarzwald
krankheiten
ausgelöst
betrachten
##scha
##esi
##ater
afghanistan
##oden
meinte
angewandte
inspiriert
bodensee
##lug
eingemeindung
verschieden
kronen
gräber
rache
betragen
kandidatur
wüste
färbung
umland
truppe
1770
konkurrenten
##use
##ammlung
substanz
history
alb
##unst
##tung
wiederherstellung
##opf
zumal
kritiken
grant
auffällig
nn
fokus
##gelände
1787
vormals
gerichtsbarkeit
ansbach
südtirol
mast
interessierte
##ova
ecken
amtierte
holocaust
solange
##lte
##ppe
zwerg
##landschaft
informatik
wandel
uhrzeigersinn
dynamo
kapellen
gelehrten
inmitten
verwandte
budget
agrar
stewart
##pi
mosel
fer
eiförmig
cf
antonius
nebel
inner
atlanta
##val
##ultur
##ial
wolff
mais
sf
mt
ho
aufwand
##ceae
bittet
rotterdam
apsis
shanghai
belegten
antwerpen
##ktion
rechtlichen
ku
nor
überlegungen
ata
gebe
bois
feind
erobert
abstimmung
##mauer
überzeugt
match
360
##reiche
ansprüche
##tiv
pt
##ella
zähne
java
stausee
##turnier
##fähigkeit
schen
nordöstlichen
countys
style
konzentriert
ähnliches
tank
dunklen
hills
extra
##det
virus
level
fantasy
##wer
##rke
krakau
nachbarn
gramm
##muster
##osen
arabische
starten
neumann
erfindung
bahnen
##rio
##kte
stürzte
broadway
konflikte
##sierung
grundlegende
nutzten
bundesland
bug
erweiterten
ville
miami
set
rapper
grunde
bo
endgültige
halt
erik
gültigen
positiven
christentum
##vin
dich
clara
base
##ă
türme
übersicht
ban
##ations
taten
veröffentlichen
störungen
wander
ideal
mb
laser
dark
seelen
genügend
ausländer
unsere
hubschrauber
bilanz
tabak
schriftlich
singapur
##einheiten
geschlechter
ursula
##typen
boris
##att
##länder
water
schien
morgan
korn
einladung
ter
kennedy
lieben
southern
railroad
##ity
uruguay
second
platin
fernsehsender
schmiede
amtsbezirk
##lau
solches
##low
kiefer
still
##pp
wertung
sar
sitzung
komitee
empfänger
altenburg
getriebe
boots
##mund
gesangs
erschienene
rückspiel
parlamentswahlen
stadtverwaltung
forschungs
baus
##enen
zueinander
prägte
kaiserliche
##rücken
schulzeit
##uen
##bogen
wann
südwestlichen
berner
hochaltar
sparkasse
sobald
veranlasste
ländereien
zügen
siedelte
geistes
tabellen
obst
beobachtung
##tri
schulter
##rechts
wände
ordnete
drachen
australia
arbeitsgemeinschaft
schwerpunkte
schlagen
bassist
##ex
mönch
##bad
weiters
hartmann
betreuung
##ball
##lf
greift
decke
##teilung
wettbewerbe
zufällig
malers
wilden
pole
bedingung
echte
stan
##nga
umgestaltet
landesliga
verfassungs
rheinischen
arbeitnehmer
kings
innern
tus
kirchengebäude
##twicklung
reichsbahn
benennung
vertrauen
südöstlichen
##more
eröffneten
bio
##ita
zweit
wahlkampf
##als
umlauf
##verbände
verlangt
verlegung
bearbeitung
sportlichen
matrix
örtliche
schein
##zustand
mar
##aut
pfarrhaus
genehmigt
niedriger
erstbeschreibung
1786
##orte
##vel
erkrankungen
verdacht
sicherheits
produkten
office
russell
turms
gelbe
busse
bedrohung
slalom
onlyinclude
abgetragen
##alter
roh
germania
##alle
italiens
##ried
informiert
zunehmenden
gerichtshof
verziert
folk
kaiserreich
bologna
most
insofern
double
elsass
##ufe
stücken
moderator
##zeitung
lebensweise
##isches
your
vollendet
flensburg
südlicher
ragt
pilz
lukas
gesungen
bismarck
weißer
renault
volkspartei
bemühte
##ima
tiroler
##hm
katzen
po
1788
auschwitz
platzierungen
##dal
begangen
effekte
ausgang
soundtrack
bauart
##sha
graham
aufgebot
klöster
kommende
kanzlei
estland
quasi
gotteshaus
gefordert
turniere
kaiserin
aa
##ū
##ama
pa
raub
raf
angeführt
meta
demselben
balkan
lateinisch
vorbereitet
spektrum
rebellen
pkw
nationalrat
darstellte
ausgleich
sommerspiele
gerettet
astronomen
anker
kr
##yo
nordwestlichen
linker
##rus
wohnt
messer
##ole
ordentlicher
##sz
af
kommissar
dokument
meißen
kastell
reaktionen
romanische
oberstleutnant
ki
erstellte
achsen
zugehörigen
gedruckt
berücksichtigung
vs
aussterben
spring
##ront
rechtliche
low
lisa
seil
##rm
##tas
sumpf
russlands
stiel
protagonisten
zypern
regierungszeit
##rode
rittergut
kritischen
##hart
##eder
##farben
canada
indische
vietnam
total
operations
sofia
ernährung
handwerk
erhöhten
engländer
bel
kentucky
lawrence
steinbruch
landstraße
ig
charaktere
richtungen
stuhl
##ätzen
kairo
prinzipien
kahl
geschaffene
##nin
echten
bundestagswahl
aktivität
zunehmende
büros
bestände
shi
wörter
gesetzlichen
zitiert
kalkstein
pakistan
versorgungs
##tia
laien
##meisterschaft
bush
ram
frederick
fremde
filter
chan
antoine
larven
##rom
gesundheits
nfl
marseille
zink
##händler
werkzeug
orleans
klubs
instanz
verhältnissen
##üsse
landschaften
##ziel
logik
##oa
##uppe
##nter
##iro
wahlperiode
nordafrika
erwähnten
hawaii
betreten
halbe
erzähler
##dar
quartier
fehl
##rahmen
##igung
mantel
240
##fassung
##eide
spezialisierte
harten
unruhen
prediger
lig
ionen
sri
sorgt
challenger
franco
anschließende
geheim
##lock
##car
lyrik
nachträglich
aufzubauen
rinder
inszenierte
selbständig
1783
##let
neo
boys
ballett
lucas
##jäger
ny
##ński
gotischen
schau
##gramm
independent
tut
startet
sportverein
abgeschafft
2020
##achse
iucn
ausgespielt
##folge
verlaufenden
verbundene
##chnik
erdöl
##ämter
agent
##bal
metropolitan
bm
laufzeit
individuelle
variiert
##chiff
malta
emanuel
genres
badischen
läufer
girl
erwiesen
##gar
stollen
pod
##dale
metro
commonwealth
verlieren
allee
gliederung
men
alpes
##uren
student
statthalter
##ücken
ereignissen
##ür
schröder
##ib
places
fußballverein
pit
entkommen
##therapie
##hard
niedergang
vorträge
##tl
umwandlung
beobachtungen
havel
habilitation
neffe
gewinnt
##ş
##armee
track
##verbot
##achsen
##ese
gern
folgejahren
##mitglied
basierend
##ffen
kirchturm
verwaltungsgemeinschaft
bosnien
bahnsteig
zeitlich
beeinflussen
riesenslalom
##erz
termin
wiederhergestellt
transfer
reiner
designer
vieh
caroline
tempo
##nan
massiven
einbezogen
schmerz
herangezogen
fassaden
##lächen
lieber
sud
##ile
ähnlichkeit
##una
marokko
bürgermeisters
dazwischen
persönlichkeit
leiche
##zentren
##ü
unterhalten
##bro
landeshauptstadt
gitarristen
besiegt
vorrangig
minden
avancierte
anklage
##enge
##schichte
unterfamilie
überquert
menschenrechte
generals
##ensis
benutzen
ra
flugzeugen
magdalena
bergwerk
behauptete
##zy
emeritierung
dai
begriffs
##ill
echo
kaiserslautern
hyper
##sellschaft
##rot
alois
##projekt
julian
god
get
##én
begab
versteckt
wdr
türkischer
##ė
##tone
chu
gilbert
einnahme
diensten
heilig
##iedlung
aufsicht
studiert
##welle
beachtung
##lied
ihrerseits
eroberte
beobachter
tschechische
##figuren
gelöst
##vor
mitkonsekratoren
##lon
schriftliche
led
wüsten
halbes
stärksten
einsetzen
darm
##menge
portugiesische
erzielten
basierte
haltestelle
schreib
spa
erneuerung
unbekannte
##anten
biathlon
lehren
bestimmter
masters
##verhalten
trennt
norddeutschen
##wan
##verbindungen
rhône
hirn
kommunalen
fahr
andy
##iz
##ches
dg
##zell
walker
vermitteln
oberlauf
aufgeben
fresken
aufsehen
gitter
µm
bremerhaven
markgrafen
einbau
paare
forstwirtschaft
kolumbien
##karriere
berges
##versorgung
rats
dünn
##lien
übersiedelte
bewusstsein
kanzler
atom
shin
entwickler
blättern
##zeichnung
##asser
kommunisten
##rsch
estnischen
derart
debatte
##ationen
spar
oberseite
naturwissenschaften
##ila
reparatur
entfernte
##haltung
springer
fr
##gl
##ika
list
romanischen
schwefel
empire
schönheit
satteldach
##ystems
vollständigen
ohr
informations
##lten
genutzten
resultat
kantone
böse
übersetzungen
maus
##mie
uci
##bauten
kurzfristig
großstadt
##cks
weide
endgültigen
gehirn
evans
moon
auftritten
angebote
kommunikations
coast
##ν
stattfindet
##usch
minderheiten
stellvertretenden
scheitern
blind
##richter
rechter
demokraten
bomber
repertoire
ks
befehlshaber
##schi
traditionen
liechtenstein
lichtenberg
##tze
wahre
nu
##е
passau
gelangten
nerven
griechen
diplomatischen
schweine
veb
sorten
bindung
##nas
mare
klassischer
tagebuch
maryland
##serie
stimmte
lahn
umstand
herausragende
plant
elb
but
##sie
##mmen
mittelalters
komplexe
legion
gewertet
##cio
kostete
mikro
##kus
gm
europapokal
##ildung
wiederwahl
##rock
johan
angestellten
rechnung
direkter
##hon
hölzerne
blüte
anbindung
yo
musikvideo
rosenberg
diskussionen
tiger
konsum
knie
##anteil
sportliche
1775
indonesien
einteilung
##pielen
ron
ermitteln
##gebiete
wofür
ik
##mme
besuchern
vorkommt
schlangen
ti
##etten
mk
##itel
vw
mindest
delta
##ruch
verarbeitung
jüngsten
verstorben
cooper
##station
verheiratete
festgehalten
übergangs
rap
trennen
begleitung
durchschnittseinkommen
durchgesetzt
##iner
fifa
way
vernichtet
boxer
schwimm
fehlende
triumph
kreuzes
liebes
altes
fm
##fel
samstag
##tellen
parker
abends
xii
möbel
einstigen
##lei
planck
salvador
mangels
vorgeworfen
sauer
bf
passagier
1772
deutet
theoretische
moral
dichtung
development
##yr
anliegen
alpha
wilde
hauptrunde
##eid
überlebenden
digitalen
synchron
stadtteils
erstellung
fertigung
charlottenburg
##kademie
valentin
schmale
houston
schlechter
belgische
ehre
stuart
eich
durchgehend
grossen
avenue
anstalt
aufführungen
##inseln
##hardt
konkurs
##rogramm
helene
##kunde
##tu
##systems
inhaltlich
polens
##sy
bevölkerungszahl
av
barocken
schlicht
vorwärts
pädagogischen
kelly
zyklus
durchzuführen
bienen
sammler
korea
##ache
teilnahmen
bär
messung
pädagogik
pilger
bundesländern
seltenen
carter
ae
britisch
##tre
konkrete
beruflichen
übrig
verbraucher
lac
intensive
lutherische
az
herrscht
immerhin
aufträge
ringer
##oka
springen
dunkle
stapel
##ș
zuordnung
montiert
kühl
230
##tau
##pin
limburg
batterie
##ilm
comedy
quartett
gerichtet
eisenbahnstrecke
##dem
##worth
##ugh
##sko
stängel
begleiter
streitigkeiten
hp
ernest
erlassen
jonathan
evangelischer
##licht
nationalspieler
sal
jünger
gewährt
deuten
überwachung
verträge
noten
leistungs
automobilen
##å
##kum
lima
ortsnamen
maul
ralph
book
lust
freigegeben
vorgang
geführten
brannte
ai
segment
arbeits
abgetrennt
##ede
wahlgang
schwimmen
lauten
wörtlich
ortskern
komplexen
westküste
stralsund
gewässern
landung
gotische
genua
letzteres
ryan
glanz
bd
zeichnung
fotograf
orientierung
nigeria
ast
statuen
gerechnet
jeff
wettbewerben
vermögens
engagements
##zonen
vordere
##sburg
pension
beweisen
besuchten
spalte
nichte
ian
öffentlicher
saudi
guts
schulz
nau
lade
engineering
##shausen
lebzeiten
volker
klosterkirche
humor
abgekürzt
##tions
spezial
ernte
juristen
bas
ohren
bulgarischen
zeilen
franziskaner
dorothea
studies
##ju
##arkt
shu
rückstand
lehrerin
ausschied
##inie
stimmung
scheinen
scheinbar
anerkannte
##house
gemeinschafts
proben
kong
gesagt
mozart
überleben
##ero
nil
1776
kosovo
flache
bolivien
##ichtung
fernsehfilm
1782
ao
weitergeführt
vermuten
musikalisch
##sgesetz
linux
##oc
slowakischen
reguläre
massen
verhältnismäßig
hitlers
erstellen
##lasse
treue
##ance
silver
vorliegen
herstellers
dreizehn
wiederaufstieg
##ieb
ernähren
electric
wechselten
instrumenten
##ormen
##ester
##piele
eisernen
##verhältnis
##organisationen
gesucht
ward
challenge
##amen
canadian
##ängen
##eter
raupen
liberal
lech
##ali
##gerät
witt
verwickelt
klassenerhalt
einsetzte
geometrie
##ico
##uth
raymond
wohnten
rou
##afen
bb
geographische
entwürfe
hauptdarsteller
administration
freitag
##dor
verletzte
stifter
heutiger
##hauses
cp
this
brut
abwesenheit
##vogel
restaurants
protestantischen
hs
bull
oberbefehlshaber
##kos
interviews
##arm
konsul
##ele
mess
louisiana
##com
##kar
publikation
ek
abzug
kalt
gestrichen
medium
boeing
warm
veranstalter
contest
unterrichts
pensionierung
verfolgen
koordinaten
ausschusses
##ohr
ud
##truktur
vorarlberg
spree
moderierte
fuße
fehlenden
krim
strahlen
##zu
duell
##meinschaft
##hus
nannten
gegenseitig
mol
schalt
vorder
börsen
logistik
bewarb
##änden
##mon
santo
modernisierung
##rre
##hain
stiftete
lehm
fachhochschule
unterzeichnet
run
repräsentiert
cape
theologische
##oss
preisträger
rade
marshall
angefertigt
verbracht
erwarten
kurve
asyl
##schiff
hexen
börse
regierte
##oten
talsperre
##partner
ethik
selbständigen
niedrig
natural
dp
beratung
misst
gewährleisten
augsburger
cia
1777
quell
flog
heimlich
ya
##aktion
roche
heimspiele
weltrangliste
schwäbischen
mono
autonomie
##rna
berufliche
##pu
baut
##ragen
madonna
protokoll
gelblich
survey
industrialisierung
yu
republikaner
nebeneinander
##ax
finanzen
schrittweise
dun
baker
autors
austin
zentren
##einrichtungen
nam
##uz
wiedergewählt
beamte
billboard
arte
adolph
morris
fernando
umso
cis
weltraum
kinderlos
take
gs
alabama
##brunnen
algerien
alaska
tibet
rechtsprechung
aussicht
far
österreichisch
vogt
stirn
rob
son
ina
gestanden
eisenach
##zimmer
##reuz
vr
teilgenommen
maßnahme
uni
selbstmord
regisseurs
gutachten
##orschung
erweitern
wachsende
treppe
##yi
grundlegend
##rz
##qualität
##ahrt
theo
##rien
regierungen
unterart
oregon
industrielle
byzantinischen
eingangs
gary
weltrekord
uhren
erkrankte
##tem
##ssa
erbauten
##ár
kurse
japaner
##sst
##produkte
##arte
stickstoff
stadtbahn
##sti
##pflanzen
verlaufende
siedelten
mächtigen
marktplatz
gewebe
##räumen
scheiterten
northern
kombiniert
cv
bundesministerium
eingebunden
weiterbildung
bunker
field
##lügel
##00
auswertung
kürzer
toni
gewährleistet
ras
##bergs
abschied
tochtergesellschaft
span
franchise
erinnerungen
wang
geschichts
network
hu
kriegsdienst
deportiert
sattel
reife
dam
kaufen
vereint
dh
sinfonie
gottlieb
gezielt
tante
##chicht
##tzer
##halt
sonntags
born
##org
##waren
##waltung
##management
zagreb
slowenien
angela
unbedingt
pfarre
##behörde
jenen
##aro
crew
beibehalten
fusionierte
italiener
gefasst
command
vertreibung
herzustellen
gesellschafts
##istischen
bordeaux
##leistungen
norman
his
drittes
konfession
##lot
vereinbarung
drohte
##trom
##rde
ada
let
##dichte
petra
niederlassung
aspekt
angelegte
rückgang
angelegten
längst
exemplar
α
offenbach
##wege
##cum
privatdozent
650
räumlichkeiten
1760
##stätte
aufrecht
widmet
praktischen
salt
gewerkschaften
##krise
zauber
harte
kapitulation
dekanat
##schlag
##ret
semi
cc
adi
##irektor
dallas
glockenturm
umbauten
sogn
gedenken
##motor
geologie
erringen
##gung
##gie
sl
elster
ehemaliges
oswald
##euer
hochschul
geeigneten
zwangs
gelassen
jay
##ente
##air
entscheidet
längste
wintersemester
serbischen
neffen
##offizier
##ege
##block
kn
hervorgegangen
geographischen
elektronik
ackerbau
mor
zweitgrößte
##ado
langjährige
year
kirchenbau
aufsatz
joan
baseball
##dis
thompson
lars
1100
staatsbürger
que
se
offener
eingeleitet
agenten
nachkriegs
datei
beschäftigen
##uten
verehrt
dirk
##teuer
stich
schallplatten
rau
unterbrechung
slam
135
su
jugendlicher
kirchenschiff
massive
gehalt
einander
behaupten
übergabe
bricht
parameter
##fahrzeug
##aner
thematisiert
millimetern
geschoss
schlechte
##chel
liberale
app
betrag
ni
baudenkmal
kle
engels
massaker
ruder
bir
1778
fünfter
eddie
zurückgekehrt
##unktion
##lers
##xa
weitestgehend
##bilder
pietro
angewandt
agentur
##rates
bemerkt
##wall
hub
komponiert
##uck
##ink
yi
betonte
berkeley
kreisstraße
vorgaben
heft
cousin
frey
##iff
fang
kb
jedenfalls
braune
##oma
hab
leiten
fonds
bänden
betrifft
##kov
##tage
##ungs
ea
stellvertretende
schlachten
vergabe
##fahrten
systematische
##nds
initiierte
##ös
campbell
anpassung
ot
kant
gedächtnis
aue
##walde
jemand
gärtner
augusta
alljährlich
ziegel
schuh
sul
miguel
malaysia
lea
emigrierte
##minister
kommunen
weitaus
beta
brooklyn
befreundet
gefühl
##bu
##por
steigen
##rr
##hrer
lud
labour
behalten
verdient
stärken
journalistin
zweigt
gb
schiefer
thriller
professionelle
kre
prosa
filiale
anzunehmen
##höhle
islands
anwesend
##rig
sowjetischer
oberschule
herausgabe
heart
swiss
nazi
weltweiten
kasten
##ws
##etzung
schafft
##luss
verwechseln
konservative
christlich
##ban
mixed
##stil
umgestaltung
quadrat
grosse
senkrecht
1763
militärisch
hauptwerk
dal
betten
##ef
rekonstruktion
kate
gesundheitlichen
ausgeliehen
ia
folgend
fasste
dream
falsche
kelch
##xi
##dien
verzichten
##sverfahren
##chau
folter
clan
benötigten
leit
pays
stattgefunden
##eile
spannungs
ansätze
neuordnung
tele
stattfindenden
richtlinie
orient
##zan
##sicht
publikums
menschheit
ähnlicher
käse
ain
##vis
##ias
ständige
herrschte
##ati
gros
ensembles
valle
reformierte
rechtzeitig
##jagd
##eine
sant
herzen
gouverneurs
zonen
taschen
gefangene
##oro
mur
währenddessen
wy
semester
##nlagen
glen
##kas
augustus
aufgegriffen
zimmermann
##qui
vierzehn
saarland
nationalparks
##the
rb
untergang
##prinzip
mut
greifen
con
zivilen
muslime
verändern
vulkan
##arbeiter
##ame
käufer
belastung
1740
dessau
bon
empore
atem
##uli
ausgegangen
##boden
schriftstellers
schul
renommierten
2000er
1774
mtv
betriebene
##oll
gottesdienste
stadtgemeinde
##ehr
bonner
ida
münchener
österreicher
prä
ortsgemeinde
##affen
services
wochenende
diagnose
betraut
vera
angegliedert
bitte
betrachtung
classic
mes
##korps
oberhausen
nacheinander
erwartungen
angebunden
rückrunde
##orum
genutzte
bl
lernt
diktatur
container
schub
schar
rhythmus
erscheinungsbild
rallye
produktions
ö
einstieg
vollzogen
karibik
geführte
alma
vorwurf
qui
palm
vergessen
erheben
spitznamen
siebte
schreiber
anschlag
herab
##amm
überarbeitet
lambert
exakt
cleveland
grundsatz
##strom
werten
hinauf
venezuela
peer
kredit
anhängern
##alt
forderten
bowl
##erger
brothers
wasserstoff
trinkwasser
verschwand
##win
übersetzte
motorsport
korrekt
amp
zentraler
freistil
##chse
ändert
sätzen
einheitliche
längen
fat
frost
##aceae
mari
ingolstadt
vegetation
event
##hy
project
engeren
beschriebenen
frühling
berlins
klassiker
vila
rain
konvent
zahlung
u20
te
##ichter
cole
rasen
inbetriebnahme
vierer
kameramann
##roduktion
##ndung
##abe
trockenen
parallelen
aussprache
##nna
xvi
march
künstliche
spezifische
durchführen
##mes
manhattan
stärkere
etappen
professorin
gründungs
häfen
atlas
umstände
lohn
fungiert
##üter
##rbeiten
verknüpft
folgendermaßen
statistischen
müll
kostenlos
aba
wolfs
nasa
##wen
fracht
fürth
##fonds
verhaftung
dra
winterthur
munition
erteilte
##wal
spin
##ohn
elektrisch
verwandtschaft
entfernen
##rohr
##brand
reinhold
gemahlin
##ness
##lände
##lde
geheiratet
##versammlung
barry
verbandsgemeinde
pat
abwechselnd
burschenschaft
verse
verlangte
1773
robinson
unmittelbaren
flüssen
akademische
##verordnung
sach
##verteilung
hardware
beachten
##ieger
##wiesen
sportarten
##wirkung
göttin
organe
auslands
##gericht
fahrten
alltag
zugriff
lau
geschmack
verfügten
systematik
armut
ronald
flieger
reagiert
leinwand
herman
commission
##aux
grafiker
widmen
bibliotheken
treibstoff
territorien
hohenzollern
##head
wiederholte
flotten
##nburg
##eins
just
botaniker
##auten
wechselnden
umfassend
kontroll
ziegen
ried
warner
fördert
asch
zinn
##analyse
grimm
lands
##lz
staatsstraße
kō
klagenfurt
##ube
##eh
kaplan
erdgas
##lb
hilft
##äufer
##elli
matthäus
martha
gültige
geringere
detail
achte
indian
community
hintere
anzeige
##able
reduzieren
homburg
qu
konzentrationslager
ah
ivan
hellen
angeklagt
warschauer
bezirke
alternativen
hörte
entstammt
arno
garnison
pulver
mei
konstruiert
1781
sozialer
gesamtfläche
verantwortlichen
individuellen
dead
celle
##marke
potential
feststellen
bp
belle
##ais
wayne
unterstützten
jason
anerkannten
referenz
herrschafts
zivile
helle
legten
isle
pay
murray
##ellung
denkmalpflege
ältester
##eus
berufs
sekunde
fünfzehn
denselben
späterer
##met
richtlinien
blitz
##dom
trend
sperr
vorlagen
taunus
kanals
doppelte
unterhielt
schlesischen
##bedingungen
organist
##ahr
joint
##iges
theologen
leitungs
biel
montana
##til
plastik
nachge
md
rechtlich
luigi
dre
pier
##dern
##fisch
##laufbahn
muskel
jonas
arzneimittel
sonstigen
##chtung
negativen
nancy
marianne
zeitungs
viktoria
cds
##uma
mp
natrium
handschrift
krisen
##glas
##wellen
wenzel
integrierte
gedeckt
folglich
##ener
tommy
gips
säule
tatsächliche
pia
wrestling
filmregisseur
abschaffung
##lassen
flankiert
google
einwanderer
argentinischen
nations
hörspiel
weswegen
werder
vorge
##sbe
##eien
vollen
stuck
boulevard
ethnien
##versuch
##dl
side
ordentlichen
aufteilung
##losigkeit
lieutenant
bürgermeisterei
flandern
break
##ühl
bc
##nka
utrecht
ing
lords
wöchentlich
teilstück
bobby
blasonierung
fehlte
suizid
seoul
dutzend
##ckt
klassifiziert
pauli
jochen
##rts
früherer
tro
photo
langem
fahrbahn
verkündete
bey
alfons
akzeptiert
##truppen
großherzogtum
mathematischen
schweizerische
schuljahr
hindurch
guido
leichnam
bemüht
1730
##ante
folgendes
gil
birmingham
reichstags
2500
studierenden
hansestadt
widerstands
stützen
phoenix
piraten
lind
##ndi
##decke
liedes
por
intelligenz
beurteilung
verbringen
##ander
sozialdemokratischen
konvention
gedenk
casa
durchgeführten
silberne
jin
##ners
kaliningrad
##kloster
expansion
eifel
audi
thai
##könig
jubiläum
sten
sven
gütern
##nst
##eisen
bud
seinerseits
rundfunks
wiese
niedrige
innenminister
##gehalt
richtige
##schaften
gg
par
##meyer
##mas
regierungs
julie
fachwerk
gewählte
geeignete
branchen
mittelfeldspieler
einheitlich
gerechtigkeit
##räger
##struktur
alberto
vorwürfe
##ł
##gänge
besatzungszone
1779
philosophische
##bauer
herzogtums
röhren
pelz
schumacher
##cki
##oth
mitglieds
aachener
scheiben
nar
cat
venus
tobias
kommunistische
om
carol
gesamtlänge
arabien
##lio
untersuchen
beschränkte
##ruktur
ostküste
dorn
cha
zwickau
550
instrumental
bildende
more
geraden
modul
got
glaube
italia
gleichung
erstliga
brandt
tarn
##red
##etrieb
wahlbeteiligung
verlängerte
chinas
##ister
##assen
kirk
dell
poly
kontrolliert
einzusetzen
##ington
##nstalt
wehrdienst
catherine
##auen
orientierten
lit
sprech
kuh
fra
dis
drehen
cher
radar
jungfrau
werkstätten
schwan
pour
kohl
##bände
konzil
erstreckte
schwager
gift
projektes
xiv
kommerziellen
machtergreifung
bahnhöfe
210
pra
zerstören
##uchs
holen
1648
##xe
handschriften
##wort
##eum
abc
zensus
landschaftsschutzgebiet
betrugen
experiment
##ský
schulgebäude
og
östlicher
giro
verringert
symptome
gruppenphase
gemeindeverband
##macht
seattle
klare
valencia
teufel
sony
##yan
sonstige
situationen
bezeugt
##flügel
jenem
##ingenieur
wachstums
explizit
druckerei
ausgegeben
sexuelle
kohlenstoff
##uro
versenkt
##zität
ehrenbürger
auftakt
##äumen
gedenkstätte
##bury
vereinbart
sha
konstant
amphoe
portland
erleben
backstein
ausfall
meisterin
haare
existierten
helen
gegebenenfalls
theaterstück
revier
eigen
villen
gegenüberliegenden
##eng
nachbar
##ě
##rl
##nos
##gue
staub
##fi
heftigen
mitwirkung
gemeinsames
dato
pau
sektor
tie
gelesen
vereinsgeschichte
dl
datierung
our
großmutter
abgaben
youtube
liefen
gedenktafel
##eri
pl
names
süddeutschen
gewichts
control
mohammed
sole
experimente
bristol
unterhaltung
versuchs
schauspielhaus
entnommen
stützpunkt
wright
wach
##becken
löwe
erzeugung
two
##masse
##dit
benzin
ros
claudia
wal
typischerweise
bevorzugte
terror
garden
age
##sia
kroatischen
##cu
regierungsrat
holt
rangers
sozialistische
lösch
getauft
märtyrer
##can
##forscher
verteilen
mara
gesetzlich
##ap
gerichte
getestet
dreier
gertrud
trophy
##truppe
##gne
künstlerisch
bezahlt
vegas
persischen
nonnen
alba
sen
##fluss
geschütze
charakteristische
##tat
violine
förderer
ct
##konzept
##anbau
ungarisch
föderation
booten
anden
erfordert
##orchester
##odi
hansa
widerspruch
umgangssprachlich
sicherungs
scheidung
##zahn
jur
finnische
she
empfohlen
chur
überzeugung
erlauben
tell
geburtsort
##mpf
aufständischen
african
##blätter
turbo
rico
nahegelegenen
heu
sing
ralf
##bücher
staatsoper
kommunal
investitionen
henning
erlitten
organisieren
justin
männlicher
leonard
ol
lot
##lands
tausende
aserbaidschan
anime
128
konzentrieren
radsport
bedeutend
anzeigen
##dorff
unterhaltungs
fri
ves
##siedlung
ara
skelett
baudenkmale
##out
##feuer
falter
che
hel
kp
##oberfläche
tödlich
rippen
erregte
adligen
##nisch
überließ
angesetzt
##rit
verfilmt
tol
magen
planungs
markgraf
ganzes
elefanten
wachs
leverkusen
beamter
abfall
göteborg
auftraggeber
vorbehalten
umge
islamische
stroh
##reihen
ware
vertriebs
rick
peak
differenzen
##die
umgebenden
tätigen
zivil
lu
kurven
fundament
##ø
kopie
alexandria
armutsgrenze
vision
verzeichnen
190
##fin
materials
geländes
gebräuchlich
klingen
gespräche
maas
überlebte
jerry
weihe
seitlichen
##ügen
grundstücke
gerecht
evolution
##fuß
##charakter
nutzungs
bearbeitet
flammen
fester
ausgedehnte
ohnehin
fenstern
##icherheit
libanon
dennis
wenngleich
umstellung
stiftungs
handlungs
##chlag
##bre
margarete
##igur
hervorging
gesteins
118
##lösung
seiden
besagt
görlitz
channel
klammern
erlass
abel
260
##tos
##achen
zwischenzeit
verdrängt
mitarbeiterin
landeskirche
pater
membran
lieb
führungs
angriffen
##not
substanzen
dateien
bestätigung
sinnvoll
münden
linear
dachau
##akt
hudson
harold
globe
##kau
mae
heimatland
dokumenten
ap
##kräfte
pri
gel
frühzeitig
elo
wohnort
rettung
ellen
##ito
vermutung
##ury
krater
generaldirektor
##hafte
zielen
primera
gesamt
lehmann
part
philipps
under
kannte
hansen
dub
burgund
wil
mid
##fu
astronomie
geschäfts
fußballer
##gesetzes
ted
orthodoxe
soziales
gunsten
professionellen
hunter
verwachsen
maßstab
landwehr
edel
mon
zins
flak
zeile
##aki
wenden
##rden
reiz
fpö
hass
ham
gun
arbeitsplätze
##ān
konkreten
störung
jules
##partei
kongregation
##kamp
##gon
lehnt
bahnlinie
119
##zentrale
reporter
##pflicht
##fort
selbstständige
castro
griffen
angelo
##fragen
geschäftsführung
##gger
mittig
alm
##bra
ligen
indirekt
befunden
beau
medal
##mu
##err
zugehörige
umgehend
erfüllung
lüttich
##rund
verstärkung
susanne
reh
jemals
anzu
sabine
profit
zeitgenossen
stalin
sonnen
stätten
##ò
##haupt
##its
##stoffe
ful
verzicht
such
py
mori
medical
griechischer
cara
luxus
festes
schwäbisch
link
sim
mora
pal
##register
##iegel
lt
##sto
swing
people
landau
helena
segel
entzogen
##öfen
sus
##ders
tenor
ermland
begriffen
konzepte
flut
angestellte
##dienste
##bachs
lichten
kegel
gummi
dimension
##sches
gewordenen
bronzezeit
kamerun
##posten
##räte
steven
bros
##zelle
##chsen
gis
ausgeprägt
ostern
wechselt
gelenk
bewahren
bekanntgegeben
winters
uv
fro
1720
##ausschuss
landkreise
pädagogische
angrenzende
##ré
fernstraße
dean
##inge
vetter
kies
petri
##meisters
##heiten
##iegen
nickel
einmündung
miles
bs
asiatischen
offiziers
##ë
grammy
angeordneten
eroberten
##par
aktiver
##via
##laden
zurückzu
##fo
ws
cum
##nta
##konferenz
ausgetragenen
##wissenschaft
##sand
##waffen
lutz
##cz
##tv
##dol
##о
veranstaltete
täglichen
wirft
weiterentwickelt
begeistert
ausgehenden
künftig
kinofilm
stärkste
1768
rod
präsenz
maría
##ügel
##ema
lebensunterhalt
diener
6000
modernisiert
##qa
##linge
kommerzielle
##bacher
geprägte
rakete
haller
aufenthalts
para
bang
##ösen
wasserversorgung
ludwigshafen
bezirksamt
strategische
steigern
##nat
##transport
##een
dreißig
mis
vorgänge
gefühle
angehört
gelistet
torf
franziskus
class
ähneln
tan
page
angezeigt
lobte
emden
querschnitt
blood
kamp
hofmann
bag
zeuge
unternommen
schwierigen
muhammad
filmmusik
wolfsburg
unterdessen
blech
##nu
##inn
gelebt
leid
asche
wertvolle
##mäßig
deutlichen
geister
singt
##tner
romanen
geschieden
amtierenden
eurovision
mehrzahl
kolonial
import
triest
proteste
heimischen
ebert
nachfolgende
strahlung
gefüllt
bewegungs
##nko
interne
steilen
ortsrand
torpedo
ska
##ärke
##gebieten
nadel
schmitt
denkmalgeschützte
flüssigkeit
reagieren
dy
pas
erforscht
empfangsgebäude
süß
heine
1765
##tück
##oo
papa
japans
absteigen
zaren
nachzu
finanzminister
##rade
sporen
roberto
pp
##llung
krefeld
korb
differenz
cricket
entwicklungs
magdeburger
qualitäts
hugh
##szeit
täufer
ts
##ík
vermont
oklahoma
##häusern
mitarbeit
gewonnenen
beinamen
aufkommen
ordnungs
landtages
kir
##angen
germanischen
draht
##eta
##este
referent
feldern
benötigen
objekten
berichterstattung
##test
misch
huber
porzellan
finanzieller
core
buslinien
fortgeführt
dü
##äger
zugerechnet
##lat
##hörde
zukünftige
werbe
präsidentin
bretagne
##rma
vermarktet
ringen
galaxien
##oper
##ob
##irchen
versorgen
##örderung
##ques
##handlung
flaschen
dag
kommentar
hay
brünn
toulouse
resonanz
examen
##verhältnisse
erschließung
limes
speise
anschlussstelle
überwinden
vermieden
quadratkilometern
hölzernen
dänischer
##last
verkehrten
ta
organisations
wirkten
kriminal
gläubigen
monster
isoliert
fossilien
##ond
taler
bv
resolution
rechner
fortschritt
##ι
mel
mali
taufe
##fehler
terminal
kunstwerke
hessische
dakota
##enten
anregung
wanderte
##oß
reit
benutzung
##linger
steiner
masuren
impuls
grey
til
geographie
paz
ausläufer
auslegung
280
##stik
nieren
leuchtturm
anschloss
pazifischen
beruhen
zorn
waldeck
systematisch
hal
ib
gestein
eingeordnet
##wig
zeitalter
rechnen
##aka
steinkohle
buddhismus
##neu
überdies
zugeschlagen
rechen
dreht
baltimore
stadttheater
georgi
beer
explosion
320
prüf
##awa
aristoteles
vil
verbindungs
platzes
bla
##förderung
short
ludwigsburg
habsburger
gesetzliche
dreieck
##ct
meier
abständen
##rchiv
modells
caesar
jegliche
weigerte
dv
a3
##rium
##essen
weihnachts
hohl
zivilisten
sack
##yu
desto
abgeordnetenhaus
paket
empfehlung
##ê
##non
##ato
sue
freistaat
tre
opfern
horror
##geber
stände
##у
parade
paaren
labels
##organ
schildert
##öffnung
##listen
religionen
##isi
race
niederrhein
jubiläums
maha
mad
verurteilte
tarif
schönberg
##nier
##how
geiger
bohr
bewirkt
kabinetts
politikwissenschaft
grauen
gläubiger
atlantic
##yk
β
titels
thor
knight
ökonomie
1753
orgelbauer
cinema
bil
synonyme
fachzeitschrift
ott
tabellenplatz
##olt
tallinn
kas
heiden
##dos
vernunft
##ahren
falschen
geschützten
1771
tänzer
##srecht
doping
sor
löst
rechteckigen
moos
1756
landshut
beides
verhinderte
unit
fleck
ash
##iri
dasselbe
tang
skandal
barth
##usi
##talbahn
pittsburgh
beeinflusste
##institut
ml
münz
bath
##ahlen
offizieller
nachteil
##usschuss
image
freude
##volumen
##ollen
steg
##chow
##witsch
kontrast
##eu
geheimnis
##ood
sai
kel
altona
terra
rügen
##nach
##annschaft
spital
fühlt
schlucht
geschossen
vorwerk
##das
##az
muttersprache
jahrestag
hör
sachen
annehmen
##zon
plural
geheime
coach
beschließt
##ña
##ndo
##istische
speed
provence
fünfmal
brechen
##ás
##reifen
materie
brad
arbeitsgruppe
##yp
##temperatur
nat
überfall
kongresswahlen
##sau
option
##lam
dee
bra
kurzgeschichten
behinderten
ou
künstlerischer
drucker
filialkirche
erziehungs
einheitlichen
##bein
bella
signale
kompetenz
interessant
farb
abgeben
zuzuordnen
motiven
fs
bi
beigetragen
ze
rt
rich
pen
eingesetzte
betriebssystem
wurf
teilzunehmen
ey
erforderlichen
wirbel
porta
verzeichnis
geringeren
ankara
anhieb
##eau
verursachte
leiterin
##felde
revision
nebenbei
aufgewachsen
##ther
##kraut
geworfen
gebirgs
1715
persönlicher
tin
empfahl
##sar
##roman
realen
kali
christina
planet
organischen
rundfahrt
futter
definierte
buchen
kru
überprüfung
schritte
notre
respekt
poker
neigung
beseitigt
than
ft
##eth
##bezeichnung
say
trade
preisen
##une
ausführlich
analysen
pfarr
bestandteile
##hlen
vorstadt
symbole
shakespeare
geräten
##orst
verlangen
udo
##chu
farmteam
##verlauf
gasthaus
cal
##pt
hau
##tig
ka
hierdurch
hasen
vokal
mitherausgeber
lava
##rück
theoretischen
bestrebungen
ausmaß
quadratmeter
genauen
anscheinend
grabungen
ausgedehnten
##chan
benediktiner
##tals
##rweise
stile
cent
175
##horst
songwriter
lichtjahre
jupiter
dekret
##front
panama
michail
##udium
##mans
radstand
sprachgebrauch
pfarrers
1650
vorfall
odenwald
##lter
##pflege
##mitte
eröffnungs
##ttel
##owo
##gymnasium
dichten
##eer
gefäß
rotem
kirchenkreis
flossen
bann
##division
schätzungsweise
fl
amtlichen
1769
linde
##sco
nachfolgend
intervention
dritt
ay
fasst
##gebirge
##eier
##brunn
schnecken
zukünftigen
schema
höherer
##reisen
streu
##tunnel
öffnet
listet
germain
##öse
six
politisches
kunsthistoriker
##beit
rötlich
richtigen
maurer
höchstens
##ao
tötet
brandenburgischen
stre
kammern
verwaltungsreform
blu
jetzigen
geburtsstadt
##reste
yale
verkehrte
ndr
canal
hintereinander
feinde
messungen
heftig
hauptartikel
scheiden
henriette
anhöhe
angehören
zusammengelegt
##werken
vd
fauna
landsmann
herzegowina
wille
##ritz
##ltung
population
jurastudium
gala
cut
tendenz
##eam
aufstiegs
aufgelegt
##änderung
walk
tochterunternehmen
left
het
physikalischen
koe
##iste
##tellung
##nice
progressive
xiii
brt
bert
##rod
##gal
monuments
mariä
mehl
hervorgehoben
ansässige
lena
ergebnissen
eger
##zucht
##quote
##literatur
geschäftsmann
##ude
kfz
mütter
israelische
behandeln
basalt
isa
##ilder
##wind
ortsteils
kanadier
basler
##nheim
##ienst
stabilität
hinrichtung
##üste
weiher
fassen
##kal
##chrift
nebst
internen
zahlungs
cups
zensur
schilling
gleichfalls
wolfenbüttel
sigismund
verkürzt
bernstein
abb
entstehenden
einschätzung
außerordentlicher
verschluss
unterhaus
ly
cook
autorität
sau
osteuropa
##lov
hochland
nagel
beliebtheit
ukrainische
kritikern
konzession
rettungs
burganlage
erlebt
schaf
bitten
luc
kanten
höhenlagen
mannschafts
ausgenommen
säkularisation
leidenschaft
rus
##ware
##court
umkreis
staatstheater
stau
mähren
fia
rudi
quanten
faktisch
veränderten
adrian
##saal
geschmückt
erweiterungen
##rche
treffern
##ffer
vergrößerte
kirch
biographie
mechanischen
leine
cornelius
mo
ultra
iron
beitritt
nan
director
##design
spe
aufsichtsrat
850
##gte
schottische
regimes
monatlich
##fahrzeuge
grundstücks
brauch
deli
wusste
birken
nachhaltig
##stischen
waldgebiet
apollo
festungs
angekommen
1680
steigerung
hedwig
##sam
treppen
freigelegt
übersee
zwecken
rama
ana
like
landen
ruhm
besonderheiten
bae
wahlrecht
arabisch
reduzierte
gerald
##alis
betreffenden
baptist
##pan
##bat
bereitete
##olle
rail
innenhof
##gens
braunkohle
befestigte
##ph
optische
eastern
manuskript
five
sti
publizist
terry
stgb
komitees
##ober
mill
ideologie
bautzen
village
pe
begleiten
helfer
kaliber
überschritten
zuständigkeit
bundesweit
bisweilen
kommandanten
jülich
##hai
mega
krankheits
erd
schubert
auftrags
tatsächlichen
fließen
##position
zement
saga
pur
allesamt
raumfahrt
ausstellungs
bonus
battle
##ruf
sevilla
karlsruher
##mos
durchfließt
betracht
##rzt
quadratischen
privilegien
nsg
herstellen
##ili
platzieren
wuchshöhen
charakterisiert
kristall
##hel
slawischen
gla
alltags
sorte
mäßig
vergab
kara
privater
lie
starr
sergei
##flotte
waldes
riss
beerdigt
attentat
franziska
burgenland
##zow
hampshire
##hor
lund
ua
observatorium
köhler
gegossen
##vorkommen
##nar
salm
dor
bezirksliga
merseburg
konzeption
##rne
investoren
gemein
eichstätt
##iers
entschlossen
härte
angestellter
bureau
leuten
gleichgewicht
##gu
laurent
##hrt
amtliche
##kurs
berthold
ergänzung
##eb
wohngebäude
ausgetauscht
prominente
fluggesellschaft
realisierung
kenia
bade
himmelfahrt
gastprofessor
##orten
prinzipiell
weine
eli
championships
1766
radikal
##ändler
##uni
##hip
freiburger
ruft
ō
what
neuem
durchlief
comeback
##rp
hil
albanien
bürgerliche
##iven
##af
verlorenen
##num
alto
zier
gestalteten
1525
geistigen
##reiheit
zurückgeführt
gescheitert
naval
konfrontiert
hauptgebäude
würfel
klo
handwerks
gürtel
geformt
chang
##maß
##rieg
##magazin
##äusern
##eda
##bit
wirtschaftlicher
warren
strahl
fremd
unregelmäßig
bedenken
entdeckten
bezahlen
##mers
wave
entry
anknüpfen
beethoven
mythos
stereo
jenes
##day
traditions
missions
fine
erlebnis
##asen
nationalstraße
zelt
mexico
lorenzo
##ech
geologischen
##uto
##king
triathlon
oberlandesgericht
data
divisionen
marktgemeinde
kleve
polo
parlamentarischen
##elemente
weihnachten
forschte
bou
sexuellen
jun
##pro
privatbesitz
egon
ausführungen
sn
##pal
pfeifen
##rger
##keits
1755
å
titelrolle
infolgedessen
##lder
marschall
##wegung
mhz
katastrophe
breites
270
##ets
ssr
geistige
##werks
steck
heimspiel
alta
zurückzukehren
galaxie
marion
eingliederung
##gent
silva
betrachtete
berücksichtigen
erzählen
radrennfahrer
mülheim
##raten
wirksam
fußgänger
großraum
french
ehrenamtlichen
wei
samtgemeinde
##ná
##gesellschaften
joch
nd
mathilde
geschenk
vorschläge
ibm
gespeichert
augustin
##ust
einheimische
namibia
1758
südafrikanischen
entwürfen
überprüft
winterspiele
tscha
rey
funktions
xaver
wolfram
kie
auvergne
##ätte
stabil
##rme
trikot
stellungen
kaukasus
##post
##oz
verwiesen
verwalter
versprach
lehrers
basieren
skandinavien
1764
vollständiger
schumann
roosevelt
##nit
verwirklicht
gewordene
##hammer
staatsanwalt
aschaffenburg
##ip
madison
braucht
##tiere
gewinnung
mach
fahrgäste
chen
bundesrat
ale
vorgelegt
säure
sorge
kf
aufgefunden
aargau
wilhelmshaven
chlor
##streit
tetra
prof
moses
maya
##nig
##peicher
wenigstens
reaktions
mauerwerk
langes
##bek
##ffe
witten
rings
nahrungsmittel
kay
##xen
future
bedienen
##freiheit
malerin
##akademie
filialen
durchgang
##allen
subjekt
seat
martins
##alten
untertanen
gl
viehzucht
mundart
kongresses
geringfügig
sol
##ales
kasachstan
ermittler
düren
sparkassen
schalke
unbe
psychiatrie
mitchell
befestigung
##inde
statistisch
seven
##borg
verwechselt
spalten
landwirtschafts
kat
gefolge
##brief
ira
gui
ausbreitung
torschützenkönig
starteten
ghana
colonel
beherrscht
revolutions
kost
steuerte
sportwagen
karin
ruhrgebiet
bundeskanzler
nina
1767
physikalische
cre
apostolische
mächtige
geh
gaststätte
schenkung
##trakt
##è
zitat
wissenschaftlern
morgens
cop
bachs
dicken
weiblich
wirkungs
download
trust
île
zustände
vikar
geheimdienst
##ndes
filmemacher
census
##inister
stilllegung
existierenden
wallace
bird
##ota
organische
montevideo
lehns
##graphie
##aja
trip
bk
stilistisch
propst
passage
administrative
rath
harrison
gemeindebezirk
##klassen
weißrussland
tb
eiszeit
marktes
watt
mat
library
scottish
elektrotechnik
fotografien
platt
lasten
herzöge
doctor
380
zk
##vermögen
weltweite
sui
kun
key
sehenswürdigkeiten
münch
längsten
grat
fla
bewohnte
rabbiner
##urnier
vita
##lik
##kis
peri
##ç
schlager
scham
osmanische
kolben
hanns
deep
fur
zen
niederländisch
##boot
niger
##enburg
syn
matthew
##pol
jahrhundertwende
richten
geliebten
franche
energien
wen
monaco
iris
how
münze
automobile
##rab
reliefs
isar
geliebte
einbrachte
##useum
umweltschutz
ministeriums
geo
kar
##ē
##wesens
hörfunk
asteroiden
1762
##güter
gestattet
dé
jahrzehnt
##eise
##aa
vielfältige
pascha
formuliert
dscha
schwiegersohn
kennengelernt
bed
regio
kontinent
##if
saul
##lls
tischtennis
jahn
wirtschaftswissenschaften
begegnet
äußerlich
kommerziell
größeres
##iat
prädikat
lan
hain
entfielen
note
langjähriger
gent
bürgerkriegs
##fte
well
rumänische
##sprache
bibliotheks
artikeln
gebrochen
cb
weich
gray
##ändern
wilhelmine
rudolph
revolutionären
hänge
##damm
susan
energy
##lie
##funktionen
gemeinnützige
anlegen
fle
vektor
sci
begrenzte
ukrainisch
nationalsozialistische
kehrten
umgestellt
##tet
nature
freiberg
bw
utah
kletter
split
landesliste
kirchenprovinz
gedenkstein
tra
abbildungen
cad
##spielen
##nehmen
blo
pflichten
antarktischen
hanse
abwasser
##allee
gezeichnet
##haften
chip
##rats
taka
brod
##leute
kommunale
gleichermaßen
elias
##bol
vertrages
mandate
ls
entfallen
eiserne
##tro
##ces
##einsatz
transit
geltenden
sy
meiningen
##verlust
##heorie
diana
denkmäler
cie
##anda
rebellion
hon
verurteilung
liebhaber
ani
uniform
militärischer
ggf
ausschluss
##hara
isaac
handbuch
grundbesitz
gou
geschenkt
gedeutet
bundesländer
##rop
volt
cro
sexual
langfristig
kaspar
hubble
woll
delegierter
volksmund
##yama
##get
verehrung
reduktion
dürften
austragungsort
küchen
stra
##ichi
unterworfen
gör
variablen
chinesischer
romantik
vorgesehenen
stö
harn
fischen
##ilfe
räuber
##enster
zeugnis
##elder
##bb
deutlicher
##mb
lagers
gebet
europäer
##ο
mil
afrikanische
##inhaber
##antrieb
##bor
ky
aka
##amin
plasma
##ibliothek
antennen
##nken
gleichwohl
##10
wozu
sko
norddeutschland
reg
napoleons
engine
mura
##uil
bock
##amtes
vu
verschlossen
minder
weithin
senders
reliquien
künstlich
aufruf
sudan
##tä
##eilen
pfeil
mul
tourte
öffentliches
äbtissin
tü
stu
ideale
disco
dio
tempels
##ütte
körperlänge
baptiste
sophia
marne
mao
dienstgrad
##bung
verfassten
rai
##studium
sortiert
landesamt
##lay
stadtteilen
endeten
gespeist
##lp
##lden
erzherzog
beherbergte
lenk
##ε
vorangegangenen
stumpf
federation
##hälfte
nebenrolle
mathematische
kassen
binden
vertraut
theoretisch
landwirt
tauchen
neuguinea
aufklärungs
präsent
aviv
unterliegen
tunesien
rast
putz
gesteuert
##schau
##rischen
jahrelang
installation
circuit
##debüt
belege
##luft
##eli
entsprechender
cap
wappens
jet
erklärten
##spiele
lehrern
##größen
nächstgelegene
hört
cannes
scher
buffalo
wahrzeichen
beliebtes
##branche
vl
schauplatz
hetero
else
beitragen
hitze
##woche
wacker
care
##uder
napoleonischen
erobern
##ähnlichen
##gio
asa
##ähnliche
##oje
lehrtätigkeit
laub
chancen
bu
weltausstellung
##schluss
einschränkungen
##volle
wörterbuch
fiktiven
europacup
##vas
landesmeister
irische
butter
bataillons
untersagt
doc
##inden
##griff
##child
wohlhabenden
lagern
ausgeschieden
rum
fühlte
jefferson
hb
princeton
maro
info
##kontrolle
wat
erscheinende
##wärts
bulgarische
1742
##stab
genoss
##ands
sorgten
cla
##messer
chaos
apotheker
gebühren
emmy
##ield
kameras
gay
panorama
olga
dro
hörer
gewechselt
frz
##ev
liu
gewerkschafts
depot
veit
preisgeld
mos
u18
gelsenkirchen
zweige
cl
kol
glaubte
rück
mons
gebildete
gram
betrachter
absolut
académie
##isation
konzerns
family
fachbereich
bekenntnis
##stische
vierzig
müsste
distrikts
##vit
sin
problematisch
lazarett
##tochter
finanzierte
beweise
arnsberg
platziert
letzteren
interniert
gem
bosch
ace
##ome
africa
sarg
wan
revolutionäre
erzbischofs
grabsteine
square
feucht
beirat
kraus
##mba
ungarischer
erhard
nt
butler
zá
intern
schwachen
propheten
athletic
a2
maritime
ré
rausch
nase
impulse
hanna
angeregt
potok
health
call
bestellte
lo
erlangt
ablösung
##werkstatt
hofes
##niveau
stro
schalen
##mitglieder
profis
ofen
freilassung
##ija
##iet
putsch
herzinfarkt
gelder
einigung
biografien
gepflegt
hirten
deutung
werkzeuge
##wiese
guatemala
##ecke
tc
ostfriesland
angola
zirka
verbleib
matura
überlebt
strauss
handelskammer
gor
wohlstand
trommel
ber
algorithmus
verblieben
cn
kleinerer
fügte
sogenannter
gegenteil
durchs
absoluten
##dium
vogtei
strenge
pfarrgemeinde
auszug
assistant
verkleidet
sozialdemokraten
gehe
ausüben
vergleichbare
risiken
präsidentschaftswahl
armstrong
ser
oberpfalz
bro
ökonomischen
waffenstillstand
palmer
##var
##hang
##bin
ligakonkurrenten
##stück
überarbeitete
weizen
stiftungen
krautige
##tab
##knochen
##herstellung
##elo
unterlauf
predigt
kid
comté
müssten
einträge
betroffene
gal
roberts
historisches
##vereine
westdeutschen
uno
krupp
bos
bergwerks
salomon
pu
kl
société
schle
gd
edwin
##itzer
populationen
praktizierte
daimler
##produkt
theresia
1759
vorstands
##ziehen
##itung
##büro
verleiht
mosaik
georgen
winde
org
##ätigkeit
lehrt
cu
fing
madagaskar
collins
##teri
endpunkt
satzung
review
nordamerikanischen
kompetenzen
lein
flanken
optisch
paula
mrs
quo
##odell
##dler
zirkus
stolz
paradies
montage
englands
verabschiedete
linda
leu
gp
agierte
##pelle
naturdenkmale
mona
##code
wirksamkeit
polar
gus
eingeführte
departement
##rth
u23
##versuche
##ommen
welten
lauter
hardcore
bru
alban
sichtbare
ruht
einleitung
entdecker
bildschirm
##hung
##back
##ï
##veranstaltungen
ple
gymnasien
widerstandskämpfer
romeo
thun
minor
kleinsten
verfall
machtübernahme
johannis
geborenen
fortuna
##ndel
mahl
torwart
sala
irene
globalen
2n
##unter
saisons
##pers
##nung
three
gültig
##alo
ok
##arbeitung
bai
##ugen
tonträger
##aße
schock
wählten
sichtbaren
protestanten
pflegte
education
reichtum
kämpften
türkisch
teatro
geholt
dunkler
liturgie
jar
heidelberger
gle
tram
newton
keith
adalbert
##maler
##aga
##bet
mala
bars
##ögen
##werfer
##aar
äußerungen
hoe
##tto
sig
##eitig
wiederholen
prime
radikalen
bol
aufsätze
indes
geschützte
allgemeiner
summer
kot
miet
honda
##mmt
pech
jorge
sigmund
##zyklus
zufrieden
champion
bestätigen
belief
##rle
steinerne
identifizieren
sms
ding
##lk
kut
##unk
##sat
mechanik
1757
ling
facto
schi
marina
fi
beinhalten
reale
neubauten
jüngster
angehörten
gerieten
##dischen
verbaut
populären
brigitte
wirts
gert
##eno
bt
bergland
##lanung
durchzusetzen
vornamen
singer
rica
lib
staatsbahn
notar
baukosten
masa
##egg
sichere
sibirien
pictures
werfen
habsburg
##haut
##änderungen
hauptfeld
##rben
unmittelbare
nk
lü
hey
durchschnittlichen
ausgangs
shows
mathias
getrennte
##sees
zi
wasserburg
investment
bewegte
perry
##palast
getrieben
transkription
##loge
iranischen
##zzi
feuchte
freiwilliger
schah
prize
untersuchungs
indiens
hus
ue
##ő
##bon
##olen
gräben
##raben
beginnenden
##mis
hong
feierlich
rex
##ffel
höchster
df
##ör
nano
jude
jeanne
grundwasser
gebrüder
earth
ausgeübt
sonder
hunderte
geringem
##lach
bauteile
##azi
starter
stabs
##friedhof
begräbnis
vel
rafael
##roth
tagebau
pool
hochstift
eingreifen
##ordens
tumor
synode
rolling
##ʿ
##wy
prozessor
jam
getränke
gesichts
ämtern
klee
verschollen
passieren
strengen
dominikaner
unterirdische
präsentation
stadtrecht
elfmeterschießen
unterkunft
##hou
lotus
##methoden
häufige
emp
autonome
##rollen
##busch
überwacht
wut
geordnet
blanc
##planung
litauischen
gemischt
kor
fragmente
1745
##tafel
vizepräsidenten
kalium
aw
arkaden
territorial
eingeführten
meiner
##rst
weltmeistertitel
schwedisch
flughafens
verbandsliga
sé
prototypen
kompletten
jahresende
fichten
zerstörungen
kälte
biografie
arsenal
reichenbach
reagierte
investitions
wolken
neunte
ges
fähre
spirit
larry
geleistet
freundschaftsspiel
fressen
eid
##issen
ursprünge
neumarkt
##nti
oster
##zweig
kur
fiat
cri
programmen
charakteristischen
1752
met
mau
eingebracht
bergischen
1754
##reiben
muslimischen
milli
marktanteil
kriegsmarine
geschosse
nachfolgerin
rekonstruiert
absteiger
roß
pferden
kernstadt
trump
tauch
sodann
einhaltung
##dus
dw
brau
##vögel
##meisterschaften
work
rm
mittelschule
reinhardt
glücklich
disposition
algebra
etablierten
anger
##kten
strömung
##wart
##arben
solingen
heavy
gefährlich
annahm
dela
reichswehr
radiosender
nicholas
magazins
gegenden
dünne
##wick
commander
schulbesuch
gra
##nza
eingespielt
bestehens
grundlegenden
gol
allan
qualifikationsrunde
##äden
pracht
geprüft
wta
wohnungs
ut
pala
pai
eigenständig
##imo
sap
hinterlassen
##cheid
##abbau
automatische
##aw
eintrag
danny
bor
type
beleuchtung
kurator
bürgerkrieges
##nutzung
lese
toleranz
hua
erhebungen
verdiente
tägliche
tea
anweisung
##rang
ty
##qua
unglück
intel
##ied
rockband
niederländer
förder
drang
##klub
##inghausen
chromosomenzahl
verschont
strauch
aero
##bl
streckenabschnitt
##ree
##gott
milchstraße
put
eiche
revue
lebewesen
verbänden
räder
papstes
neuhaus
gekrönt
bundestages
1660
##panzer
krimi
##uba
##nica
verbleiben
##nov
tiefland
optischen
fabriken
oberamt
beatles
##gleich
verdanken
tur
betriebenen
staatlicher
sil
marian
enorme
sum
gegenseitige
stoß
spezifischen
rhön
oe
fotografen
dein
##rechnung
roboter
basen
wanderweg
strich
león
dahl
cali
##aire
yards
rag
ladung
kirchenmusik
durchgehende
übungs
bösen
restliche
tennisturnier
resultate
kärntner
webseite
archäologen
##äufe
stößt
##örmig
georgien
verschiedensten
schenk
tschechischer
naturforscher
hühner
burn
wasch
stolberg
##uta
streben
steinbach
ritual
source
regina
ere
bestands
hybrid
grabmal
einheits
darzustellen
schla
kaufleute
untergeordnete
1748
##oot
lose
##nek
rezeption
##elen
##fische
ahnen
##oh
campo
kreuzt
verursachen
beteiligen
##rbe
##gle
##ersonal
rott
partisanen
musikhochschule
english
##ossen
tara
##gers
vorlauf
markenname
hai
##piegel
steins
eingegangen
ablehnte
abgenommen
##anus
riet
nes
##runn
verwandelt
kümmerte
##ikon
regentschaft
assistenten
##ssel
##besitzer
vorjahres
paolo
##kasse
##einrichtung
##angebot
opel
ley
internat
abgelegt
##methode
wirt
vizegouverneur
limousine
##ping
sieges
aeg
lor
gouvernement
erzeugte
entsandt
zusammengesetzt
ignaz
gu
ever
malen
dichters
##flege
##bezirk
raj
##nitt
herrmann
anatomie
##wissenschaften
limited
##mini
zerfall
würzburger
codex
report
brecht
biologischen
##lä
fitz
côte
##hop
techno
player
augustiner
lettland
gru
##jar
##elf
##lü
mani
##ici
mn
330
##ngt
klassik
heftige
nintendo
droht
##pert
##aria
sätze
alexandra
##äder
verweigerte
lack
kurzem
hannoverschen
bratislava
##tour
botanischen
hypothese
coupé
##ij
volkswirtschaft
plauen
##oto
minimal
##steuer
nils
lsg
storm
besetzen
wortes
##rift
übertragungs
doms
schu
##vereinigung
##quet
stattfanden
lemberg
vögeln
mou
hölle
getreten
##mission
ausschreibung
##rren
nizza
torre
grünland
geborgen
fahrgestell
frühesten
bedeuten
##zwecken
##hle
##alität
##rius
entscheidungs
domkapitel
temple
libyen
##getriebe
petit
pink
##yla
magic
thu
mas
erfunden
1717
##trecke
fragt
bedarfs
reims
##grab
strophe
lin
englischsprachigen
els
##medizin
wohin
musikschule
lar
isabella
haken
schulhaus
feuchten
versprechen
sende
##pie
jer
eingeschlossen
##ektor
inge
darwin
wesentlicher
weltwirtschaftskrise
1751
ie
besiegen
##hand
sterbe
scar
denk
##isiert
leitender
fo
scheitel
originale
krüger
beinhaltete
antarktis
##xt
##moor
sos
##lé
zukunfts
rapid
gw
sec
hingewiesen
friederike
tha
##sab
##arriere
intensität
begleit
##iker
pla
duc
##ava
schrieben
executive
sou
schwache
wangen
alfa
##osition
ruprecht
portugiesisch
biologische
alpine
treiben
queensland
ima
chin
aufgelösten
##ə
##tionen
unver
kräften
hue
rechtsver
##asten
gestützt
sparta
padua
ottawa
baku
vorbereitungen
bri
stolpersteine
separate
##erer
##ön
##lätter
verschwörung
palermo
grenz
brook
walt
##komplex
schloß
iss
bundesamt
versicherungs
##kers
westeuropa
stadtwerke
nass
##war
liege
illegal
entführt
1550
##modelle
typus
einstellen
cen
##rose
quarz
australiens
##stände
schweinfurt
nevada
##rainer
##esch
anglo
##aler
verbleibenden
turbinen
sandte
reichsstadt
abgabe
teilnehmenden
bildhauers
ziffern
ill
nutz
jas
anh
##tür
##ägen
verleihen
congress
missionar
##ą
rechteckige
enthaltenen
verteilten
brest
gebeten
räumliche
beliebten
ameisen
wandelte
eindeutige
dachreiter
clinton
prozessen
oberleutnant
cai
sas
rc
förster
vorderseite
niederschlag
innenministerium
zurückgeht
keineswegs
neil
##durchmesser
##bahnhof
##ymnasium
experimentelle
##itte
##ement
töne
großmeister
manifest
potsdamer
tunnels
sportart
beschwerden
##quartier
arbeitsplatz
tsu
kala
jakobs
fé
parlamentswahl
ochsen
meisters
körperliche
amor
gletschers
kammermusik
interstate
alf
##ünstler
##anden
stanford
rokoko
leopoldina
kreistag
lago
diplomaten
1761
freising
225
##zirk
##ssung
##rasse
verteidigungsminister
pianisten
erb
##jahre
schel
##sal
übrige
wai
fürstenberg
schätzungen
##bahnen
abi
##zig
##logen
verworfen
präsentieren
schotten
eingefügt
tschechoslowakischen
##hall
seu
nathan
bäcker
angelehnt
pendel
harmonie
dill
mob
jahreszahl
demonstration
meso
luftangriffe
komponente
##hofer
wettkämpfe
monopol
geboten
bahnstation
nacken
emi
brems
##ρ
##asis
sak
##ün
##periode
##freie
archipel
unterstützer
landhaus
kil
hertha
##vić
fahrzeugs
bauernhof
relative
urs
optik
klaren
ehrenamtlich
ecuador
lenin
einmarsch
eder
1710
zunahme
vergrößerung
unterliegt
fahnen
sammel
ringe
anc
##õ
##dd
äthiopien
verwaltungseinheit
perth
afrikas
##grün
##fang
schaum
ethnisch
##ldung
einnehmen
145
berührung
abe
##regiment
##ppel
ermöglichten
boxen
##ym
zusammenfluss
wings
straf
carmen
veranstaltungs
porte
christlicher
zunehmender
trauben
##ürme
##ono
einkommens
bereiste
befahl
lai
verletzten
ver
tt
sitten
##jahren
patron
gemeinschaften
entschädigung
craig
briefmarken
auszu
argument
##ssystem
hope
ortslage
nachmittag
künstlichen
##abend
landsberg
##qi
ne
wa
mitsamt
holm
motivation
hi
hero
gian
##т
##ih
spielfeld
solothurn
bala
##rea
##giebel
pyramide
kata
ffh
extreme
beschlagnahmt
##gestaltung
außerordentlichen
abschnitten
##eihe
oi
laufende
kontrollieren
##nick
werra
versetzung
titan
##opfer
präsidentschaft
wählt
existierende
ce
##gene
zulässig
variieren
trink
protesten
interpreten
gedichten
flüchtlings
nachhaltige
gästen
schnellste
rohstoff
verhandlungs
auslieferung
technologien
dieselmotor
bögen
stimmten
korruption
ausstieg
##iesen
##erfolg
steinmetz
saône
oro
inventar
##itze
##has
pablo
ineinander
hochzeits
großherzog
kiefern
vermutete
doris
##ierenden
machine
ger
adria
##meinde
suchten
##uster
lücke
##lust
zurückziehen
nennenswerte
lane
kopien
radweg
now
osmanen
killer
einberufen
lille
##übertragung
moderiert
freigelassen
wis
##toff
watson
vortrag
spätgotische
dana
colin
ausreichende
kampfhandlungen
austritt
aufstiegsrunde
##ersdorf
überlegen
ng
bewaffnung
verbesserungen
langzeit
sad
drängen
sachs
rogers
kreuzberg
herrschenden
##bericht
heimatverein
1741
##nto
##nor
##direktion
##stärke
##iehen
lès
asia
zweieinhalb
nasen
trag
prägen
mulde
lungen
eignet
dünnen
##tzt
shō
gebirges
1744
stempel
rie
fächern
##ürger
montenegro
sozialismus
leibniz
santos
poesie
hervorragende
fed
##trainer
##hut
nordirland
jederzeit
überregional
scheibe
branche
beratungs
##toren
##sein
bestraft
zünd
zugeführt
herkömmlichen
editor
pete
kanäle
flüge
##ish
##fra
amerikanisches
gmina
auswärtige
##präsident
wismar
gartens
fries
##unt
rennfahrer
liefer
bun
##liches
touristische
illegalen
beleg
dauerhafte
begrenzung
ausübung
kis
gelagert
edwards
bangkok
bozen
bedürfnisse
una
tauchte
söldner
ilse
dirigenten
##sens
historiques
gültigkeit
bruck
koran
after
##teams
meisterschafts
erzbistums
erwerbs
verfolgten
sechster
individuell
tokyo
legenden
wars
nötigen
verweigert
##py
##möglichkeit
lanka
alphabet
##sekretär
##chul
teheran
geheimer
bonaparte
ach
feine
emeritiert
verbrannt
mitter
röntgen
götz
1250
##erklärung
springs
finanzieren
antisemitismus
##hill
##æ
##onne
##feier
##enko
kranke
##ře
##gemäß
gemeinsamer
##zenen
nationaltrainer
him
falken
erließ
haas
##sow
##müller
asiaten
apotheke
prüfen
ll
kro
keil
fahne
##ntwicklung
##enze
illustrationen
ewige
ableitung
ungewöhnliche
ratten
geplündert
##owitz
##hler
steel
krug
gelobt
nicole
##ů
##bot
schuldig
satire
demonstrationen
##tow
##setz
##pot
naumburg
kieler
hauptschule
spalt
sichergestellt
selbstständig
grazer
empor
aquitaine
va
parish
dolmen
nordkorea
neugegründeten
lost
gesetzgebung
##ration
balthasar
##spitze
swan
kan
##hau
vorgesetzten
landesweit
ökonomische
sternwarte
verteidigungs
ghetto
chirurgie
##ates
vorgängerbau
nominierungen
##ühne
parti
schleif
knaben
##aba
zugangs
vis
prominenten
pick
empfang
reaktor
kha
hofe
erarbeitet
vilnius
pet
##gos
spencer
gewehr
kleinbahn
1747
##halter
ceo
remis
charter
angehöriger
1732
schöpfer
rücksicht
elften
spaltung
rin
republikanische
greg
##schnitt
##rag
wit
prozesses
##messung
cockpit
##lbach
##ierende
sekundär
oberhof
##zeichnungen
kommunalwahlen
##ckel
stadtzentrums
geburts
faser
##variante
streik
mana
aufging
##icher
##iana
treffpunkt
schnittstelle
frist
bé
schlaganfall
##fell
kriegen
sklaverei
hinnehmen
freundes
brun
stießen
aufgefordert
122
##uh
##egel
stadtviertel
pauline
kohlen
filmproduzent
erbauen
sendet
schö
##sus
verfiel
todesstrafe
hergestellte
faden
vernichtung
bekanntschaft
##fried
detmold
##vice
neuburg
leningrad
absturz
thüringischen
gewichtsklasse
##denkmal
strömungen
##usa
##teilen
##fie
transportieren
zweigeschossige
era
480
##zzo
statistische
paraguay
nas
brasilianische
bele
amy
##phie
kraftwerks
garcía
420
günstigen
blattspreite
ave
##lbe
ständiger
klinische
genossenschaft
atlético
##breite
staatsdienst
beerdigung
epitaph
spaniens
##über
pd
diözesan
##konstruktion
novi
lei
krank
gartenbau
##sey
cala
reed
offizieren
herzogin
##sung
gepäck
schülerinnen
komitat
calgary
##motoren
session
schale
netze
morde
##jen
##ichten
gedient
1746
tuch
quadratische
pflanzenarten
bewaldet
adenauer
trail
gleichmäßig
##jer
beliebte
##zügen
tyr
gä
füße
ama
mühl
kleider
jenny
favoriten
##hä
laa
pot
glo
edith
kürzere
##uti
##reit
##dri
nahrungs
mittelmeerraum
zan
schulze
raben
braunschweiger
klassisch
ita
chat
loh
kompromiss
grammatik
calcium
##time
verschwindet
schirm
##tzung
häufigkeit
herausge
geschwistern
ereignete
telekom
hod
heiß
erreger
##ovice
##programme
##asa
##mut
shan
tals
annäherung
##ical
fossil
beschriebene
renn
tauber
schlugen
yoshi
mind
menschlicher
genetische
aux
##weite
munitions
markierte
##herrschaft
ermittlung
uri
stoffwechsel
gewachsen
##tieren
westdeutschland
horizontal
char
##meer
luke
gasse
sopran
richmond
puppen
einstimmig
missionen
eineinhalb
##bereiche
dog
##box
##avi
sitzplätze
buchholz
##kommando
überarbeitung
ägyptische
##ebiet
bekämpfen
ry
lehn
sportlich
mix
kreta
gruppierungen
goethes
1736
##schar
studiengang
shaw
pascal
karst
igor
lehrauftrag
steigenden
##р
1620
##tock
symphony
verbrecher
falk
armenien
freige
erfassung
full
##rief
universum
lateinamerika
helligkeit
plo
göttinger
durchsetzung
cru
anbieten
1735
##erre
##inrichtungen
spätantike
religions
fbi
aneinander
schlösser
##helm
##eifen
raw
irish
heid
tet
renten
nackt
moralische
besichtigt
##cup
stammsitz
nh
elberfeld
belgischer
##water
##räfte
winzer
weiche
margarethe
zentrales
##mp
pers
kri
komödien
alain
##assung
yang
prior
definieren
##kirch
jährig
bunt
sommersemester
letztmals
konstruktions
saturn
ant
amtmann
##itter
verwehrt
hunt
bewerber
liebt
##ð
##zie
ehr
speer
od
##uchen
tourneen
##nol
bul
blütenstand
##sfeld
vere
typisches
momentan
justizminister
becher
synchronisation
sechzehn
symbolisiert
nora
montag
jamaika
durchgängig
verlegen
1630
##atur
shuttle
pine
abspaltung
##öglichkeiten
##rede
verweisen
minsk
grä
train
mang
commune
##örder
étienne
operative
ee
boss
202
vorliegt
sicheren
regisseurin
##oga
##any
oberbayern
lux
esp
burgruine
immun
luftwaffen
haupteingang
israels
##bschnitt
territoriums
mira
familiennamen
hilfs
##ň
vergibt
koma
1714
roe
provisorische
fünfzig
dornen
spiegelt
civil
##vollen
##lea
öfter
volkswagen
oberschlesien
konsequenzen
##ähe
sw
rotten
maximalen
##tigen
##edt
sprang
globale
schmerzen
oak
fol
##hügel
##esellschaft
niederlassungen
##ypen
trilogie
rolls
kabarett
flash
##zeitschrift
##systemen
verb
stummfilm
1743
##emann
officer
micro
leih
kran
brühl
fieber
bewahrt
mig
infektion
##tch
##ssistent
has
##altar
dou
##ción
jab
hobby
tri
zuweilen
##tempel
##stor
winterpause
trockene
oval
anal
127
stimm
schallplatte
nachfahren
laurentius
alexandre
##rauen
ungarns
whit
stier
stachel
heiz
freiheits
##gürtel
##bindung
propstei
##uche
##flugzeug
überrascht
diplomatische
turmes
krause
hydro
fiktive
vorgängers
gur
##dens
wasserfläche
vorstandsvorsitzender
verkörpert
untert
aaron
##edo
lokaler
disc
case
bundesbahn
buchs
##hat
baubeginn
1530
hv
une
sag
steyr
nachweislich
anzusehen
##brik
##ative
westfälische
adelsfamilie
##ello
festgelegten
brenner
benutzten
##mir
volksabstimmung
transformation
wallis
vent
movie
jugendstil
fre
banner
alp
léon
konstitution
strategischen
realismus
grundsteinlegung
währung
teufels
##szene
##kor
##höfe
überregionale
rd
bemerkte
fehde
angeklagten
tauben
bulle
bibliothekar
verarbeitete
schleuse
kombi
honig
proteine
1749
justus
pavillon
herstellungs
1713
pacht
adeligen
postum
miliz
duett
bip
##zeug
schor
auffallend
volksbank
belo
##lor
wels
grabstein
erfüllte
rossi
rennens
np
##sl
##ght
parteitag
1737
gerichtete
vv
rathauses
taxi
suite
plattenvertrag
firmierte
curt
abteilungsleiter
##bögen
kastilien
homer
defa
capital
advanced
##meier
schrein
finn
erfassen
bestreiten
berührt
155
##zylinder
objektiv
gesandter
##mond
christiane
angesprochen
chinesen
behinderung
abweichungen
##inheit
##pokal
zeremonie
##lum
verteidigt
lärm
hügelland
gotthard
sardinien
ausgemustert
verstärkten
perl
krönung
eb
bene
affen
##hme
tänzerin
schwangerschaft
richtungs
##ebäude
##dell
toyota
neugründung
ausbilden
anspielung
##ieben
##egion
##av
teilten
kit
##gb
apo
1738
hen
rotor
fernsehproduktionen
dachverband
beobachtungs
ableger
##bri
weitesten
boll
begründeten
wetzlar
südamerikanischen
m1
geschütz
tala
sä
soccer
verkündet
##vá
nazis
lucius
afd
##tritt
##nse
##portal
vorgesehene
erforderliche
unterirdischen
fly
##frau
lö
fragment
dazugehörigen
##ringer
höfen
française
dd
##nsis
##ngi
ele
constantin
arkansas
##nel
##arzt
twin
staatspräsident
referendum
parkplatz
marienkirche
derby
##entrum
schutt
rajons
genauigkeit
rim
mata
##burger
massa
einwohnerzahlen
rennwagen
hf
hauts
auskunft
verschaffte
sj
advisory
##yne
##chens
sey
##kapazität
##cor
proto
guillaume
##sum
##pri
mitzu
##wka
##ritt
##eiden
rätsel
gezielte
essays
erwarben
##î
##triebe
##altung
olivier
##käfer
##eni
##emi
kalte
hauptfigur
grass
betraf
allgäu
##stan
##oda
zuhause
television
##unkte
##manager
regelt
80er
##λ
##bestand
seelsorge
wasserscheide
redner
botanik
##nei
##law
wimbledon
##hmen
tätige
kaufmännische
ef
cas
avi
landgrafen
gig
support
borg
allo
##plätzen
eure
bourgogne
ökologische
eisenerz
eingereicht
v8
reisende
1540
##ğ
schuster
io
guard
##stern
wacht
schutzgebiet
saiten
cran
##vik
##rta
##baus
flughäfen
##ér
##ngo
##etzen
mitgliedstaaten
##versicherung
zeitliche
gebräuchliche
bundesverdienstkreuz
berechtigt
joy
##gaben
yan
verstärken
dreiecks
##ør
##album
wohnplatz
federn
fränkische
ausdauernde
##scht
zehnte
hinweisen
dominierte
##less
schweiß
rer
buss
verona
regierenden
##ministerium
moss
##probleme
##nien
##ming
platzierte
stockwerk
professional
märkte
kontrollierte
geest
formulierung
zusammenhänge
näheren
gemeindegrenze
##м
##nell
##kur
##kind
titularbischof
ank
1618
##projekte
holsteinischen
##stet
lehrbuch
india
bauliche
##yas
##ausschusses
johns
funktionär
biber
1670
##zentrums
##nationalmannschaft
res
freies
erarbeitete
##küste
orientieren
oberf
wänden
weitem
kronblätter
##dat
##chts
ruhen
männlich
methyl
eingelassen
##oxid
vielfältigen
montréal
kempten
cic
##ulen
##tums
##rc
##pat
##onia
##moto
ci
##urf
##heide
##gras
##dro
lock
gleit
1690
##lang
rechtsform
##frage
riesigen
gallery
datieren
##eiben
verbliebene
hinterland
cars
132
wurm
besatzungsmacht
##ärts
zeitgenössischer
externe
claire
##ect
universidad
gesetzen
##tausch
landgerichts
##universität
elm
keltischen
century
ange
administrator
##kurse
##erke
stadtrand
fähr
##uc
##pul
maske
lenz
göttlichen
1733
126
##kai
magistrat
leucht
##ì
passagen
hinunter
##format
verhalf
timo
gemeindegebiets
##ipfel
tropen
##stad
halber
gangster
einkaufszentrum
nos
1724
füßen
australischer
##eiche
##decken
unterbringung
prägung
standes
mia
lancaster
herausragenden
drum
make
ligaspiele
goldener
##yt
sohle
fide
holmes
bedeutsam
wiederaufnahme
illegale
begegnen
##rojekt
lanzettlich
gegnern
frühlings
##rett
##irtschaft
beseitigung
##lings
sbb
nachteile
initiiert
cob
boom
feindlichen
##ssi
allzu
mängel
##ümer
##thi
vorsah
netto
denkmals
armin
##tit
vergleiche
pf
osttimor
konstante
##öhe
##verletzung
thesen
belastet
baches
jazzmusiker
hypo
hafenstadt
clo
kommentierte
##zogen
##grenzen
weltlichen
lions
1721
wandern
##oku
##iss
##fikation
initiativen
1701
lb
begünstigt
##professor
know
ingrid
1520
##otte
##apelle
lc
auslöser
##ske
rü
dominierten
##pfer
verzeichnete
süddeutschland
##oj
##hoch
zusammenge
bour
steppen
nachschub
empfangs
ponte
kuhn
genfer
dimensionen
##ted
##etti
##chemie
stichwahl
moldau
lass
epi
ehrendoktorwürde
##regeln
##lieder
##eistung
unterstanden
pädagoge
vorab
vollendung
viva
gefundenen
1718
rams
erleichtern
building
123
##energie
sean
saxophon
alla
##pit
vas
streich
luca
pm
##sender
##ierungen
ähnlichkeiten
sem
halbzeit
##eden
senatoren
gefragt
bayerischer
##kh
##iler
##igt
uc
erlosch
##reuth
##achs
##urn
##orientierte
zwillings
entdecken
##uda
serben
kontroverse
hesse
wittgenstein
sis
kulturdenkmal
judentum
zweitliga
besiedelten
1725
tschechisch
kiss
1640
protestantische
weltmeisterschafts
kräftig
alliance
lehens
##artei
inszeniert
bundesgesetz
weiblicher
roms
##abschnitt
entführung
schifffahrt
dominieren
8000
##partie
##ines
konkret
gabe
##grube
##cle
staubblätter
signatur
intellektuellen
angeblichen
##rmann
##pause
mafia
##loster
tuberkulose
sensor
ritters
erika
cho
gemalt
ganzjährig
palazzo
bundesligisten
bode
##streifen
##bschluss
tagsüber
roi
monika
aufgetreten
##ändige
steigerte
kümmern
##afel
verstorbene
small
rupert
repariert
gegebenheiten
ion
grace
ye
unions
ironman
gabel
facebook
eisenbahnen
mehrheits
beschlüsse
amtierende
##ebe
außergewöhnliche
spielerinnen
##anti
preises
beschafft
##andes
print
haltestellen
burgstall
andre
##tätte
##gentur
##ften
tribut
fruchtknoten
behauptung
zin
unterwasser
gemäßigten
basse
##fil
exportiert
##nehmer
strauß
klinge
behandelte
öko
zivilisation
workshops
schleusen
buche
reisenden
##freien
subs
plattenfirma
erinnerte
##hallen
starkes
dieselben
amalie
##gewölbe
trennten
spruch
leere
investiert
##ausstellung
zusammenlegung
hy
##reiter
##nummern
vergleichen
einstige
waldemar
ili
bedienung
##hnen
##aster
raumes
##faktor
trinidad
ru
fahrgast
armeekorps
##rup
vorwort
gefälle
ergänzen
beantragte
länglich
hara
gewöhnliche
geweihte
zufall
stille
separat
scho
drehzahl
quedlinburg
##üche
##geben
##bundes
fußballmeisterschaft
cul
##olge
öffnete
beschädigte
##irk
ris
hou
fürstentums
flat
fen
440
längerer
kapellmeister
besichtigen
pisa
dynamik
1723
schwa
prospekt
##wälder
##staat
weltmeisterin
sozialisten
##rch
lasse
braunen
behinderte
##tio
##bibliothek
zwangsarbeiter
gesamtheit
kollektiv
beraten
##reiten
ket
dong
behälter
##ved
gos
swe
naturwissenschaftlichen
knappen
graubünden
schönsten
kartell
hafens
flaggen
teuer
selbstständigen
luftangriff
friedensvertrag
##sf
##zahlungen
nords
##völkerung
##oti
##immen
##betriebe
griffel
##önig
##kie
##inder
voss
schriftlichen
gewürdigt
fluor
finalrunde
buck
anno
##problem
##ext
gers
fehlender
124
bak
1688
perfekt
bg
bassisten
##ová
lay
industrial
hilfsmittel
devon
derweil
##pannung
##aterial
zweithöchsten
profikarriere
##sing
##insatz
geologische
fortsetzen
esch
brügge
bildes
##isk
##ees
türk
##ries
murphy
vermerkt
ridge
hun
ernährt
überaus
kraj
katze
aki
##phe
##künstler
##betreiber
rhin
pie
guinea
bent
##undes
##ful
pohl
betreffen
cari
mendelssohn
gegebenen
rita
playstation
nom
##abel
senegal
konstruierte
kho
eden
aufgestiegen
auer
vergleichs
erschwert
##inhalt
syrischen
zweibrücken
künftige
tauf
sediment
spurweite
homosexualität
##â
##ple
mechanisch
##nstein
ui
playoff
len
halberstadt
eisenbahnlinie
partido
patente
lippen
gremium
freud
diskriminierung
defensive
außenministerium
##hra
wi
inhalts
##mangel
radi
kirchhof
eth
##hit
ungleich
propeller
##aris
saug
einkünfte
aufbauen
alarm
urlaub
serbische
pfand
##indung
##waffe
##eal
sakrament
reist
getan
food
anwesenden
regionaler
beschwerde
gemälden
soest
siedlungsgebiet
neuauflage
##icherung
165
1634
vielfältig
höhenzug
##sle
1683
forschungsschwerpunkte
stoßen
herausforderung
##quin
unterdrückung
chores
berechnen
##chung
unabhängiger
ruta
pollen
mitge
bewiesen
sanitäts
cham
1739
herunter
gli
##rä
tora
plattenlabel
wid
türmen
katastrophen
geschwader
entstehende
ureinwohnern
stadtkirche
locker
eh
bö
vö
##ommission
vo
stärkung
##edi
##drama
steuers
bur
anhang
##haber
##schung
##app
kni
##gion
tanzen
sinkt
gabriele
brom
##pti
durchschnittsalter
deine
zeppelin
leone
drehmoment
mexikanische
mentor
##jährigen
universitätsbibliothek
rheinische
repräsentative
wel
stevens
novelle
bek
##pes
gens
370
##latte
geltend
cour
##lier
##kauf
kreislauf
kirchberg
erlebnisse
viola
mys
fünft
annexion
aktivisten
##ütz
verfügbaren
trägerschaft
intensiven
giorgio
cir
##profil
qa
1678
##siert
##regierung
##lemente
##ahrer
württembergische
durchflossen
zweigen
jen
gewährte
##otor
zehnt
wich
tessin
sequenz
pfingst
urteilte
##gate
chester
bergfried
##vers
##ray
schwarzenberg
inflation
fh
blake
##ausgabe
industries
galli
1734
121
rückwärts
flo
antworten
stämmen
polizist
zit
willem
realisieren
haber
bäche
##tic
##cla
##apa
schafften
funktioniert
erzgebirge
erbfolgekrieg
##gat
fühler
bruderschaft
anwender
##ader
phantasie
zeitz
wächter
weichsel
unrecht
kin
ausgerichtete
1727
##aufnahmen
yacht
wiedergegeben
stadtgrenze
sous
middle
jose
auswärts
##treten
##né
landesverband
kreuzen
##uin
##staltung
lagerung
1722
##л
mongolei
legendären
einher
##ohl
##kä
provinzial
lieferten
bere
aktions
##pläne
##omi
zisterzienser
vorkommenden
bourg
heiliger
georgs
orchesters
gelehrte
##noten
provisorischen
moser
landeshauptmann
churchill
berichteten
bari
##tischer
rah
levi
langhauses
einbeziehung
stiftskirche
schwieriger
kontinental
beging
untertitel
artist
wüstung
umschlossen
pächter
klinikum
##rein
##jon
##heater
recherche
podest
ordnet
untersuchten
nebenrollen
intra
orgelbau
geschwindigkeiten
verdankt
entstammen
chau
##physik
##nts
wied
columbus
##artner
stör
konto
einstein
##ogramm
##konzert
##nski
##liegen
leonardo
lama
kou
feststellung
arbeitslosigkeit
adjutant
##ignal
kt
gauliga
empfunden
biblischen
abwärts
##ń
##ær
##varianten
##lc
##asi
##owitsch
zentralbank
schwierige
president
zo
xu
sullivan
behandlungs
spvgg
pak
hannes
##burn
neuss
optimale
notfall
##ân
traditioneller
prüfungen
mass
fliegt
1712
##teich
##kop
gü
filmkomödie
armeen
round
partnern
mauritius
madame
sel
##pet
##nsk
metropolregion
##iu
##ativ
hebräischen
sendete
indi
furcht
kreuzzug
domain
##τ
kleist
halte
abgas
##stift
##aya
ziegelei
völkern
1632
##uerung
reb
mechanismus
##ique
überzeugte
kne
##с
tötung
komplexität
gefechts
zukünftig
vogelarten
siebenbürgen
rachel
essener
##uan
belange
ausgegraben
##rla
orlando
##marsch
##iftung
##uit
##lehr
##aud
##architektur
pforzheim
kramer
##star
beh
##uert
##ransport
willens
platon
ocean
gf
##ift
treib
sande
delhi
armenischen
aborigines
vice
soli
gänse
demgegenüber
nash
luftstreitkräfte
beidseitig
##pha
##aufbau
nischen
##raf
lindau
ästhetik
verdienst
ragen
konzils
##gny
sponsoren
ravensburg
offizielles
ge
körner
kennenlernte
erwartete
wirkende
##eht
##chy
malt
enteignet
abgezogen
##cen
schmelz
phi
##zugehörigkeit
neuro
integrierten
enthielten
standpunkt
petro
kanadas
inspektor
cemetery
bewaldeten
beeindruckt
##fahr
verdienen
kal
etagen
elternhaus
sozialwissenschaften
mv
maier
weißlich
orléans
gewerbegebiet
cornwall
raimund
provinzhauptstadt
kenn
obgleich
hergestellten
abwehrspieler
1719
überwiegende
überlieferten
weis
tannen
newcastle
filmdrama
briefen
ax
##pital
ländliche
gremien
beherrschte
##üm
zwangsarbeit
guild
grenadier
textes
fuji
fließ
##stra
wessel
##ří
teleskop
maximum
lauenburg
gewünschten
blas
##ießen
volksmusik
pö
lösten
verfehlte
1689
abweichende
##ngel
nepal
leider
hughes
evangelisten
##läufer
überspannt
lieblings
einflussreichen
##ielen
deal
federal
uh
nrhp
dru
##nahmen
mannheimer
é
warme
gemisch
dargestellten
beliebig
begrenzten
cola
anwalts
##text
##jat
messing
klu
cur
beschreibungen
##rdi
woraus
pn
parallele
insassen
##iw
str
sommers
kehle
##ς
ökologischen
steigende
staatsminister
deich
##stücke
airways
stärkeren
pearl
kontinuierliche
eintreten
##dingungen
pack
geisel
durchzogen
reichten
##spiegel
##lles
zweithöchste
säge
gastierte
rode
religiöser
kos
inkrafttreten
gai
aufbauten
vorgeschrieben
schlamm
democratic
##rakt
afroamerikanern
##tori
##tad
##oid
viert
stress
populäre
hochfläche
fraktionen
##inkel
südostasien
##tanz
vorsteher
vollendete
137
kulturgut
fv
erschließen
albrechts
##yle
##schiffe
gin
vie
tem
einordnung
ub
palace
krems
gesteigert
selbstverwaltung
flüchtete
fleet
eschen
##rou
intendant
fertiggestellte
antriebs
schmier
priesterseminar
mordes
cincinnati
##ović
césar
##joch
überstanden
verkäufer
##pus
##card
auftretenden
trinken
##austausch
zwingend
vermeidung
kj
kickers
hiervon
gregory
1716
##pon
nennung
rosenheim
regiert
hindenburg
geltende
##isa
halbleiter
betriebswirtschaftslehre
##ällen
unwahrscheinlich
klassifikation
fußballverband
##sil
##dr
ú
wasserkraft
riesige
1880er
##äne
kostüm
angetreten
##vier
##itet
##eti
wing
unterzogen
touren
korrespondenz
edi
##uge
überein
vermittelte
pag
geruch
fitness
alleinige
weißem
##hos
uner
grade
forts
##wände
##gewinn
gesta
außenstelle
zuges
jou
jod
entsandte
centro
##äste
##filter
realisierte
libretto
hort
toll
1672
smart
psychotherapie
palma
einzurichten
ries
originalen
höhenunterschied
340
1450
##oge
parc
1570
##objekte
guide
##steine
außenpolitik
##vat
tafeln
pho
indigenen
hos
##ubi
chinesisch
##vent
##aj
zusammengestellt
prop
kei
einbruch
ehrendoktor
1705
##malerei
leistungsfähigkeit
##archiv
pölten
##ní
queens
eri
1728
##schäft
sandra
beträchtliche
alias
1350
süßwasser
großteils
getrennten
##sien
##musiker
rekorde
##mei
indonesischen
gat
einflüssen
##šov
wilder
vorläufig
vorbe
fakultäten
##ston
inspiration
frische
sauerland
herauszu
erholungs
##enti
sho
pere
haaren
bergmann
verlagerte
trost
schlepp
arbeitern
ler
judith
claudius
bediente
räumlich
antikörper
##recke
##fähig
ausländischer
vakuum
tamil
ert
eingabe
ausgestaltung
unerwartet
savoyen
lipp
##gast
triebwerk
sepp
effektiv
ausgleichs
##rtig
übereinander
aufgezeichnet
##rist
nahverkehrs
ester
architektonische
##räu
ural
hebt
aufwändig
##rti
##dge
rip
niedrigere
klinischen
führender
abba
##sm
##rach
variationen
norwegischer
##kha
lebensmitteln
landesweiten
gebäudekomplex
chaussee
##kam
gewünschte
exklusiv
##nth
##sge
vorherige
thrash
strategisch
pyro
preußens
police
experte
dn
##chle
radebeul
hosen
gegnerischen
convention
vorbilder
slo
nc
##ross
##iti
zs
schießen
maschinenfabrik
urteils
lebenswerk
hochhaus
hebel
##lit
##for
depression
nebraska
fehlten
dingen
dortmunder
##elb
anleitung
nutzbar
graue
formulierte
##ergebnisse
niederschlagung
meiste
mangelnde
bodens
thematik
stadien
fass
##ô
too
lex
flügeln
##üt
##usbildung
remix
mönchs
musikalischer
lebenszeit
dramatiker
##stin
##furt
zurückgehen
versailles
senken
hinab
geschafft
dialekte
baltischen
ostasien
eigenständiges
с
weinberg
schifffahrts
geschwindigkeits
taufstein
ehc
cle
##zeuge
steffen
seh
bartholomäus
sym
rufen
##я
radikale
indo
č
stahlbeton
maut
gerüchte
##amp
ming
akteure
##ücher
ausgegliedert
aufgefasst
1711
##sts
##rain
##organe
zuchthaus
tg
##sol
##preise
swa
farbige
decks
zwölften
warb
spionage
musicals
merkel
gutshof
erlernen
##user
tränen
lid
##funde
scharfe
günstige
gebets
eröffnen
castell
##kation
##jas
hing
erwähnenswert
dringend
290
oberlausitz
kill
fsv
aufwärts
70er
1709
##renze
##mpo
zusammenstellung
spaß
juri
burger
abschließend
##zar
##ides
winkler
umgehen
wet
stätte
rüdiger
mason
leidet
ela
##bia
pokals
inland
ausgewählten
##zes
##historiker
##angaben
kostüme
1729
germany
außenseite
ausgedrückt
bergsteiger
ermordeten
kron
emporen
come
öz
straßenrennen
spielzeug
face
##jn
##cin
kronprinz
isabel
markante
mache
bagdad
##wohner
tours
schwein
##ierungs
akte
tres
hohenlohe
daily
abzweig
##uter
##tsu
stammplatz
pfarreien
geschriebene
aman
sonn
memphis
hasel
factor
phillips
abbey
##pflanze
mick
freiherren
stimmt
sitzungen
initiator
anfänge
wanderwege
gong
posthum
ox
möglicher
jungs
erwähnen
##rian
##endung
##andel
suco
ols
meg
henrik
##mutter
brasilianischer
kwa
gc
bombe
cy
verringern
scharfen
ned
fürstbischof
elektrischer
chrom
##cer
verpflichtungen
mühe
mallorca
toledo
perser
kräftigen
ker
gate
##rekord
holger
##ction
hervorzuheben
grundherrschaft
gastronomie
edo
##anal
hä
doppelten
demi
##ewa
frosch
verbündete
neuerungen
schwächen
works
westa
verteilte
lieferung
wes
rö
konventionellen
cash
1685
nashville
kür
hausen
dauernden
visuelle
sieb
harvey
erzogen
##ogie
##lly
wiki
piet
erstrecken
befassen
bandbreite
add
##aß
vikariat
vb
präsidium
lew
##zis
schlosser
prost
olaf
unsicher
qualifikations
missbrauch
leeds
martini
cameron
##filme
arztes
abgestellt
ven
schafe
fun
##rater
schra
##haltige
wörtern
bekrönt
1580
##rina
##ime
seitenschiff
melodien
herford
epochen
##ario
verwaltete
speisen
prima
ner
landgraf
gesteht
makro
chors
1560
auswärtsspiel
##üller
violett
##vs
##itten
##bataillon
stor
kenneth
eingriff
beth
1704
jugoslawischen
blum
anlauf
##gemeinden
romantische
puls
novo
herausgegebenen
brachen
##vre
streitkräften
##dio
security
denkbar
teamkollegen
ren
foster
associate
##stock
##inien
wells
realgymnasium
noir
oppeln
landwirte
geflohen
ausgeprägten
alberta
##ša
##uo
verschaffen
pfeffer
hz
stockwerke
both
vereinfacht
slowenischen
friedberg
##ntin
##kra
verwaltungsgebäude
kä
wwe
##lern
marino
kompakt
1731
##rmen
och
markennamen
beiträgen
unterhalt
künftigen
euch
ego
##ranche
sogleich
fertigen
dani
abhandlung
##räder
##int
übungen
rinde
integrations
erc
dora
##öffnungen
senden
kühn
##gre
sheriff
ostafrika
inselgruppe
geldstrafe
galizien
bankier
denver
bog
prae
refrain
rechteck
freiheitsstrafe
dk
##ulo
generalstab
erleichtert
dragon
##instrument
zusammenhängende
siebenjährigen
card
ante
##eibe
prüfungs
mbh
walmdach
arc
##quer
##gur
##öden
##lub
doll
bourbon
##yna
##rtung
##herr
tama
schlichte
pin
glücks
##eria
##bewegungen
##alde
rüstungs
gema
erlen
concert
moh
iz
hora
ga
##atus
zehen
ewigen
anfrage
gehaltenen
trem
casino
befestigten
bac
wünsche
phosphor
fachschule
canyon
tigers
kennzeichnung
##ño
##vorgang
##gründen
relation
heimatort
##unternehmer
wahlkreises
herrschaften
cecil
##ags
amtlich
##či
##xo
ranch
fordern
131
vale
tourenwagen
luftaufnahmen
kama
dab
1697
##mä
körperlichen
konsequent
font
ergänzte
eingesch
beschaffung
marin
erscheinenden
durchführte
böhm
borough
##iguren
##bauweise
neutral
faul
buchenwald
##klima
##saison
##nch
materielle
kog
distrikte
##tha
wrack
schaffhausen
konsolen
ausgeprägte
aufgebracht
##mitteln
##his
vc
here
dau
richteten
##farbe
vergehen
owen
hieronymus
dachte
zeugnisse
ri
gasthof
enttäuscht
calcio
##ngebot
taktik
satellit
laute
endo
angebliche
1635
##suche
##papier
vt
raumschiff
mun
mandel
außerordentlich
7000
##ák
überholt
wirkungen
versah
verlagert
passiv
definierten
vorletzten
stattfindende
routen
komiker
arbeitskreis
albin
made
kranz
korrespondierendes
kometen
gewisser
erstaufführung
blockade
aktiviert
zir
basketballspieler
##bes
schulte
pb
festspielen
##kins
string
delegierten
bloch
310
##qu
##nja
profimannschaft
überstand
hierarchie
nepomuk
hurrikan
aspekten
abgeschnitten
sporn
##rät
##gin
sle
unterschrieben
pokalwettbewerb
faschismus
##ř
##holt
verspricht
späte
gesprengt
erliegen
##iki
##aca
gefieder
exakte
bahnhöfen
##shof
steigung
qual
inhaltliche
##mat
##izi
reduzierung
ono
durchlaufen
bewohnten
beliebige
##ís
##erl
polit
oo
ernährungs
##scho
lektor
kruzifix
##wang
skala
mus
heilbronner
eleonore
vergessenheit
adaption
vorhalle
vatikanischen
jungtiere
##dam
schleife
jetzige
fet
entsprachen
dunkelbraun
##ssion
secretary
##sphäre
##kowski
teu
kon
bereitgestellt
sechsmal
reicher
partikel
##erbe
verdi
patient
##chein
titelgewinn
anderthalb
1702
römern
oberhaupt
lab
brock
stürzt
magna
gloria
weißenburg
unterbau
mena
demonstranten
##treifen
verzögerte
urlaubs
sweet
kostenlose
comp
awa
hilde
uli
spielstätte
übereinstimmung
vertrauens
korrekte
illustrierte
had
buchhändler
bischofssitz
missionare
have
##over
grun
gesetzgeber
##polis
schieden
gestellte
gest
töchtern
teilhaber
fai
commons
##mani
##bringen
zeitlichen
weltliche
pixel
kraftstoff
hed
ellis
diakon
##tts
illustrator
forces
##rge
##rektor
piemont
ostfront
bes
spandau
meinen
flohen
tischler
steuermann
simone
hoff
gliederte
bona
nei
fortschritte
entziehen
##urkunde
##partien
querhaus
jennifer
fahrplan
einschränkung
##walt
teppich
1726
1707
warmen
töpfer
nächstgelegenen
hauptt
##dere
##darstellung
hauptgürtels
wesel
store
zufalls
landesf
göring
veranlasst
##ór
##sor
##rote
zealand
tierarten
opernhaus
lg
documenta
rundbogen
dry
beeinträchtigt
##ucher
vorarlberger
tragflächen
stendal
siena
municipal
mittags
ausprägung
##wie
terrasse
tam
planen
hei
ausschlaggebend
aufgehängt
ano
##risiko
##bur
obmann
det
1708
##ène
##roda
##formel
##atoren
rf
enterprise
chassis
ava
##beste
rocky
glenn
deh
##riff
pumpen
maxim
flugzeugträger
bsc
schotter
saum
repräsentativen
abnahme
abgedeckt
##felden
norfolk
pres
kob
adelsstand
##helfer
dale
beruflich
##inus
bundesgerichtshof
##gewebe
mah
córdoba
bauwerks
antwortete
##pter
##nteil
##kat
taxon
schwimmer
nou
erbauer
swr
niederösterreichischen
mf
##fal
früchten
##leis
sparte
petersen
gesamtweltcup
beige
##unnel
stabile
ran
frequenzen
##chluss
rhode
ord
neuesten
legal
beiderseits
verknüpfung
##revier
##nke
##log
##hö
vorm
schur
kurier
kipp
##ča
##verzeichnis
versammlungs
selbstverständlich
angegebenen
##arme
urin
konfiguration
isolierte
informieren
grundfläche
erforschte
bic
##immer
thorn
sortiment
pfadfinder
gy
gewöhnlichen
fließend
weltcuprennen
tales
innovation
grenzgebiet
erzählte
eingerichteten
##mid
##messe
##lima
##trasse
##elin
drive
ausgestorben
##ecker
verwies
ungeklärt
lachen
##uern
##rieb
schweigen
gallo
##ekretär
schü
##led
##irkung
umfangreiches
##üd
##risch
umstrittenen
retro
neunkirchen
loe
kemp
138
##ál
peace
rookie
pon
gries
fälschlicherweise
edmonton
zuflüsse
tac
stadtrechte
kriegsgefangene
##had
mitgründer
##torf
##sorgung
##kreises
darstellende
assessor
##olis
verankert
pou
poll
mie
intro
kirchdorf
anthropologie
203
##hua
##ace
vic
sac
happy
schlange
schöneberg
erlag
a4
##bridge
##ause
luthers
hack
glass
absolventen
##kasten
kirchgemeinde
gesprächs
verstreut
nicaragua
1622
##such
##rik
hofer
bub
arms
##ütze
erzähl
##precher
salem
künstlernamen
##ief
##urz
westafrika
karen
##ume
##eger
stellenwert
schenken
hardt
grönland
##cos
tags
portugals
npd
cath
bod
abo
schmaler
oz
1699
##uhl
vienna
startplatz
paläo
manöver
##hre
zag
untergliedert
gutenberg
gebrauchs
##ake
zubehör
resten
gefertigte
weihte
unterbrechungen
lineare
indianern
batman
vertreiben
jos
jade
anwendungs
##weiß
##ktor
##itis
##aufgaben
leichtathlet
government
##iar
##gis
virtuelle
straubing
lon
literaturwissenschaft
##lab
seeb
lf
gnaden
##werden
verwüstet
hol
erfahrungs
ausweisung
##verbund
thal
schlafen
monde
clay
trinity
preußisch
himmler
##kro
warburg
rhythm
##nze
serra
nötige
blinden
kanu
wasserfall
sla
qi
fußballspielen
##tei
##spe
##legen
turbine
teiche
pyramiden
gesandten
beurteilt
##schichten
techniker
schal
externen
bezugs
##ehre
geladen
gehör
##union
kleinasien
eugène
check
goslar
gestaltungs
analysiert
##gefahr
sogenanntes
konferenzen
hiv
freimaurer
amateure
überschreiten
vorburg
reutlingen
kompositions
ingenieurs
cloud
währungs
plantagen
natürlicher
gütersloh
##leit
verbesserten
step
orgeln
helga
##staaten
versicherung
ufa
tötete
portugiesen
datenschutz
##hörden
wahlkreise
naka
ilm
generalversammlung
dampflokomotiven
astronom
artepitheton
alessandro
organismen
myo
bürgerlich
wüst
voigt
viren
umliegende
jahrtausend
enkelin
##sp
##far
schaft
redaktions
henne
gaz
antenne
##nbe
##abschluss
studierende
stadtbild
sae
nic
kadetten
##ox
modi
farmer
einfaches
highschool
entgehen
blass
ausgewählte
##stufe
##link
##jet
##hol
zweitklassigen
schöpfung
hygiene
dachs
##rchen
fisher
curtis
##frequenz
ste
exklave
##ziele
vornehmen
##ging
wör
primäre
oc
fundamente
airbus
##niederlage
##hum
mitwirkte
heimische
gezahlt
aids
##opo
westfront
##tall
zustands
vg
radius
##dienstes
zuflucht
schiffbau
mieter
aj
adelheid
cos
voi
productions
##vision
samp
##esse
keim
girls
extremen
entworfene
ablegte
3500
##lick
synchronsprecher
reichlich
obama
interessante
##äule
##mast
##ism
versteck
severin
nag
dauern
befürworter
##tige
dha
look
emmanuel
##ßt
##lew
spätmittelalter
schaffens
##lta
parma
schnellsten
konsequenz
gottlob
kd
jal
dreifach
##ues
##cc
mater
ewald
electro
chelsea
beachtet
altarraum
##oche
##aufen
zuzug
pel
niedersächsische
nicola
milan
##ław
##iko
jesse
cicero
grove
erbracht
empfehlungen
onkels
military
bräunlich
##iya
##handwerk
seminare
infanterieregiment
enormen
##tens
montgomery
häufigen
harp
stecken
stations
##pas
yorkshire
vertikal
sportplatz
lateinamerikanischer
##festival
spontan
sozialdemokratische
oberland
fab
##üler
##dou
warte
schicken
fürs
charakters
beschuss
aza
überwachungs
wulf
kreuzgang
##smittel
kontrovers
fei
##dle
politikern
lebensdauer
esslingen
chart
besatzungsmitglieder
steile
feindliche
adelaide
##veranstaltung
regenwald
campe
##oben
direct
##rda
##ituation
vitamin
herstellte
##ktiv
rome
kultura
fraktions
fertigungs
cello
bänder
##lmann
mythen
fernmelde
deportation
##wat
##het
verbreiten
testaments
lim
gir
vá
kelchblätter
gegnerische
bee
ask
afc
##dre
##ckung
russ
bab
##sstelle
##kalk
wund
urheber
staatsrat
nw
eil
dampfer
alli
##uppen
tsche
harbor
##yon
##uchi
##reb
ingenieure
hor
##д
verde
teufe
souveränität
maud
autobahnen
##50
##rar
##iale
verlorene
riff
##alp
kreisfreien
cyclo
cox
byzantinische
##runnen
##asch
süddeutsche
sportf
nikola
kommandierte
bundespräsidenten
kristallisiert
arne
##sg
##bul
wagens
nuntius
jahrgang
##ystemen
stä
pitt
eingebettet
##hes
gon
##alu
wallfahrtskirche
kane
heben
##objekt
starts
lucy
bloß
anni
ore
kroatische
harburg
##ierter
zwingen
wick
qing
fundort
##dampf
legislative
latin
flüchtlingen
##fri
saarlandes
##mine
##latten
snow
chas
anfängen
##sohn
##begriff
regent
milwaukee
gad
##mol
##leich
steinernen
bia
stromversorgung
lehramt
vir
staatspräsidenten
nachbarort
besatzungs
430
204
verlages
tl
medikamente
hildegard
angesehenen
##türme
##machen
expeditions
werdenden
kunstwerk
geltung
gambia
flu
152
westminster
schickt
religiös
mariens
genehmigte
clarke
##rans
##enha
rassismus
mate
malo
lh
kombinierte
gemeine
boa
aqua
##kawa
dae
##gia
##chnitt
verraten
lun
hul
dynamische
abfolge
versand
osaka
kau
katz
gehaltene
##linik
##ghe
wettkämpfen
sund
sava
ligaspielen
formell
diamanten
##paare
plattformen
umkehr
program
##opa
##dingen
terrassen
repräsentieren
buslinie
stadtbefestigung
ordentliches
hün
gris
amadeus
##fan
chap
bewirken
##ngton
salze
##kre
lutherischer
annie
ado
##fälle
vul
koh
jaguar
este
überführung
justice
fabian
##ła
##äl
seilbahn
margin
katar
gmünd
filmpreis
außerordentliche
aurich
##äler
nationalliga
aut
##handlungen
rheine
nutzlast
ausübte
##sso
englischsprachige
anzeichen
##apo
begeben
scotland
mh
enzym
vertriebenen
gerichteten
aufrechterhalten
##familien
wolga
enns
araber
##weit
vorläufigen
sehenswert
reichsmark
naturparks
kaiserlich
hendrik
dock
detaillierte
vorderflügel
angestrebt
abgesagt
bearbeitete
##tho
schwäche
##gru
überlebende
body
sokrates
objektive
kra
electronic
beliebter
skiweltmeisterschaften
kristalle
großbritanniens
geometrische
##anen
wim
markenzeichen
erzieher
chim
bahnsteige
136
##vorstand
rost
mod
indianapolis
grundmauern
grenzte
ausweitung
unternehmensgruppe
tambon
ree
nero
krankenhauses
1703
lyriker
diskurs
bara
##tagen
##abkommen
vollzog
vermarktung
minus
gladbach
##flicht
third
schöner
duft
bandmitglieder
##lig
##jekt
##echte
psychologische
masch
klerus
fahrwerk
purpur
fachzeitschriften
##arbe
umfangreich
joão
hauptver
begibt
kirchengemeinden
karo
gemäss
eint
begonnene
aufforderung
##tle
##misch
##echsel
lead
imperial
hopkins
gefährdung
bevölkerungs
bebaut
aufarbeitung
mom
goll
bestseller
überraschung
wiederaufgebaut
vorläufige
verrat
temp
lur
aufsch
dö
beobachtete
##fre
vizekönig
rha
beschuldigt
##münde
astro
1590
viscount
mik
marl
lokalbahn
fried
eye
auferstehung
abschnitts
##mbo
##kri
vegetations
schauspielern
hase
entfiel
dürfe
##hem
ungeachtet
neueste
drittligisten
##legung
substrat
nem
##urger
niedergebrannt
eindringen
amateurliga
##pos
##olf
vin
umgerechnet
skizzen
hae
amtsinhaber
##gewinnung
##sei
investor
##hals
wiss
westpreußen
lücken
brei
aufschrift
##sit
##she
##ento
richters
macro
kliniken
kita
bewältigen
überlebten
zb
staff
liest
kunsthalle
apfel
gestört
gespalten
boi
beendeten
129
##dent
falkenstein
1706
##ridge
##geräten
vormarsch
unterstützungs
dud
zaun
luna
dob
direktorin
##alm
notiert
nenn
gefährliche
beckens
##ffizier
äußert
kontinentalen
cohen
sku
rna
##run
zhang
wiktor
ghost
60er
powell
eisenbahngesellschaft
št
garmisch
##stalt
unendlich
sorgfältig
eco
chemisch
stick
muschel
kaufhaus
slawen
mama
laboratory
gebürtige
children
nuklear
##ketten
##anischen
##schein
##chulen
verlierer
altars
##rap
##anteile
wohlfahrts
stadions
permanent
neuf
kreisgebiet
günstig
##riedhof
##jahres
schna
##überwachung
##flo
tragödie
rotations
rotation
##krone
ved
traut
hess
bestellung
südtiroler
grobe
erläutert
215
##öfe
##zei
eit
eisenbahnnetz
ausgehen
gestoppt
133
stella
niederschläge
verschiebung
niedrigeren
direktion
berufe
144
##set
##bers
schulabschluss
schrauben
champ
##rüfung
spo
hein
eno
##tr
phra
europastraße
##rra
lilien
genom
dorfbewohner
ausflugs
till
talk
sojus
äquivalent
gutachter
dil
bausubstanz
##ь
sterns
staatsarchiv
matsu
hochge
champagne
##problemen
##nci
wikinger
thessaloniki
originals
kör
bj
bewirtschaftet
##xy
##ket
vermi
horizontale
eignen
bitter
##ämpfer
giu
bereichs
stütz
gestohlen
geological
brutto
185
##kinder
##ej
verbannt
ruhestätte
kolonisten
grüner
freigabe
##erei
zuschlag
vermessungs
tech
feinen
##yang
##gler
oscarverleihung
beg
anschliessend
analoge
##vertreter
meinungs
adlige
##alk
metzger
dmitri
wanderer
ordensgemeinschaft
nö
geäußert
fau
bata
wä
westerwald
chirurg
brigadegeneral
##reif
##etter
##deutschen
zweikampf
saba
kartoffel
fix
diverser
andrei
ahmad
##requenz
##rama
naturwissenschaftliche
gottheit
sik
shell
kurfürstentum
teenager
landebahn
fragestellungen
erh
engelbert
drittgrößte
auftauchen
aktueller
##osch
veraltet
göttliche
geistig
denkmalgeschütztes
toskana
spinnen
professioneller
ná
glu
ausgestattete
alpinen
staatssicherheit
ro
gestellten
gerard
formale
bre
ausgerufen
##leitungen
##alb
unterschiedlichsten
phosphat
bedacht
##lement
##bachtal
underground
montpellier
erfurter
beabsichtigte
vereinbarten
markanten
gesellen
senke
pfad
mile
afro
sheffield
schlitz
rhetorik
profifußball
echter
besessen
bedeutendes
beseitigen
schreiner
rivalen
meißner
begeisterung
##folgen
##eilung
halbbruder
derjenigen
##laufen
unterquert
agri
snooker
merz
kümmert
dienstleistungs
abgegangene
##nich
##afeln
ärger
kum
katalonien
expeditionen
baumaterial
##rbeiter
schli
reichskanzler
freigesprochen
##н
##rische
##lda
torschütze
sanskrit
lis
leut
avantgarde
vorgehensweise
stellenweise
nap
erinnerungs
begegnete
205
1654
nico
##eler
ens
##regionen
##leck
##bis
spielers
palme
generalgouverneur
aufwendig
schlüpfen
produktionsfirma
herstellern
##ßig
##röhre
herd
heirateten
beil
stahls
hecken
90er
##ätter
honorarprofessor
##bern
##bekämpfung
tödliche
loge
korallen
interessierten
hofrat
fjord
1610
##hauptstadt
sarajevo
sammelt
renate
kraftwerke
demzufolge
cluster
bahnhofsgebäude
ih
horse
friesen
berechnungen
schaumburg
lösungs
##versch
##nale
weingut
väter
festzustellen
##ři
seitliche
hj
##ül
woods
uganda
naturdenkmal
nachbargemeinde
exponate
beeren
##80
nobelpreis
clans
bedrohte
bal
##höhen
##fk
zwecks
verursachten
straßenbau
staatsgebiet
rog
kirsch
diet
bea
staatsangehörigkeit
sch
relegation
patriarchen
##ündung
##biete
vereinigen
fä
beliebtesten
##frist
stationierten
1675
##erb
š
nektar
hm
##sla
##eon
vietnamkrieg
unterf
abmessungen
geschehnisse
##če
##pr
##geb
##act
rate
elsa
bauhaus
arbeiterpartei
stadtarchiv
roz
laich
kahn
abgeschlossene
##bie
niederen
motion
##rauch
schlichten
hö
chorraum
1631
##wurf
##verlag
##ido
soft
hindernis
gewinne
gail
fish
cousine
##bedarf
nachempfunden
fühlen
ausgerichteten
angels
ami
rea
neb
derjenige
##volk
##metrie
##eyer
erschaffen
##stre
dic
baureihen
##tudium
poi
köpfe
hochebene
pieter
miniatur
heeresgruppe
befehle
##mg
wochenzeitung
umstrittene
sponsor
rückgängig
rollstuhl
baumwoll
nominierte
gefällt
deckt
1625
##ope
lautsprecher
corre
verringerte
cine
auen
##sho
variable
namensgebung
benny
##ndet
usb
offenbarung
liess
körpergröße
geschäften
view
penta
einsetzt
bischöflichen
##verkehrs
richards
froh
ell
##renn
wide
okzitanien
##tius
lem
##ähig
kö
deutz
bekanntes
##ucci
##dert
##alz
schmalspurbahn
emilia
common
weih
ug
pul
koffer
intensiver
absch
##ästen
wog
hardy
delle
bundesverband
archäologe
verbrauch
innenseite
eigenständigkeit
1661
spreng
grundsätze
festlegung
dozenten
banks
##oun
zero
youth
päpstliche
pis
fülle
##aschinen
überlieferte
pun
physische
melk
laf
bayerns
assistenz
##kehrs
herne
fasern
eheschließung
boo
haftstrafe
1603
vai
mem
kunde
134
weges
oberkommando
leslie
europäisches
ehrenamtliche
schottischer
präzise
organismus
guss
fakten
##oman
##core
##bas
wiegt
vorkommende
lv
diamant
beschleunigt
##kk
tree
tansania
standardwerk
lesungen
gibson
##route
##lith
##chie
ökonom
kolleg
jungsteinzeit
weicht
eber
1480
##älder
##fle
ricardo
passen
##11
##usse
funden
balkon
##uga
##tol
##hk
verdun
pharma
never
nai
kath
fie
aufgestellten
##scu
dominanz
##marken
##informationen
trient
tabu
psychiater
oxid
##ło
##tafeln
gräberfeld
terre
stils
privileg
kulturell
##yb
banda
##jährige
zunft
solch
nordwand
jana
cz
astra
##dm
säu
hauptteil
gleichstrom
gefäße
astronomische
##tive
win
weißes
rem
kehr
freedom
dramen
wasserturm
holo
schwedens
jungvögel
agency
aga
##lokomotiven
stehe
mosambik
mittlerer
kamin
deca
##ami
verarbeiten
mahler
gegenstück
wanderten
rust
rivers
neugotische
journalismus
jacobi
grabstätte
wintersport
grundgesetz
##imi
linné
gag
##ég
##dh
sektionen
dienstes
##zki
vampir
schlauch
rp
lap
haydn
bram
arminia
wellington
verwaltungsrat
praktiziert
flüssig
aura
##side
zusammenfassung
stei
kno
hufen
beeinflussten
##ufnahmen
##ffekt
gisela
alliierte
##berge
herausgebracht
cam
breiteren
##schin
##ory
##inski
wechselwirkung
vorliebe
flügels
haube
gruft
thurn
superior
lebensräume
bec
##zsch
wiedergabe
##hofs
##mbe
thi
durchgeführte
##übergang
##äfte
##spruch
##spannung
nitro
komme
glatte
ahn
##40
algen
vergleichende
price
##tscha
##big
wikipedia
did
ausreise
##abi
unzureichend
glied
eisenzeit
opus
impact
dramatischen
##fallen
überdeckt
penis
akzeptieren
##ünde
xv
beschränken
ausgeglichen
##zia
##mag
##inis
überprüfen
hocha
events
angewachsen
##yg
verdienstorden
soc
langsamer
lance
exo
endstation
##kraftwerk
enteignung
emissions
emigration
##rns
verborgen
träume
mittelschiff
gio
ehen
bunte
bennett
1684
wölfe
##ður
triple
tip
teilnehmerfeld
schneiden
hauptdarstellerin
durchge
ble
##sleben
##hie
arbeitskräfte
##sste
##gor
gesenkt
errungen
some
newport
marines
vorzubereiten
umfrage
schuldner
pflegen
jahreszeit
bezahlung
1698
##anken
sulzbach
kräftige
235
##uchten
kirchlich
weiterver
townships
leinen
koordination
habitat
bryan
aufhalten
limit
c1
arndt
wünschen
nea
sigmaringen
sauber
meh
levin
haiti
endung
elektrifiziert
##zwecke
wirkstoff
soloalbum
proportional
neutrale
ht
##ldi
tä
niko
ld
bewaffnete
##roi
##behandlung
verdeckt
sekretärin
ruhig
##üll
##artikel
wests
secret
jag
##ù
##ohe
zieh
puccinia
##usschusses
trompete
thematisch
milieu
##firmen
##arin
tendenzen
rep
psychischen
neubrandenburg
hank
gleichstellung
emily
effizienz
1572
##esser
wiederkehrende
verzögerung
sprengstoff
julien
cli
bambus
##zyn
namhafte
feierliche
##but
umzusetzen
staudamm
##kla
unna
strophen
stehend
siebzehn
passt
hertz
gre
##uy
##jow
venture
unterrichten
tek
sternberg
heiner
fließgewässer
##ents
erfand
triebe
there
har
erasmus
antiker
##geh
##enheim
##dk
nationalteam
molekül
hari
ces
##holm
unterkiefer
deg
batterien
##vater
sowjet
muß
gesteine
##vn
##tir
##ochen
tatsachen
stoffen
operetten
moderatorin
kriterium
steig
##char
zusammenhängen
mausoleum
enten
1656
wag
trümmer
bundespräsident
1628
##assade
schülerin
jemen
jac
innenausstattung
cg
arrondissements
950
##ortal
betty
##gleis
partnerin
kubikmeter
kantonen
##ção
##taler
##einigung
milde
plata
omnibus
neugestaltung
herschel
gescheiterten
einblick
##phi
sto
redu
bergs
amberg
##orts
ausführen
aufzugeben
oy
mitternacht
damaskus
1870er
##einen
tracks
außergewöhnlich
ungültig
sgb
bremsen
##röhren
##real
skip
aufgesetzt
amtsantritt
zähl
verlusten
trage
dänen
abzweigt
212
##moos
##ký
brd
beutel
##30
superintendent
studienzeit
drake
coli
##rungen
scheune
pola
ode
##bürger
lori
kk
finanzierungs
amazonas
prosieben
partners
melchior
konstruktionen
fungieren
elektrifizierung
bamberger
##ört
##nant
1693
schleim
kugeln
greif
begabung
überragt
trieben
rochester
norda
neugliederung
ino
dokumentieren
brandenburger
ausgeschrieben
1629
streicher
fragte
ethnische
##deck
zittau
zak
altmark
##lade
schätzte
mitgewirkt
##sma
woman
mino
ligue
irischer
anbot
zentrala
ortsvorsteher
kampfes
hintergründe
hexe
##lius
zusätzlicher
staatsge
##termin
##gebung
nut
gaius
##stel
umschlag
japanisch
##zte
##treue
##ows
tons
speck
mandats
kanon
holländischen
hecht
ane
##ams
weisheit
rohstoffe
crawford
##jes
süda
ortsbürgermeister
natal
individuum
##regel
gewonnene
arrangeur
##nio
##federn
unregelmäßigen
selb
pegel
##ographie
če
zusammenarbeitete
sta
mittelrhein
böhmische
##praxis
##gehäuse
verfallen
sinnes
rangliste
kehl
durchsetzte
castel
##uhe
##own
##dig
ulrike
kh
dieselmotoren
carri
##kante
kabinen
jahrbuch
hermanns
gewand
wohingegen
lop
linearen
kunstgewerbeschule
flottille
faz
dreischiffige
bevölkerungswachstum
bergleute
android
##spektrum
zurückge
mobilfunk
mies
einge
reu
blasen
akzeptanz
sidney
muri
ausdrucks
schmitz
dunkelheit
angehoben
liegend
krankenschwester
konsens
erträge
einzigartig
asta
amtsgerichts
275
körpergewicht
gebogen
dämonen
client
wp
sukzessive
slawische
paarung
krypta
augenblick
kontrollierten
einsatzes
aussch
arche
##cas
wirtschaftsgebäude
integrieren
gibraltar
fru
experimentellen
blöcke
heirats
verwaltungszentrum
schmied
sanders
moe
kasernen
geldern
divisions
betonung
##lation
log
##lou
schott
regimenter
eugene
bie
##tudien
##annung
vet
neuseeländischen
mecklenburgischen
lebendig
kontrabass
erwarteten
beis
ballon
öffentlichkeitsarbeit
psychische
historia
hersfeld
nl
inszenierungen
anbietet
##tests
wonder
transferiert
muse
förderverein
birgit
beliefen
bedingte
##esta
ritterkreuz
katrin
anonym
##dreh
militärregierung
laude
gill
bali
##setzung
##endi
mobil
griech
alexei
##ilen
##bandes
##adi
##ysi
##winnung
theatern
gedrängt
dünen
charta
##sierte
volkshochschule
sommermonaten
horrorfilm
##was
vorrang
sicherten
hinrunde
erlangten
crystal
tau
innovative
gemischte
bemerkbar
##ätten
##erle
voice
phänomene
leistet
joel
gegenständen
ausgebaute
ausführliche
1623
zweijährige
lithium
erzeugten
delaware
##radio
marquis
##й
vermeintliche
tul
starkem
rezension
instand
essex
cbs
##mit
##hur
eller
einmalige
bereitschaft
amazon
##stung
taxis
parlamentarische
mille
1686
##rni
##geschlecht
tei
ncaa
mack
wechselnde
verschwanden
trierer
strebte
sonstiges
annahmen
überflüssig
tageszeitungen
maru
henderson
eintragung
täler
ritt
gün
ausgebildete
anweisungen
##mina
feldmarschall
abspann
##tzsch
##darstellungen
##beiter
##amo
unterlegen
schadens
nachnamen
giacomo
flusslauf
zer
fußboden
freguesia
calvin
##üssen
##werbe
##osi
bet
206
##št
##aku
hummel
flieht
##show
##inheiten
stürzen
stell
reglement
lina
einflussreichsten
auflistung
alphabetisch
verne
rent
maßgeblichen
nf
local
oblag
moro
##eran
prie
gleichheit
filmfestival
erloschen
cold
schlosspark
pane
drückt
##ieder
verschleppt
panther
johanniter
fit
dot
crow
brooks
1621
##gift
unc
sprecherin
sporadisch
magnet
magische
komplexes
heiratet
bever
auftretende
utc
philharmonie
##uke
##landes
woo
pérez
modifizierte
ziegler
chilenischen
zapfen
römerzeit
asian
##nern
weiterzu
schä
ping
1652
berühren
##scheid
##presse
lópez
kriegsgefangenen
##ladung
wartet
timor
systematischen
horizont
haager
entschluss
eingriffe
bn
zugehörig
rettete
profitierte
psycho
fortsetzte
einflussreiche
edge
##éra
##rü
##lut
##ehrer
katholizismus
1664
registern
lüb
baumann
##plattform
##para
##js
##isse
##cci
sid
puch
ostantarktischen
gegenspieler
arbeitslosen
##isierte
##brücken
landesver
##element
zahlungen
erwärmung
1667
1526
##br
weh
krypto
aufwies
study
pana
dino
theodore
regelfall
manila
doo
cac
baba
##ägt
##ual
perlen
materiellen
klagen
gängigen
gonzález
##isto
studiengänge
aug
##rell
ša
selen
lä
korrespondent
koppel
ke
##yri
##ition
verschrottet
knüpfte
gewi
##sack
rohrbach
modernes
einiges
brasiliens
##uhren
##igkeiten
schuhe
merkmalen
gruppensieger
generator
gelernt
betrachteten
sek
pendant
jakobus
hers
canterbury
assistentin
ass
##ändischen
##sprozess
##hte
##bilanz
übel
hü
gesteckt
beschleunigung
wandmalereien
persien
freischaffender
akzeptierte
geschichtswissenschaft
##orie
ulmer
tec
musée
mok
aussichtsturm
abgetreten
1529
zahlenmäßig
141
##nre
überwunden
symbolische
murr
domingo
cin
auffällige
##chin
medici
kc
isi
##deutsche
supreme
spritz
hama
wiederholung
puppe
porter
pioniere
granat
eiern
cow
##usz
##bier
idealen
amphibien
niedergeschlagen
jacobs
ireland
illusion
gruppierung
forschungsa
dig
bevorzugten
zeller
konföderation
jensen
heimisch
exposition
bauteil
australier
##umme
##säule
##agentur
europaweit
##ergie
release
nantes
großgemeinde
##в
scherz
##zza
##umfang
##auswahl
##rier
##gleichung
schieß
reines
neptun
kameraden
gängige
1679
##techniken
##chloss
raab
klettern
kapuziner
empfiehlt
##ligen
nebengebäude
metropole
masken
dänisch
##steig
überlebens
ora
hartmut
grabungs
ausgedehnt
angeordnete
pac
kunstf
hee
gefundene
bum
##list
##idi
##ahmen
wasserk
umlaufbahn
strafen
##ľ
welterbe
jugendabteilung
interaktion
anschließen
milton
geleiteten
finnischer
##tücke
thomson
sichtweise
schwanger
saw
kosaken
flöte
dazugehörige
circle
baulich
barbarossa
aufstellen
aca
142
##jugend
##feldern
hunsrück
überfallen
verbi
separaten
memoiren
langstrecken
kling
kenny
kaiserreichs
##rug
##omen
riefen
feierlichkeiten
eigentums
##hasen
nordrand
gutsbesitzer
gemischten
bez
anjou
1692
ohl
feststoff
angemessene
##zid
überlieferungen
spezies
postamt
napoléon
michaelis
steh
sicherlich
afroamerikaner
##ebi
mak
felle
td
oberschicht
hameln
entnehmen
barre
abstiegs
##ulation
##lotte
jets
##rmee
lé
guan
eingehalten
1536
tatra
gleicht
gegenwärtigen
abgeschlossenen
##tod
##wende
##lberg
wig
tit
lebend
goldberg
enc
burke
##esti
singh
midi
def
häufigste
chia
baustil
abgewickelt
1694
##rken
zeitlebens
reinigung
hürden
etage
##xte
drew
cuxhaven
bloße
##chsel
vorhandensein
telekommunikations
drehbücher
##schine
romano
resultierenden
konsortium
degen
bli
betreffend
vermeintlich
steam
lod
##abf
judo
steinh
hoppe
gutsbezirk
einseitig
wertheim
vä
betätigung
bereitstellung
##thor
suk
mäzen
ausarbeitung
##ols
mobilen
estnische
emotionale
azur
##wu
basierende
architekturbüro
abzusch
##ep
gesandtschaft
1555
##aine
waisenhaus
unzufrieden
schwarzem
puffer
problemlos
anstrengungen
##kant
##elde
reuter
paro
linzer
humanistische
buchstabe
aufgeführten
##omo
##aktionen
zwillinge
erker
##itu
niedere
einfahrt
computerspiel
collection
##quit
##nner
trompeter
sängers
schütz
eingefasst
chuck
buddhistischen
ahmed
##ę
##fon
211
ungewöhnlichen
symmetrie
rush
renommierte
obrigkeit
lucia
detektiv
collegium
##zka
##trich
##gern
##eto
weitgehende
verabschiedung
pistole
hui
glänzend
dialoge
##zione
##nver
rettet
freiherrn
ferne
fantasie
entre
chromosomen
blocks
##mbi
sahara
monroe
einreise
badische
aff
##verarbeitung
zielgruppe
modifiziert
lynn
gans
durchweg
dinosaurier
brö
##trukturen
##störungen
##onds
landgemeinden
corpus
offensiv
lebe
zoologie
sensoren
mü
ausgezeichnete
anselm
222
##zismus
##ruder
veranlassung
nis
kingston
kasan
erfolglosen
bspw
arie
andenken
##zhou
konzipierte
hochk
atari
##rati
##prop
##aktivitäten
trö
nac
##oba
##kranz
sure
kad
heimatmuseum
erworbenen
aul
##handels
übersetzen
stü
siebter
beiwagen
strömungs
scheu
coverversion
bildnis
tou
landesgrenze
friends
einstellungen
bora
stabilisierung
furt
dauerausstellung
##rds
##pfad
##kno
##cet
tm
robertson
interpretierte
indischer
grimme
bezirksgericht
argumentation
zeus
wichtigster
administrativ
ableiten
##sre
olympic
geschütztes
ausle
trau
sicherzustellen
schritten
passende
lm
groningen
bregenz
städtebau
sperre
moers
kämpft
karriereende
duncan
bauform
195
##sver
##nag
tasten
mclaren
bist
américa
##terial
##ith
schaut
oxy
1676
1633
1626
##spro
##eicht
leng
iserlohn
havanna
genossen
bemühen
##uel
##ichtig
##hom
debatten
trin
schlachtfeld
pok
papua
honor
zäh
umfassten
relevanten
raja
muslim
kreisreform
kirchheim
kaiserzeit
1547
##stadion
sme
echtzeit
romantischen
rit
essay
##summe
rauten
lehrbeauftragter
kup
forschungsinstitut
cao
verstärker
mayr
flüchten
eingerichtete
cave
##best
universitätsprofessor
betätigt
##gesang
##enn
solist
schwankungen
mazedonien
werben
strategien
chol
##pil
##orientierten
zigeuner
radfahrer
bundesverfassungsgericht
browser
1890er
##tufe
##oor
##andschaft
vorangetrieben
psychologischen
mä
gö
143
##münster
sca
ankündigung
adressen
##lina
##klinik
vizemeisterschaft
obern
naturraum
gps
genauere
empirische
##sicherung
schanze
lak
geradezu
##modus
##ago
sit
renner
museo
kien
kapitalismus
buchhandlung
therese
schad
migration
calle
artefakte
vormaligen
verstecken
verlage
verkündigung
tao
wohnhäusern
volkswirtschaftslehre
reid
kreide
##vol
sozialp
genie
##arz
gewohnt
angelegenheit
##yre
##utter
##ratung
präsidentschaftswahlen
neube
erstflug
entsprechung
##lian
##eschäft
öffnungen
quert
nietzsche
neiße
nein
einjährige
eingangsbereich
achtzehn
1695
1668
anfangszeit
akustik
##weig
##uts
warnte
schalter
liszt
koordiniert
involviert
##nbau
##genen
physiologie
hebräisch
genießen
alo
##äte
##unterschiede
zirkel
verfassungsschutz
lara
tagung
##ın
##hauser
malereien
koz
klären
geschildert
cau
1681
##rut
##prung
##ilo
herzens
fußballliga
##μ
freundeskreis
erkenntnissen
arp
##sur
##deckel
tak
norweger
460
nä
grabhügel
glan
formationen
##vy
##olin
##nhof
##jak
weiterführende
erdoberfläche
mills
haw
##ά
zauberer
mathematisch
dual
astronomischen
##ächer
nordhausen
gleisen
banden
assembly
abgegebenen
##zit
##ennen
##datum
veranstaltungsort
steckt
skr
minneapolis
davos
credit
##üro
##rka
wilfried
uppsala
hemi
scheinwerfer
auslösen
za
pä
jedermann
grades
dubai
##eher
tis
neuerer
lamm
##rste
##ments
zunge
ranking
##sinn
##krebs
##gus
##auern
qua
kürzeren
dietmar
kak
deckel
bam
ablagerungen
wasserstand
vermeintlichen
todd
nissan
martina
karnevals
buk
alleiniger
geometrischen
einsicht
blanken
anlässen
andauernden
147
##12
##rey
##pre
panamerikanischen
belohnung
1687
1682
##ull
sporthalle
room
helmstedt
befürchtete
##situation
##fä
wasserf
eintrat
##éri
##then
##duktion
verwaltungsgebiet
gerber
dobr
burton
aufgerufen
##sper
beworben
##ži
##tationen
##sgrad
##effekt
tropische
rae
lug
kleins
barber
##center
traun
ordinarius
ola
má
malmö
lombardei
konföderierten
knut
gesunde
flussabwärts
compagnie
argentinische
geiseln
gei
##tore
##okal
##iese
unterd
suspendiert
schutzgebiete
percy
##lti
untergeschoss
rodríguez
rei
lebenslange
gatten
breslauer
sana
primären
hubertus
gesammelten
dib
beleuchtet
1696
tiflis
rothenburg
gleichem
fus
##ekt
vereinigungen
beschließen
wem
pir
katastralgemeinde
gegebene
abweichend
##gard
reparaturen
raster
holzst
fußballs
1665
##ivi
silben
##kö
pflegt
interpretationen
haven
gesamtrang
##rechen
partenkirchen
nottingham
abgestimmt
##ův
##ower
##gk
www
taucher
1642
##eux
sü
stören
ship
fürsorge
friedrichshafen
##zol
##evi
tz
sprachliche
reichstagswahl
nähere
goldmedaillen
enz
aal
##gef
ungeeignet
kain
alpin
1666
##atik
##alli
richt
codes
##verträge
tomb
kami
demontiert
##gui
städtchen
sans
län
leh
basic
##jsk
vasallen
ritterschaft
kus
jugendarbeit
exchange
pow
lj
karpaten
albanischen
##eiler
schnauze
##anne
warn
väterlichen
räte
bid
##utzung
##tg
##jk
##dn
wartung
schulleiter
ioc
hannah
erkrankt
bülow
##äum
##ista
mittelb
abschieds
##rá
##reg
##gnung
shop
hamburgischen
gründungsmitgliedern
geschäftsführender
aco
##andlung
wuppertaler
straßenverkehr
perioden
kü
erweist
##tica
heilung
gliedern
aristo
##platzes
save
lyn
luck
hag
##kom
##icus
spezieller
mangan
kronprinzen
kommentare
kana
dienstzeit
amar
mitspieler
kleinst
holten
eichel
wirkenden
vatikan
grundsätzliche
brüten
bran
anruf
##gna
theaterstücke
quick
muschelkalk
flachs
dreigeschossige
analysis
##že
##formation
##enau
ses
kna
fas
1624
##iebel
##dj
überf
satzes
baua
##polizei
##lee
##bf
unge
reptilien
abschließenden
somalia
elend
linsen
ethnie
erden
chrysler
##beschluss
rege
neutralität
dier
##ämpfen
##mad
##ider
terroristen
psi
neutronen
ausbauen
arn
staatsprüfung
colle
##к
servi
potter
gospel
etablierung
bangladesch
waadt
vou
optimal
1645
kambodscha
brit
1598
wiens
rothschild
portugiesischer
monumentale
genuss
geflügel
briefwechsel
##oke
##elände
##aufnahme
verden
seitenschiffe
mäh
flanke
atoll
##20
##ār
##zew
##hia
wirren
untergruppe
spartak
kurzform
kantor
bestimmtes
##nossenschaft
##nalyse
zent
mühlhausen
kernkraftwerk
gotik
dev
##shan
sze
odessa
goebbels
geschichtsschreibung
borsten
##widerstand
schützt
rosenthal
kredite
deutschem
besiegten
aar
##alin
vogtland
tep
stri
pianistin
oliv
dep
##wahlen
##pper
rotes
bret
arbeitsmarkt
##ч
##äter
##svor
##ifel
tribus
palmen
osi
absetzung
##feldzug
reim
persönlichkeits
nara
kirchengeschichte
historien
##eichnung
krankenhäuser
gedenktag
einzelheiten
überqueren
zigaretten
vorherrschaft
mittelteil
ministers
hali
bischofskonferenz
augustinus
ahorn
##verbänden
##sig
heidegger
##fig
schwarzes
1655
tong
rührt
koo
henneberg
##ská
##gn
ž
subt
strahlungs
stipendiat
schief
pig
##hing
ununterbrochen
marko
frédéric
differenzierung
akustische
1644
##dampfer
löcher
lufthansa
dokumentierte
##ritik
##eae
versehene
rok
rheins
malcolm
legislaturperioden
kawa
##loh
watch
restauration
moleküle
entscheidungsspiel
langfristige
hochwertige
frances
dow
distanzierte
chefs
bundestags
ausmaße
##iß
##differenz
zwangsläufig
verdeutlicht
schliesslich
bewaldete
##prozesse
zusammenspiel
unterste
##η
##wappen
##sprachigen
witz
wirklichen
grafische
##té
wohnungsbau
versammelten
oranien
oberösterreichischen
bry
beha
altr
##clubs
verzehr
schauspielschule
pott
mcg
kelten
ej
domänen
156
##gesch
##ense
rundschau
##mechanismus
lieh
händel
enthüllt
dak
##yj
wohnraum
pfaffen
gesicherte
säugetiere
sulz
musikvideos
finals
felsb
true
musikwissenschaft
gunter
fischfang
archivar
verlängern
treppenhaus
sozio
magnesium
kes
fal
diabetes
##01
##ühren
sold
popmusik
humanistischen
##urteil
##ovi
##usion
schriftzug
patricia
damaliger
##ši
##wirt
##arg
operette
oberhaus
mohr
kontroversen
geschäftsstelle
berufsausbildung
sander
perg
gemeinnützigen
##arts
windsor
strikt
plymouth
mailänder
kurzes
kapstadt
autounfall
##resse
##nac
##kit
vorherrschenden
turk
sint
korrektur
aufhielt
1637
1559
##verkauf
##hne
zentralasien
pyrenäen
lynch
geschickte
befürwortete
##ads
cod
asc
##offe
tastatur
keyboarder
cot
bearbeiten
##trieben
simpson
season
mina
klassizistische
heiligtum
ausstattungs
vorstoß
heg
achim
##gkeit
ow
moralischen
willkommen
weltcups
ruß
gase
disqualifiziert
##ückt
##nv
##hältnisse
repräsentanten
rating
kip
jagen
##werder
##iefer
##boote
##arn
tschu
glashütte
elfenbein
##autor
wachen
olympique
oberbau
empfand
##sim
##pfe
##chiffe
wiegen
knopf
alexanders
##uber
##inter
##gründung
verwirklichen
verbuchen
möller
imam
alonso
520
##lsdorf
##otter
tk
kreiss
klassizismus
##lok
uz
unabhängigkeitskrieg
rasche
netzes
access
##swa
##gü
worin
wegge
geologe
filmes
beliebigen
aktivierung
##verfassung
##parlament
puy
gelege
ers
badmintonmeisterschaft
ausser
1612
##arth
gezeiten
entwurfs
einzuführen
1651
##äulen
##ringe
wertvollen
into
begründen
##ärten
##verd
##geschäfte
staatsgrenze
mano
mancher
isländischen
aufstandes
arta
##wing
##gem
umher
selig
mozarts
konservativ
johnston
##erne
##enda
verpasst
christa
aufgestellte
arbeiterbewegung
rechtsstreit
deb
##änner
##gegner
##chka
wee
spezialisten
regelte
gattungsname
einmalig
##glocke
##bio
zinnen
westturm
spott
bertha
tran
quader
ortszentrum
##atri
kompilation
grenoble
bewusstseins
predigten
baier
##kot
quin
gestiegen
##vic
##pitz
##hältnis
werkstoff
ukw
profitieren
potenz
kinn
itf
franko
auftraten
altäre
##zek
##hebel
verurteilten
verschmolzen
tex
jeher
erscheinungs
synthesizer
##heits
relevante
graph
clare
aloe
##tube
##riften
##milch
##iso
rhe
eo
eduardo
bors
tsg
tango
schwi
nische
entgelt
demokratisch
bui
##ßer
émile
vermachte
ufern
fry
ars
##dai
##ail
wohngebiet
syrische
reformator
potentielle
merkur
krag
inwieweit
dä
##usstellung
##nah
##mor
pfahl
firmensitz
cet
transporte
angeschlossenen
aberdeen
heidi
fliegende
color
bäder
##vertretung
##tlich
##motiv
##kamm
einzelfall
antisemitische
##jö
##ior
ökologie
tf
geschriebenen
feldes
diagnostiziert
bä
bedeutungen
##ël
##lai
##inga
##hov
mcca
graduierte
spann
nester
güte
diamond
zurückgegeben
verliefen
sib
seri
pil
melden
besiedelung
stützte
gleichungen
denjenigen
birk
##nommen
##camp
versteigert
königreiches
fortbildung
##erien
staud
sip
konsumenten
geflogen
distribution
absichtlich
1609
##enne
zitadelle
xavier
regisseure
hinspiel
einkaufs
##nae
##echer
ermittelten
bindungs
bark
##fassade
stop
shen
revolver
militärakademie
letzterem
gewähren
domherr
child
1636
tann
symbolisieren
ov
marschierte
hügels
##türen
##phen
##mia
##abschnitte
tonne
konfrontation
festgelegte
erprobung
##čice
##mé
##hab
vierzylinder
spitzname
rückspiele
lpg
ambo
1643
wirkliche
tina
##tzte
quadratmetern
kaunas
gunst
gren
gauß
verständlich
samo
lugano
ballade
avignon
abg
schwanken
parr
parodie
krie
gebhard
befehligte
westf
raus
quecksilber
eingef
abk
##verbrauch
##rb
##bergen
yas
vfr
vaterland
moto
fruchtbaren
deutschlandweit
##yra
##sä
##kleidung
rame
philologe
fundamental
finnlands
altpreußischen
aden
##än
##lion
##chon
wester
passion
identische
bekleidet
auszubauen
##yd
##erren
##denken
nowgorod
jul
gesinnung
esther
einzelf
256
verhält
tonk
strafrecht
rezeptor
großherzogtums
ernsthaft
elena
1653
##swi
##ebel
zw
wasserkraftwerk
mey
lüt
zählung
obersch
mé
moselle
lebendige
eigenständiger
##öf
##sda
##nitten
##endungen
sofortige
pakt
hermes
fraser
denkt
wiederentdeckt
vinyl
uta
silberner
kund
jähriges
juniorenweltmeisterschaften
hierher
days
##nkt
##tp
##meri
titularbistum
stadtentwicklung
rab
jessica
##konzentration
yar
pv
magie
gere
connor
1490
##utsch
##esten
vieles
referendar
kriegerdenkmal
indirekte
escher
eidgenössischen
drag
angreifen
1662
1521
##ussi
##orium
##ichte
##duo
privatleben
next
krankenversicherung
blog
arbeitszeit
rezensionen
mechanismen
anzubieten
##vorstellungen
schir
geschäftsbereich
einführte
drucken
beinen
1663
##unternehmens
überwachen
versteckte
schreck
##ussch
vorsaison
tup
tiergarten
massi
harper
##ichs
optimierung
kulturzentrum
gestürzt
dreiz
dampfschiff
##oul
sli
plaza
ethno
aud
##yll
##busse
margaretha
festungen
dea
abdul
variabel
hefte
emigranten
anfänglichen
##zien
talente
rapp
parkanlage
enzyme
daw
daf
blinde
##fraktion
mint
##indi
stellungnahme
märkischen
ios
##rim
nachzuweisen
liv
fb
##rac
##fund
nva
argumente
##inae
##barer
ersichtlich
dylan
berry
verfe
neugotischen
kanone
iu
grie
dvb
besuche
barc
wirtschaftskrise
rückenflosse
kün
gezüchtet
eingepfarrt
##teg
veräußerte
kart
clear
bena
##sorten
##mens
##bos
zeiss
supra
scholz
patrizier
fruchtkörper
angefahren
##ța
##sprecher
##arke
ung
tälern
registrierung
mother
qualitativ
niederge
##ädte
##tuch
veteranen
nicolai
amerikanern
##erm
rahmenbedingungen
logische
##nc
##lem
##edlung
##ean
zubereitung
ssv
sorbonne
opfers
jump
buddha
yes
schula
publikations
pakete
410
##ologe
##ellschaft
sporta
riva
odo
nationalmannschaften
mercury
heils
##fjord
behindert
##stes
##norm
##nic
enrico
drücken
assistenztrainer
anerkannter
querschiff
ovale
1638
##runden
medizinstudium
geschnitten
218
sic
omar
motte
iau
hauslehrer
##rak
vorgegebenen
panik
indie
herrenmannschaft
herkömmliche
calais
tale
dum
dah
##kompanie
rufe
maka
loks
esta
##čn
##weisen
spinn
seeleute
konsulat
björn
##zins
##knoten
##kabinett
narren
meu
market
eagle
bem
##lav
geri
##tse
überging
unterzeichnung
strassen
räumlichen
literarisch
kriegsbeginn
domenico
##rek
unger
rub
priorität
kurpfalz
gegners
1528
josh
1535
##amten
mud
1542
rk
befreundeten
##deckung
verpflichteten
skilanglauf
cer
brent
auri
##lur
##aco
vorspann
teller
spärlich
ertrag
buri
atti
##rog
schönau
lam
entstehungszeit
anta
##xid
##tm
skript
montfort
körperlich
gese
beni
aldo
##acker
wirtschaftss
mittelfranken
johannesburg
brig
##edizin
passa
leitende
hülle
1556
zhu
mongolen
individual
berufsschule
##istung
##einer
nachwahl
##½
##produkten
triebwerke
thunder
patrozinium
mexikanischer
kreuzweg
koreanischen
##dsch
##angebote
zugängliche
verben
picasso
croix
##hari
füll
brain
ache
##racht
springfield
remscheid
namensgebenden
migranten
lae
hervorgerufen
ern
devisen
1674
##srate
sinken
schulausbildung
##ż
##ämpfe
##zus
##orne
##chst
cora
aya
1619
##nä
tib
taube
lettischen
geographischer
bildhauerei
baro
##ntrum
##mündung
sexualität
due
##bäume
winston
torpedos
maca
gelöscht
anf
andrews
##eber
vau
pek
lichte
kapsel
beyer
abhandlungen
##stattung
##machung
##ibo
schwankt
leicester
kombinationen
geologisch
frauenfußball
dynamischen
cré
pari
brunner
##uru
##sai
korridor
carnegie
sounds
schutzpatron
conte
##rfolg
##cit
pipeline
natura
karoline
erosion
überreicht
typischer
schier
rik
radial
manual
ella
capitol
ting
reggae
früheste
freitags
arch
##kap
neuenburg
grünlich
geografische
anstoß
albumcharts
1627
##û
##pä
ärzten
wanderungen
wait
sprachwissenschaft
jordanien
erneuerte
##xx
đ
weig
uruguayischen
sitzplätzen
namhaften
michels
kubanischen
eisenbahnbrücke
##wache
##eute
superman
lich
eintreffen
rechtsbe
loo
baumaßnahmen
api
aarau
##usst
methan
belgier
unix
rouen
naga
gemeindehaus
##netzes
wod
lebensende
kerk
brennstoff
##smaßnahmen
##eut
sonders
handle
##ösung
stief
schwarzburg
prozession
euler
agen
##oso
vorb
rouge
nowo
naa
malle
fran
any
##pfel
subsp
ausläufern
1649
##chlorid
mog
manualen
hast
ermittelte
zahlreich
rosi
nicolaus
lucky
inspirierte
halbfinal
bundesstaats
bonifatius
##şa
##srat
pommerschen
much
lebensstil
##ugs
##kun
zweijährigen
schlagzeilen
lampen
karate
fin
fabel
dinamo
baumwolle
tempelhof
taz
khl
kante
festspiele
aufgekauft
anzuschließen
##kessel
stopp
nordamerikas
dän
bezüge
##west
##rant
##eimer
##boy
textilien
sensation
konventionelle
gefährlichen
entfällt
animation
##uis
##nh
##istisch
reck
mittelsch
jeglicher
dion
##cat
##aci
sham
ortho
##tchen
##erp
verleih
muk
homepage
guardian
annette
urenkel
schwellen
namensgebende
kampagnen
1605
##ören
##logische
##inspektor
##ehmer
mathe
diskussions
davies
walzen
teure
aufstands
asphalt
##völker
##mur
zurückzog
vorgeschichte
sext
minerale
ergriffen
befreiungs
abweichung
146
turnhalle
gerlach
cou
catharina
208
##enstein
wr
schufen
sax
peu
obers
kurzgeschichte
frühes
eve
doug
dominierende
anda
##oko
statuten
reißen
gedruckte
flying
einzigartige
tas
falcon
##mögen
operator
formalen
##yen
weitreichende
recklinghausen
hull
angemessen
##wis
verfügbarkeit
passive
jak
##zahlung
##triebs
##mühlen
shakespeares
rostocker
pope
nationales
musikproduzent
##wohnung
##iums
##icke
wendel
prägten
plakat
orientierungs
fahrtrichtung
##kandidat
zahlte
pump
pent
junkers
##čka
zuteil
vermehrung
verbindlich
vag
seel
schre
permanente
ibrahim
höhenmeter
hoffte
ausgezeichneten
##zio
##irt
##ieri
##bow
opp
naturstein
elliptisch
einzels
bers
##punkten
straftaten
stam
hebr
garantie
##rone
##regelung
sergio
dip
burr
benno
##balken
##amilie
weitergegeben
verweis
verwandter
resultiert
gesprächen
achs
##vall
##rze
##mäßige
spei
prozessoren
läden
grundfarbe
grill
eingeschätzt
bergisch
##oux
vertretenen
oberbayerischen
länderspielen
isbn
großeltern
bruns
##ärzte
##oldaten
##nheit
trick
reno
som
rak
geis
##museums
##mantel
##ingang
mächte
mab
feuerstein
familiengröße
andri
##upt
shah
serbisch
motorräder
manufaktur
glatten
conta
besonderem
bela
unterbe
thermische
dodge
214
1669
##ndb
##ission
##immt
##ericht
nieders
hsv
folgesaison
##sier
zeige
wiedereröffnet
nori
colleges
1691
##tron
##dichter
##büchern
trop
norwegens
kaninchen
dit
##wn
##stü
##lins
##denz
sekundäre
mönchen
hale
##ünder
##tru
raums
einzelhandels
auckland
##sv
##essel
schornstein
effektive
anzeiger
1552
##rine
##dot
patrimonialherrschaften
nen
alts
##ttung
##media
zusammenzu
s1
pap
himalaya
gérard
gri
erforderte
bezwang
stützt
aston
##nsu
##konzern
unterlegt
terz
stipendien
spaltete
klassifizierung
boykott
##udien
##rufen
##ngst
##männer
ostteil
mene
dominante
biz
ausmachen
##bsch
unterzeichneten
naturschutzgebiete
maxi
lom
generalvikar
##ziert
##tragen
##altet
überregionalen
mündete
emeritierter
einöde
##schild
##mpel
##dische
wedel
rind
math
amerikanisch
##trie
##ansatz
kommunismus
gnade
abges
##lop
##geln
uhl
trenn
roggen
fachgebiet
470
##parks
##ourt
saßen
passierte
hebräische
##vorschriften
##uben
##ego
##aub
tabernakel
seem
pea
gore
friedliche
eingetreten
befragt
##lini
surf
roden
penn
handele
fußballmannschaft
##āh
##urin
schleifen
nummerierung
lw
kla
güterwagen
forte
##mpi
diagnostik
##grat
verschlechterte
rights
neubaustrecke
asiens
##nom
##hnt
##aer
spannweite
roller
pes
neuwied
nec
frontal
familienunternehmen
exekutive
##ämtern
##reien
##ewo
piper
parlamentarier
luftschiff
investierte
hefe
geschwächt
gemeinderats
filip
dramatische
brandschutz
##unfall
tartu
steinberg
lili
1658
sparten
egg
appell
##mts
##gesetze
##gelenk
tir
sitzverteilung
saarländischen
ratgeber
kontra
elektronischer
dirigierte
deu
unterabteilung
todestag
oka
honduras
cra
##werft
##stu
##rri
##ipp
vergrößern
bereitet
##nähe
##aue
zem
rivière
philo
ostg
dahingehend
persische
1671
discovery
##mant
skigebiet
schw
rangier
protagonist
matti
fecht
##ummer
##priester
##iano
weinbaugebiet
plans
fernsehens
##mess
weltkulturerbe
verwandelte
unterirdisch
praktiken
nové
maxwell
begonnenen
##kult
##fr
spiegeln
bevorstehenden
##uka
##kka
zurecht
verzweigt
unterk
gefährdeter
ausweich
aufsteigen
##loser
##gno
gänge
geprägtes
fil
##sri
##sitzer
rendsburg
mittelgewicht
kiemen
hog
haf
beruhte
jona
fig
enorm
belehnt
##villa
##lekt
self
kale
geteilte
franck
bear
basili
##äuse
##melde
##dorn
##befehl
wasseroberfläche
warfen
unabhängigkeits
thie
kommissarisch
forschungsergebnisse
domäne
contra
bow
auswanderung
schwergewicht
durchgangs
ade
abgesch
1524
südstaaten
simbabwe
erholung
blank
altenberg
##ormat
##onzept
sünden
salzgitter
##sli
##lad
##hold
##glia
vernichten
interessieren
brisbane
straßennetz
stadts
restaurierte
hinweist
bleibe
vrch
vergleichbaren
tschi
tiefste
prob
mütterlicherseits
lup
hur
eile
##umi
##stell
##geist
##cco
vernetzung
verhandlung
thom
evakuiert
##uu
##egung
##chreiber
transa
tonfilm
südrand
recherchen
pfeilern
generalstabs
wagners
ungewiss
task
märkten
gegenseitigen
brien
##üre
##ós
##fung
##ery
##bei
wirk
gehörigen
galerien
ferro
deckung
bewegliche
ausl
##urse
plate
lausitz
hügeln
cava
1604
##strecken
##rest
##olizei
##ersonen
mittelf
cry
1616
##onnen
##hülle
##aid
speichern
obhut
lateinschule
kürzel
anschlüsse
##ppt
##ental
petition
kreuznach
kartoffeln
durchschnitts
1657
154
##toffe
südfrankreich
nahverkehr
monarchen
kabarettist
hare
1534
##ession
südwand
scala
oli
modelljahr
festnahme
beachtliche
wurst
myanmar
gleichzeitige
entspringen
brass
bodenf
yuan
interdisziplinäre
1585
tito
reichsstraße
angefügt
1150
##fic
henkel
gastauftritte
fichte
baulichen
##erge
umgebracht
swi
fernen
##yte
##platzierte
##cou
unbekannter
treibt
stol
pfeiffer
nb
körperschaft
##ädt
##ologische
nähr
mitgeteilt
leb
intellektuelle
halm
##traßen
##lätze
##hil
##anbieter
wahlweise
spielminute
siedlern
rückgabe
moose
ehrenzeichen
dominik
##taat
##probe
##pitzen
pad
moi
kinderh
fallschirm
1564
##thema
use
unh
mannschaftskapitän
griechenlands
brauchte
325
##träge
##agazin
keyboard
installierte
galatasaray
erklärungen
byrd
artikels
##sieren
##operation
trakt
strafbar
mö
multimedia
jahreszeiten
gepflanzt
führers
erkämpfte
erbin
bauwesen
##ungsf
##kamera
##erf
##ahnhof
suzuki
jahrtausendwende
infrarot
iberischen
höhepunkte
ando
##angriff
monc
cale
vertreibt
symmetrisch
problematik
mittelgroße
maple
hauptge
einwanderung
##lane
##iffen
rohe
pare
jü
aufschluss
##tell
verwundeten
schwiegervater
module
kuk
##vir
seemeilen
pds
kub
hauptb
geräumt
##ängt
##abrik
berühmtesten
bedeutsame
winnipeg
tübinger
site
psa
fließende
bedürfnis
##ändische
grundschulen
apa
angestiegen
139
##zens
##computer
muslimische
kindergärten
kater
aufgegangen
1527
unterbrach
kalifornischen
peugeot
mdr
lösungsmittel
landesmuseum
1860er
##sio
##lal
pog
beitrug
1677
##stro
nist
rennstrecke
kluge
kerr
farbigen
familienbesitz
endemisch
dieb
305
wiederholten
vorgeb
verfassen
krist
intention
blume
ureinwohner
u1
spen
erstem
endstand
dus
##nzi
##lende
rittmeister
regierungschef
gare
einigten
anwendbar
überschwemmungen
territoriale
proton
mainstream
isaak
freundlich
##technologie
profilierte
petr
matter
landkreisen
kott
jes
indonesische
hinterachse
gall
brunn
##wörter
##treffen
rohre
lehnten
kollision
garantiert
funktionieren
erze
dornbirn
aufwuchs
##stätten
##rba
wett
perspektiven
kennzeichnend
favorit
bailey
aufgesch
##öt
##slo
##phon
##agt
hood
biblische
bha
375
##eß
springt
slu
kort
eps
andauernde
adelige
151
##treffer
##nium
##bett
vorabend
klassizistischen
hauptinsel
flugabwehr
facharzt
blanche
akzent
wahrscheinlichkeits
personalunion
navigation
herausgegebene
heath
drau
aviation
wahn
versen
spy
dienstleister
bör
befunde
##köpfe
mün
ehrlich
bohrung
540
158
##verschiebung
##tele
##matt
##aussch
urteile
théâtre
russisches
manuskripte
lip
geräusch
beanspruchte
1575
##heil
verle
ura
silvester
karel
geografischen
frühzeit
##perre
pae
como
autobiografie
##roy
##bestimmung
sprachlichen
mot
elise
##opi
westdeutsche
tah
stoppen
gemeindeverwaltung
fronten
vorstandes
vorgelagerten
verkehrsbetriebe
sever
said
mehrfache
infektionen
gräf
erzeugnisse
##samt
##rö
##gest
##dad
summa
niedersch
leisteten
doom
##reite
zd
westt
sterling
schlesische
fw
bergstraße
##rtige
##ots
##orgel
gha
geburtstags
fledermaus
ew
##äumt
##nha
##ignale
saalfeld
geläut
fortzusetzen
coleman
beirut
##status
elternteil
162
##empel
wildcard
rüssel
peerage
fernández
##ahrzeuge
resultierende
melde
medikamenten
hexa
arti
##staffel
niederlausitz
mose
freiheiten
derzeitige
##ulat
##mov
##bremse
π
norddeutsche
kräuter
jong
##ührt
##ress
##lge
##gaard
wartungs
verl
sna
sharp
schatzmeister
kurort
##pektrum
##chronik
xbox
voc
thronfolger
handballspieler
biennale
verpflichten
ritus
oberleitung
geschmacks
germanen
flor
365
##ärtner
variation
klapp
horní
change
babylon
##kli
verletzungsbedingt
unterwelt
saalkirche
ortsmitte
offenbart
homosexuelle
herein
güt
zwiebel
popular
bewies
benefiz
sut
drehung
bauingenieur
toro
geschichtliche
##vu
##mmel
##lige
##dz
tragende
liberty
goss
devils
cay
ais
168
##gerichte
rubin
rn
rice
ergreifen
chips
##uns
wechsels
vertrauten
graphen
bewerbung
aufgestockt
schnur
rig
landratsamt
chase
chai
ausgeweitet
##pach
##nhausen
tp
somme
sia
olpe
nies
belt
##sition
##hri
verge
laz
hieraus
graubraun
galla
##rfen
walters
eingelagert
abd
##jin
##aufstand
titus
1523
##unds
##hoe
teltow
hofmark
größenordnung
door
##ogel
galen
cate
belastungen
abzeichen
schmetterling
mangelnder
kroaten
général
burns
auszugehen
##same
okzitanisch
milo
hinreichend
donnerstag
dimitri
außenseiter
arrangierte
unterstellte
splitter
schilf
ingo
gaul
anzutreten
##ufnahme
##kriege
##gliederung
##brück
won
konstanten
##rtikel
##hoven
##erste
##cr
startelf
selektion
lion
detailliert
##ürmen
##korn
stadtbibliothek
seeschlacht
##ås
zukommen
studentenverbindung
regensburger
thurgau
rauchen
prat
manns
großherzoglich
##weide
rüst
richardson
kündigung
intervall
handy
forbes
##ssig
##erson
pradesh
lichts
lamellen
hya
fluch
bürgers
breitere
banat
authority
##laf
##hotel
##chem
##ault
fixiert
erschöpft
dall
clermont
chess
amtssprache
##zeile
touristischen
litauische
lastwagen
hauptp
ausgesch
abstrakten
##igenschaften
##fl
schwung
monumental
gelehrt
dreist
abgek
##teuerung
##fasern
##ataillon
kang
albany
##nou
##anto
inkl
großzügig
floss
einziehen
aggressiv
##iman
##bend
truck
schwingen
holy
holländer
gräbern
feldkirch
europawahl
bitt
auflöste
agieren
##tn
verbringt
nebenwirkungen
lädt
gehobenen
diejenige
##zl
vorherrschende
versehentlich
untersuchungshaft
tristan
suhl
papp
löhne
lessing
kultureller
kaa
esa
critics
1588
1568
##urst
##kler
##ière
überwindung
á
zusätzliches
zor
ordentliche
m2
klarinette
hörner
hervorragenden
doktorarbeit
bäuerlichen
anfällig
vorzeichen
seelsorger
erkannten
abschließende
##fg
myr
gleichgesetzt
chromosom
straßens
schell
loss
identifizierung
gemeindeteil
blütenstände
aufzeichnung
##kabel
unschuld
stadtrats
rank
iranische
fem
dress
öfteren
punktes
gipfels
gama
fou
finanzministerium
1659
##gräber
thermo
isolation
franc
derek
befördern
##tf
##mara
score
rumänischer
netzwerke
addition
##reiches
świ
weile
trent
samb
1608
patriarch
né
eugeni
bekanntestes
##oral
##lic
straßenbahnen
##nam
violinist
sehnsucht
kontinuität
konter
generäle
bogens
ait
##reie
##medaille
##anzeige
siegreichen
schwäbische
regulierung
regte
musa
konflikts
geschm
bradley
vig
sämtlicher
kriminelle
cope
carls
ats
asi
wohnplätze
wiederbe
tos
tonnengewölbe
pyrénées
geräusche
gekürt
berlinale
bast
außenlager
1641
##eminar
verwaltungsbezirk
regierende
neutralen
irre
inspektion
herbei
gruber
bewirtschaftung
bard
1230
vereidigt
ventil
privatisierung
host
fahrzeit
buren
bauf
##km
##erat
##angel
when
schnitz
ota
gul
butt
walisischen
tyler
tagungs
landgrafschaft
implementierung
hitparade
flaggschiff
financial
cern
brü
##darsteller
##bk
versammlungen
scheide
1673
tschechen
flöten
erkrankten
148
toiletten
ror
reichsrat
königlicher
##lak
##behörden
eingek
##stä
##ils
##aran
öls
user
kragen
klü
kett
atlantischen
xa
rg
pfosten
kollege
1617
##rise
##icz
##fit
##auto
letzt
dys
bezahlte
##urus
wanne
vertikale
reiß
meldung
hassan
bue
besorgte
##rno
verschl
trek
streckennetz
geeigneter
bestehender
anzugreifen
wegbereiter
pirna
nel
kul
kommentiert
holzsch
gastspiel
billig
##enf
verringerung
verhandelte
frühgeschichte
desa
dekor
##ship
##kti
δ
163
spielende
senators
rivalität
neuge
erhoffte
antis
##darf
worcester
umstrukturierung
ez
bezirken
beschäftigungs
##tb
##mith
1597
1565
nir
informierte
bedeutungs
##rüder
##reh
##iol
##ence
tagungen
rückten
rota
marks
manuell
liberia
lao
hauptan
großm
drittklassigen
anita
ackerland
##wehr
##gr
##angs
##absch
pei
neuartige
inhalten
fließenden
221
##lättrige
verzierte
phar
michal
leitenden
kud
##verfahrens
wegfall
smi
reichsk
leeren
hauptstrecke
gründungsmitglieder
##unn
##ards
stellwerk
raumstation
mittela
korsika
aik
falten
##mengen
weltanschauung
past
homosexuellen
hem
drohenden
dauerten
brabant
##bou
nordöstlicher
kyōto
jamie
cart
##90
##irn
umgebende
personennahverkehr
literaturpreis
itt
##iot
##amb
unbestimmte
travel
spezialisierung
choral
##schulen
ça
verbrennung
tay
sachsenhausen
lotte
##rage
##mil
##fla
fuss
exekutiv
camille
almo
##ützen
##wir
sioux
kenne
##onzern
##oca
gele
erlaubten
##labor
stream
rev
konsistorium
1583
σ
organisatorische
adventure
unterschriften
stiftes
stephans
ressort
ghi
aminosäuren
skeptisch
ostr
lokomotiv
betriebsst
anz
1543
##teilnehmer
##hnung
trei
sportlicher
pim
nordufer
kompanien
hove
hawk
##olla
##long
##felsen
wäsche
vorzugsweise
rotenburg
abgewiesen
##skoje
raz
pauls
nielsen
lublin
chapelle
aufgestaut
1611
##heizung
##funk
##ega
überzogen
verwundete
teurer
pilaster
kissingen
hera
betonen
##warz
##ufgaben
##rev
##keller
##eigen
vela
shee
geachtet
fanny
daumen
##tsche
##tea
##reunde
##nö
##lko
##gans
steuerbe
staatsoberhaupt
gepr
gebräuchlichen
arbeitsa
amerikas
##teils
##escu
vp
versorgte
thoma
tampa
squash
##würde
##raut
trompeten
profivertrag
potenzial
kunstschule
kostengründen
konkurrent
zuordnen
reinigungs
naht
landsmannschaft
historismus
belfast
ausgekoppelt
##ewe
verkleinert
##eru
vereinbarungen
problems
él
sale
nü
mineralien
häuptling
funktionalität
coe
boz
schwulen
magnetische
lamp
keines
industriegebiet
dienstag
cori
angemeldet
##tretung
##gefühl
worth
urbar
sämtlichen
stetige
ausfiel
andersen
##zs
##stetten
revolte
indigene
grote
bing
bananen
ausgewertet
##äu
##llan
##genieur
##erna
verständigung
hofs
bürgerinitiative
##nsa
##milie
##dul
##charts
##bitz
meran
elterlichen
elk
darstellerin
##kul
##garn
##bühne
verpflegung
tok
medicine
herausforderungen
geständnis
blonde
##antrag
pera
ostufer
noth
academia
##stitut
##lg
##ipe
##gold
porno
fahrern
##verf
##gend
süds
morton
marius
festgesetzt
eingew
##inrichtung
##inhalte
schlu
pilze
literaturwissenschaftler
fasziniert
verkehrsa
teresa
säugetieren
beantragt
216
##drüsen
poe
maigret
glei
gesetzten
##zing
##vorgänge
##ture
##sprachige
##dek
schwerpunkten
residierte
obstbau
instituto
gutsherr
glieder
büste
aufge
##fft
tum
staatsministerium
lad
213
##heck
schiene
nbc
kalb
heritage
anzupassen
##cka
verschmelzung
sylvia
gua
ammoniak
##vio
##brigade
##beginn
niederschlesien
genießt
##nsch
##jubiläum
##hed
##ged
völkermord
pha
metalle
kord
hymne
aim
widerlegt
wc
herrschers
celtic
bestzeit
##lech
zwischenfall
spieß
pflug
kosmos
khz
gesamts
fremdsprachen
christentums
ausnahmslos
##darm
quechua
premierministers
leitungen
franke
dri
coo
chil
b1
##ßler
überbe
wallfahrt
schneeberg
musikwissenschaftler
macdonald
maa
gebühr
einzunehmen
tiers
rubi
fortführung
direktoren
1613
157
##weis
##pis
völkerbund
ministerien
kühne
kommandos
grenzübergang
gesti
gegessen
dschungel
bürgermeisterin
aragon
neukölln
mane
##mere
zeichens
vorbildern
konsonanten
klett
erdmann
bäckerei
babelsberg
ausbeute
archive
##σ
übergänge
komplexer
jau
institutes
garne
bloom
balz
bachmann
##ndar
##achi
vernachlässigt
screen
droste
chal
aran
abgedruckt
##öcke
ši
tauern
sinfonieorchester
kollaboration
frankenberg
calli
##kens
verlegten
pankow
friede
##spolitik
triumphbogen
memmingen
korpus
freizu
##schuss
##komitee
übung
stadtverordnetenversammlung
mam
bindet
##pringen
##obi
##eme
zurückgewiesen
wieland
poli
kommandiert
grin
gek
erging
dat
beitrags
arrangements
ablegen
##behälter
untergattung
thon
ruderer
quart
gestr
eignung
dokumentations
##iele
##geschichten
##flugzeuge
ernsthafte
##tärke
segunda
##sca
##chia
łódź
santi
besorgt
ó
umgebungs
monica
kocher
einzustellen
demos
sier
mitbe
menschenrechts
litauischer
enzyklopädie
choice
beschränkung
ausgerechnet
##wicht
##werten
oberstufe
einzu
dorothy
bücherei
yves
liiert
amal
aha
##ccio
soko
oil
erfordern
betriebsa
beförderte
##nhagen
##armen
soo
klöstern
int
evi
aufgenommene
##stri
##programms
##eigenschaften
sá
savi
reuß
gund
ehf
anhaltenden
vermessen
schlank
lateinischer
holl
dragoner
bohnen
##wegs
##rsk
##lant
ust
schätzung
quad
liber
001
##maus
##enk
nuss
gesamtschule
freiin
beschränkten
560
##chichten
platons
niedergelassen
lipo
haj
flugbetrieb
brutzeit
blattstiel
auszuschließen
##steuerung
##ride
##owsk
sitzend
mechaniker
architektonischen
akute
##studien
sinnvolle
saalbau
katja
igel
beherrschten
##ên
##pho
wenigsten
tanks
russe
ganzer
dotiert
##pta
##alls
rocks
pros
poet
390
##ventil
##mung
wils
säbel
paarweise
mba
kreisfreie
gier
gara
freiem
corporate
##otti
##gli
sägewerk
professors
neunter
nationalmuseum
##enst
##arb
wasserleitung
vulkane
kunstmuseum
gedanke
dauerhaften
beschaffen
##renz
mekka
jungfern
häftlingen
hydroxy
amd
abgegrenzt
1607
##ká
##eife
wahrnehmen
haufen
##spflicht
##frucht
##elles
tō
rente
polymer
gutem
##sak
willis
schütze
bundesvorstand
##tine
##onis
schwartz
lys
hear
gäbe
##sätze
##np
##mmission
tödlichen
jackie
haz
gleiches
gilles
drängte
christo
1647
153
##nab
##leiden
##gattung
##durchschnitt
##bak
ulf
stückes
souverän
rheinprovinz
pfleger
oise
gog
etlichen
emilie
darstellungs
ausbeutung
abrechnung
207
1614
1562
kek
hanf
dienststelle
battista
lichter
einjährigen
##tun
##nsen
überlegenheit
wiederherzustellen
reflexion
##mak
warwick
südafrikanische
relevant
leiters
bone
192
wg
verbotene
touch
operativen
hoy
halbmarathon
geschenke
ausfahrt
abgeliefert
weiterbildungs
mero
kerzen
fusionierten
erstellten
umgesiedelt
lennon
landesbe
landstände
ige
##sek
##rov
zusehends
stadtp
organisatorischen
nördlichste
mikrofon
irving
befestigungs
##ähne
##rem
##nius
snowboard
ond
manu
jel
hitchcock
brunswick
##ähigkeit
##chner
luftangriffen
ljubljana
hegel
heat
französisches
aix
##ungsp
##blättern
vorhang
spessart
scheck
saft
##kle
##endes
vermessungen
verkürzte
reichsten
klin
entlehnt
brandenburgische
atlantis
176
##zähne
##rige
##hui
zurückgegangen
wals
versagen
doppelf
abreise
224
##kei
##bler
vermittler
textilindustrie
stefano
juniors
integral
geste
##signal
##lokal
gro
granada
dillingen
##untersuchung
##tart
##rogramme
##onstruktion
##kke
vorst
verka
rapide
kall
filmfestspielen
fertiggestellten
bewerben
217
##ır
##str
solisten
herkunfts
grundst
gemeinsamkeiten
gart
fangen
bello
209
westphalen
martín
implementiert
idol
herzogtümer
##top
##ieu
vorgegeben
topf
kriminellen
doh
arbeitenden
akkreditiert
##hot
tomas
schätzen
schulf
ess
anmerkung
analytische
##werkes
##cis
pfarrstelle
nächst
jüdisch
gage
federico
elle
##kollegen
unbefestigte
nj
kontrakt
kardinals
isla
bingen
##treter
##tradition
##sde
berga
barn
absolvierten
##kurve
roda
mist
leise
ignoriert
expo
enttäuschung
botanische
beabsichtigt
bah
assoziiert
abbild
##udi
##andi
év
stele
röhre
luz
kulturgeschichte
gewaltsam
##sd
##roni
##nion
##blo
sher
brutal
ausgebildeten
##wäldern
##rok
##eha
##board
##bla
##ages
stündlich
sowjets
pressekonferenz
namensgebend
kriegsschiffe
hochgeschwindigkeits
erzdiözese
direktors
##wettbewerbe
uru
niki
mfs
inh
goe
genügt
##örung
##liegenden
##korb
weilte
jol
gekürzt
gegenwärtige
cun
mecklenburgische
laval
ehrentitel
bistümer
adelstitel
ableitet
1515
##personal
##isieren
##faktoren
##böden
schreibweisen
kanoniker
1599
1510
##zier
willie
mündungs
kuratorium
kick
identitäts
hoffnungen
cana
##vé
##schwanz
##nstraße
tschad
konvertierte
archi
abstrakte
##nf
schne
miro
erweiterungsbau
begrüßt
##insk
##ewegung
sons
map
gale
accademia
232
1558
##aat
öpnv
vordringen
situ
gesundheitswesen
forster
bekämpft
walla
südsüdöstlich
slowakische
koro
gleichgewichts
201
1548
##tie
##missar
ottos
oratorium
neid
jagdschloss
grabens
carroll
##krankheit
##enc
zufahrt
schwab
sampler
nationaltheater
georgischen
gefechten
166
##illi
koni
##él
zuerkannt
viadukt
suisse
basierten
ablöste
##öd
##reu
##pulver
zerschlagen
südr
kaufpreis
gewerblichen
fähnrich
barg
term
programmierung
gleichsam
besch
##swert
##mtes
südufer
jutta
gez
cand
abwicklung
##tari
##bst
yp
weißenfels
seefahrer
ngo
formate
##grundlage
landestheater
köpenick
kulturs
gefallene
1601
##inos
##eze
pali
palette
orbit
magischen
kreuzfahrer
germanische
fel
familienmitglieder
billard
bewerten
##önen
teen
ital
gesamtbevölkerung
gebeine
fürstin
##ünden
##uld
##rho
##eitigen
upper
testen
sumatra
haug
hannoversche
annen
amo
1615
##iza
##hein
##estand
weinstraße
stege
oa
mitteldeutschland
jake
horizontalen
etat
anleger
167
##ingt
terrorismus
taktische
sanda
internetseite
grave
fraunhofer
forsthaus
##pra
##iac
serge
rur
lut
gemeindevertretung
flüssigkeits
befugnisse
1541
##uar
##ash
vils
verkaufszahlen
verglich
schade
quintett
moo
johanns
begrenzen
##tere
##fern
rheinufer
phantom
kolonialzeit
katalysator
befehls
altp
adliger
1492
wendete
stech
sign
pull
fromme
bläser
ausschreitungen
1602
##wag
##briefe
meinungen
kulturlandschaft
einwirkung
cyr
##šk
##bock
vehement
unternehmung
theory
strat
rechnungs
pom
landgut
drüsen
beri
analogie
südöstlicher
meilenstein
luka
justizministerium
jug
1561
##lze
nit
bundesminister
##finale
sina
regal
ponti
husaren
friedland
foreign
1563
##fner
zwie
schwyz
landeten
altdorf
##illo
##amts
übertraf
prote
loyalität
garri
ausdrücken
##stoffen
##lst
##heft
##fleisch
##euz
nordwärts
mea
kauften
beherrschen
albi
minderjährigen
klagte
archivs
arabi
absetzen
1460
überquerte
verw
marvel
kriegsminister
kriegerischen
##tyl
zentrumspartei
westens
schwing
politikers
hinterflügel
freigesetzt
##teiligung
##lichkeiten
##igh
tape
repräsentant
leonid
bom
##änke
##nergie
vortrags
verpachtet
gue
[...]
