[PAD]
[EOS]
[UNK]
[CLS]
[SEP]
[MASK]
der
und
die
in
von
den
des
im
mit
wurde
dem
er
ist
das
Die
als
zu
auf
##s
ein
für
##n
eine
sich
war
an
aus
auch
bis
##en
nach
am
##e
Der
bei
einer
zum
sie
durch
werden
einem
sind
nicht
##r
Im
Das
wird
es
In
zur
einen
über
oder
wurden
um
dass
Er
unter
Jahr
1
wie
##er
vor
##a
vom
seiner
sowie
nur
Nach
##t
noch
hatte
seine
Jahre
aber
zwei
Sie
hat
waren
2
eines
ab
zwischen
Jahren
sein
Am
dieser
Es
gegen
jedoch
Zeit
Stadt
seit
ersten
so
3
##es
etwa
drei
wieder
de
##o
5
of
Als
seinem
mehr
##m
seinen
man
kann
später
diese
Bei
##i
##y
liegt
4
Von
beim
ihre
Ende
konnte
Mit
ihm
erste
heute
wo
Gemeinde
kam
##in
Teil
Mai
haben
dann
bereits
Januar
August
März
##l
Oktober
ihrer
20
dort
Ein
anderen
ihn
September
6
Diese
Juni
während
April
US
10
Juli
Universität
erhielt
können
Dezember
da
beiden
15
##ung
Seit
Kirche
vier
ihr
diesem
November
000
gab
Deutschland
dessen
gibt
B
Saison
##d
Eine
Jahrhundert
Berlin
8
7
18
Platz
Mitglied
alle
Auch
19
Februar
m
zurück
damit
sehr
##us
Auf
16
zusammen
Für
zunächst
keine
deren
ihren
befindet
12
Namen
Ort
allem
14
weitere
begann
km
Film
9
30
worden
13
2010
Sohn
bzw
bekannt
17
deutschen
steht
ebenfalls
2011
anderem
selbst
Personen
2008
Familie
nahm
2009
spielte
St
was
dabei
denen
##k
0
statt
gewann
formula
hier
neuen
2007
ohne
2012
a
##on
Während
2014
bezeichnet
neue
2015
ins
gehörte
2006
11
##te
Jahrhunderts
2013
25
erstmals
New
immer
fünf
schon
deutscher
Band
I
trat
ging
Seine
A
Ab
Titel
sondern
gehört
So
Meter
Zu
Art
einige
Name
Deutschen
The
führte
erst
seines
sei
2005
##g
Sein
II
neben
##ch
Menschen
zweiten
Durch
##den
besteht
##ten
##u
##de
arbeitete
andere
wegen
hatten
2016
rund
dieses
Friedrich
fand
studierte
mehrere
z
großen
ihrem
##z
Gruppe
genannt
Da
wenn
2004
allerdings
sollte
diesen
2000
Geschichte
21
Tod
Anfang
s
24
große
soll
letzten
2017
weiter
Kilometer
u
1945
erfolgte
##ing
Gebiet
wobei
##um
Unternehmen
gegründet
the
tätig
nun
Frau
22
Johann
viele
Nachdem
sechs
musste
Karl
Zweiten
Mitte
Einwohner
Liste
schließlich
##h
C
Form
blieb
deutsche
folgenden
USA
wechselte
Gebäude
2003
100
weiteren
Straße
Region
erreichte
übernahm
Vater
jeweils
2001
Bis
23
neu
welche
2002
An
Bereich
Norden
meist
Kinder
Prozent
verwendet
Land
erhalten
Dabei
führt
Mannschaft
lang
Bau
König
dazu
verschiedenen
gewählt
insgesamt
Dies
entstand
d
Leben
aufgrund
Album
Neben
28
Dort
Haus
26
Tochter
and
2018
Wien
darauf
Wilhelm
stand
gilt
folgender
Mal
Amt
Rahmen
Dieser
erschien
München
27
Süden
Millionen
teil
insbesondere
##berg
Aus
konnten
##an
finden
Verein
1999
errichtet
Einsatz
University
Rolle
Dorf
ließ
John
50
Stand
##is
erneut
Heinrich
S
davon
Beispiel
oft
also
eingesetzt
fast
Richtung
Weltkrieg
Arbeit
Um
Frankreich
Provinz
innerhalb
Folge
Hans
Jahres
Osten
1990
Außerdem
Partei
Staaten
eigenen
damals
stark
Beginn
Unter
Westen
Seite
starb
U
Gesellschaft
York
kommt
29
Peter
1998
kurz
Paul
heutigen
zog
##le
dies
Schule
ehemaligen
Paris
ca
zweite
Zur
muss
Welt
Entwicklung
Musik
31
Landkreis
Regierung
##ng
Höhe
Bevölkerung
habe
zahlreiche
Spiel
V
Frauen
je
findet
gegenüber
Insel
folgte
darunter
1994
FC
##el
##S
besonders
sowohl
allen
Kreis
Sitz
1996
##A

verschiedene
Burg
Werk
1997
1992
Bedeutung
weil
beispielsweise
Zum
Team
lange
Österreich
##mann
Serie
Krieg
danach
doch
1995
bestand
1991
veröffentlicht
französischen
Mann
alten
meisten
D
Sommer
teilweise
##dorf
stellte
40
Europa
zudem
Gemeinden
sieben
lag
Professor
acht
##chen
##ischen
Spieler
hinaus
lassen
1993
besuchte
setzte
gemeinsam
daher
Mutter
zuvor
Schloss
gehören
Alter
geht
gelang
Hamburg
zehn
geboren
ihnen
##al
1989
Karriere
machte
London
Armee
##ler
zeigt
befinden
Maria
Strecke
Liga
hin
##ia
schrieb
häufig
kamen
möglich
Zwischen
Arten
eigene
Franz
##ner
##au
DDR
Mitglieder
Tag
amerikanischen
Danach
kleinen
einigen
Vertrag
Georg
etwas
##ne
gleichen
entstanden
Schweiz
genutzt
gründete
Reihe
kein
Bruder
##bach
Ziel
##os
Betrieb
Hier
vielen
aller
sehen
##se
Buch
handelt
erreicht
Den
Wasser
stehen
zwar
nachdem
Vereinigten
Saint
somit
##G
deutlich
County
kleine
gut
beide
Bereits
La
aufgenommen
Ersten
##x
##sch
1933
Über
##na
1972
Politiker
Nähe
Grund
Deutsche
Chr
Ludwig
Bahnhof
Stelle
##gen
veröffentlichte
v
lässt
direkt
Studium
Bezeichnung
außerdem
1988
folgende
pro
##f
Michael
ursprünglich
Berliner
Euro
letzte
Erfolg
Linie
mehreren
##C
National
dafür
##schen
Spielen
1987
1980
##ie
hinter
1970
III
liegen
Werke
erwähnt
absolvierte
weniger
West
schloss
Kloster
kommen
Kaiser
Preis
Thomas
stellt
Präsident
gewesen
1974
Weg
Truppen
Besitz
Klasse
ernannt
1939
Museum
1986
1938
Robert
entwickelte
Raum
Nachfolger
südlich
##isch
1984
1985
San
##c
System
##B
1975
welches
e
Teile
erster
selben
ganz
kehrte
##or
##w
stammt
Zudem
Ihre
League
Martin
Familienname
Landes
Einwohnern
anschließend
##ische
größten
Schweizer
##ig
1944
Köln
umfasst
1968
##ach
Sprache
Verbindung
mm
60
E
Spiele
Damit
dritten
Erst
Siehe
Olympischen
1978
##ge
ihres
1969
Dieses
nördlich
h
##ck
bildet
1983
1971
Weitere
1973
verheiratet
Johannes
Ausbildung
gebaut
diente
Begriff
1982
Meister
Beim
##as
heiratete
Bad
200
Gründung
Fall
Ortsteil
1979
amerikanischer
1976
hohen
befand
sogar
Italien
##re
dar
Wahl
500
1946
1960
Tage
Frankfurt
Kunst
##p
##sen
ehemalige
damaligen
##ka
Theater
wenig
Sieg
England
einmal
Bischof
ebenso
##ra
spielt
Bahn
1950
1981
City
Carl
Otto
##1
Hälfte
See
Regel
größte
benannt
Zuge
Ernst
Länge
AG
M
britischen
Wie
##V
Vor
Joseph
einzige
Hilfe
besitzt
Institut
Grenze
entwickelt
weit
nahe
1967
##P
1977
##ungen
Arbeiten
1964
französische
fanden
Stil
Zahl
Ihr
Leiter
Herrschaft
späteren
General
Rang
müssen
Firma
##st
Leitung
##sten
Sachsen
politischen
Leipzig
bisher
Nr
bevor
1965
Zentrum
##2
Ehe
##lich
Produktion
Anschließend
ob
Aufgrund
Park
weiterhin
##nen
Rennen
1966
Gruppen
Schlacht
L
verbunden
1961
beträgt
entfernt
enthält
Wiener
##and
##3
GmbH
la
frühen
1963
##ke
Division
Später
cm
1956
1962
##é
##M
1952
Christian
1940
Man
1949
lediglich
Finale
Lage
##ter
##sche
Kanton
1948
R
##4
Fläche
##at
##R
Republik
heraus
viel
brachte
eher
T
##straße
International
machen
internationalen
##it
Abschluss
##ion
##0
##ar
Nord
Künstler
1941
erreichen
1958
##K
ausgezeichnet
Akademie
1943
1942
wohl
Version
Literatur
Heute
hohe
wollte
Bayern
Tour
neun
Männer
sollten
verlor
Vorsitzender
Schiff
1959
führen
Projekt
David
km²
deutsch
Schüler
Gegensatz
zahlreichen
##nd
Polen
Mitarbeiter
##b
beteiligt
siehe
Gattung
östlich
1957
ersetzt
Funktion
Rom
##feld
Stadtteil
William
Dr
Soldaten
Richard
hauptsächlich
Roman
1947
Staffel
Weltmeisterschaft
westlich
##ta
1934
wenige
hielt
##ur
1953
aktiv
Hof
gesamte
Verfügung
sollen
Runde
Berg
Fluss
##F
Dienst
1955
##6
1936
erzielte
Zeitpunkt
1954
belegte
Reich
Vertreter
##la
früher
Zwei
Baden
##L
alte
##ce
Alexander
erfolgreich
einzelnen
##T
keinen
nächsten
##ow
1920
bilden
1919
Eltern
Metern
Max
##haus
##land
Meisterschaft
Anzahl
80
1918
Hochschule
Basis
Kultur
##et
Anschluss
##D
dadurch
Main
##heim
stieg
betrug
Dollar
College
K
Hermann
du
##ers
Position
##man
vermutlich
eröffnet
würde
70
##tz
Hauptstadt
folgten
mussten
Markt
##che
Einfluss
##rt
bald
J
politische
knapp
darüber
gleichzeitig
##keit
leicht
Anlage
1937
Trainer
1951
Alle
1935
Unterstützung
Bild
H
James
lebte
Bürgermeister
verläuft
daraufhin
geführt
35
will
sogenannten
wiederum
Jean
gestellt
besten
##ns
O
1930
denn
trägt
China
##7
90
lebt
##8
Fußball
indem
Cup
Union
George
Spielzeit
Seiten
gehörten
amerikanische
fiel
beendete
nie
##O
zuletzt
überwiegend
Papst
G
##der
River
gefunden
##9
übernommen
kaum
Dresden
öffentlichen
erfolgt
##E
##zeit
ausschließlich
legte
##ern
bietet
##rs
Uhr
vollständig
Dazu
ehemaliger
Zusammenhang
jeder
Gymnasium
Lied
Bundesliga
verließ
heißt
Verlag
Turm
F
gesamten
Einige
bestehen
##burg
Schauspieler
zerstört
##5
Hannover
##ll
1914
Japan
Familien
mindestens
verloren
Mark
##da
Graf
heutige
1928
erwarb
Verwendung
Direktor
galt
n
for
##v
Minuten
Auftrag
Tätigkeit
Le
wuchs
langen
lebten
School
schwer
1929
zwölf
1932
Schutz
45
Darüber
Jugend
##tal
1970er
großer
Lehrer
Zusammenarbeit
genommen
Zeitschrift
wirkte
nimmt
Stiftung
entlang
leitete
American
Club
Monate
welcher
Stück
Josef
##hof
Ländern
deshalb
erbaut
1900
Daneben
durchgeführt
300
Doch
Anna
Recht
Walter
Obwohl
Programm
Thema
hoch
Orte
selten
SPD
Zeitung
World
Friedhof
gemacht
Insgesamt
Verfahren
relativ
1980er
Stuttgart
leben
Kopf
Mannschaften
regelmäßig
Herbst
Wochen
verkauft
Charles
##rn
Stunden
Umgebung
Kampf
IV
folgt
Département
Organisation
Gelände
Russland
Grafen
seien
32
Motor
weiterer
Juden
P
Autor
zusätzlich
Artikel
##ren
Allerdings
Politik
1925
fest
Süd
1960er
katholischen
erstes
Brücke
Nationalmannschaft
südlichen
Modell
Vom
Punkte
bildete
weitgehend
bekam
Zürich
startete
Bank
Tor
1924
Kapelle
schnell
Bezirk
europäischen
Städte
dient
##ierung
1990er
erschienen
##I
Großen
1927
weltweit
##N
al
spielen
anderer
Möglichkeit
inzwischen
historischen
zeigen
Song
größere
Laufe
Wappen
Verwaltung
Kind
verliehen
Abteilung
##ton
400
Boden
vertreten
Philosophie
1910
Ost
##ei
Single
##ert
größeren
entdeckt
di
##ja
Halle
vorhanden
Wagen
beginnt
sogenannte
Jazz
Staat
Weise
Schriftsteller
##ca
gebracht
Führung
sodass
dritte
Nordosten
Hand
oben
Größe
Wert
verfügt
Open
##ki
Maler
Anteil
##iert
1931
Siedlung
1921
Beide
Weltmeisterschaften
##igen
1923
Tal
Regie
dagegen
geprägt
nichts
Frage
geworden
Grand
Spanien
W
Weltkriegs
1926
van
wichtige
##ni
Schon
nördlichen
stammen
jeweiligen
Wolfgang
X
Angaben
1912
##erg
Darstellung
gehen
westlichen
Großbritannien
Los
Gold
ausgetragen
Rudolf
Daten
Schwester
groß
Krieges
italienischen
Südwesten
gingen
##th
Stimmen
englischen
gleich
1922
Herren
##ein
N
##werk
Rock
wahrscheinlich
Wort
eingeführt
darin
gerade
jährlich
gegeben
betrieben
eingestellt
früheren
Opfer
##platz
Deutsch
endete
Nur
##no
russischen
produziert
bedeutet
Württemberg
außerhalb
et
Sammlung
stellen
##itz
Viele
trotz
gebildet
führten
hervor
Herzog
berufen
Verlauf
Nordwesten
65
Ergebnis
Typ
Kategorie
Bewegung
setzt
Westfalen
Tiere
Abschnitt
Award
##gruppe
Wald
TV
Kraft
Louis
geben
arbeitet
Schweden
genannten
sah
##ingen
österreichischen
Sinne
Königreich
Albert
macht
neuer
per
##ed
Südosten
gewinnen
wäre
United
##ieren
Aufgaben
Geld
mehrfach
Hessen
##heit
enthalten
Kurz
trug
SS
Punkt
höchsten
Tore
Winter
fort
##urg
hingegen
Washington
Heiligen
könnte
Nacht
Festival
Rhein
Heimat
beschrieben
##ier
jungen
laut
Inseln
1913
Bildung
Rat
unterstützt
Radio
sieht
Themen
Start
ähnlich
Ortschaft
her
weist
Bundesstaat
frei
hätte
Noch
entspricht
Grundlage
Fahrzeuge
wenigen
Dem
Co
Des
Quellen
bekannten
zählt
##em
##ich
solche
Frühjahr
##hausen
Vergleich
gleichnamigen
##nt
Polizei
Medien
Ungarn
zugleich
##ste
Bremen
##ger
obwohl
Turnier
Teilen
Vaters
##ma
##U
Royal
dahin
versuchte
75
wichtigsten
Air
1911
standen
##ort
höchste
Wegen
Aufgabe
##ige
aufgelöst
verlassen
halten
Schulen
Präsidenten
##bahn
Objekte
Bahnstrecke
Frank
Punkten
Zentimeter
De
##cht
neues
l
Adolf
hergestellt
Architekten
Folgen
Gut
erweitert
##ien
Forschung
lief
##W
versucht
##stein
Laut
Person
Fußballspieler
gegründeten
Ehefrau
1905
##ation
Musiker
1000
Weltkrieges
erhielten
Düsseldorf
Landwirtschaft
Bonn
umbenannt
Teilnehmer
1907
nahmen
Ebene
internationale
1917
Schiffe
offiziell
Studien
Chor
Kindern
britische
Wenn
Island
gelegenen
Bücher
Sowjetunion
1908
##bau
CDU
1950er
##ken
Text
Gründen
weiteres
Straßen
geschlossen
##ts
gespielt
erscheint
zeigte
##bar
Rückkehr
bestimmt
Gesetz
allein
Kirchen
Aufnahme
Kosten
Weiteren
Einführung
Station
Mittel
Autoren
ich
Körper
mittels
##ee
bestritt
beschäftigt
Andreas
##len
33
katholische
eingerichtet
elf
nehmen
##j
##ville
Bürger
Leistung
##schaft
Interesse
Druck
Söhne
breit
Abitur
dargestellt
WM
bekannte
##ben
verbreitet
erklärt
weiß
Ortes
arbeiten
Sprachen
entsprechend
Erde
linken
Philipp
verantwortlich
Villa
36
zuerst
Industrie
oberen
##ut
kg
Teams
##H
rechts
to
##ey
##ngen
tragen
Werner
1906
##ß
Standort
besaß
Moskau
römischen
Bach
außer
kleiner
angeboten
zählen
Preußen
EU
Flughafen
Fritz
t
Orgel
##mus
SC
Länder
##ine
Aufbau
Königs
vierten
junge
älteste
wodurch
Macht
Fenster
Technik
##il
Hamburger
Veröffentlichung
Häuser
Silber
Niederlage
bestimmten
Records
PS
unterschiedlichen
unmittelbar
blieben
Kontakt
Natur
Kritik
Sänger
Münster
Elisabeth
jüdischen
Zusammen
1909
##hen
34
Top
Trotz
Auswahl
Durchmesser
Mädchen
Marie
Ausgabe
bringen
Prozess
1904
##li
##traße
Müller
östlichen
del
##io
Freund
Sport
Australien
Brandenburg
kurze
Bilder
Stein
zunehmend
Gott
##lle
französischer
Kanada
150
Wirkung
verlegt
Erzbischof
##que
Alfred
Films
ebenda
Anton
gezeigt
Nicht
nominiert
##ker
Marine
##ri
Regisseur
besitzen
jetzt
angelegt
1915
Nürnberg
stets
ganze
Verband
Formen
tritt
Pflanzen
Wettbewerb
##meister
Richter
Europäischen
alt
Nummer
##rat
links
Hockey
Holz
All
Kreuz
vertrat
belegt
namens
Pfalz
rechten
verfasste
geschaffen
##X
South
Energie
fließt
Fuß
Vereins
Liebe
Ich
Drei
Aufstieg
Studenten
übertragen
bezeichnete
Rand
Brüder
Bewohner
gelten
Filme
errichtete
##á
genau
##ga
##kirche
hält
##tion
jede
Deutschlands
Meer
Henry
##son
##inger
Hektar
Medizin
dienen
Ferdinand
Parlament
Probleme
Dadurch
bleibt
##ya
Material
gehalten
Internationalen
Nutzung
38
eigentlich
Hotel
1903
Auflösung
zweimal
North
##ve
Zug
SV
Angeles
Luft
en
##am
bestimmte
traf
Öffentlichkeit
nahezu
##Z
Lieder
erstreckt
State
Schauspielerin
CD
römisch
hinzu
Einheit
zugeordnet
Informationen
Debüt
Reise
Company
Freiburg
1916
werde
gewonnen
entweder
erklärte
i
Hafen
##ry
Star
Jan
Pfarrer
daran
Mio
55
2019
mittlerweile
Tradition
polnischen
geschrieben
erkennen
Theologie
Parteien
Figuren
modernen
Fernsehen
Leistungen
preußischen
Rechte
Christoph
Spitze
entschied
verkaufte
##raum
Ufer
##art
Wirtschaft
##aus
Hall
Formel
1902
Architektur
beste
Unternehmens
Situation
k
nationalen
begonnen
sur
Gustav
nieder
Zeiten
Tode
Mittelalter
Gebiete
Regiment
Lauf
Revolution
benutzt
Kommission
1848
1901
##system
unterhalb
##tt
seitdem
baute
Linien
bleiben
##ik
verstarb
House
##recht
wesentlich
Theorie
würden
Lebens
Music
jedes
##tor
##ski
vorwiegend
gegründete
##ro
völlig
spielten
Prag
600
Feld
Einheiten
unteren
Fakultät
##nde
Große
##ling
64
1899
aufgestellt
Daniel
jedem
on
mal
##form
Maschinen
Laufbahn
Neubau
##ko
Städten
Zeichen
früh
Daher
Konzept
ursprünglichen
Hintergrund
Aber
umfasste
Bauern
historische
Millimeter
zuständig
Wahlkreis
besondere
Grab
Kalifornien
Mitgliedern
Qualifikation
öffentliche
ausgestattet
begannen
unterschiedliche
37
Ausnahme
Kongress
promoviert
Herstellung
42
##ang
Küste
Tagen
##va
Chemie
Ritter
Verhältnis
Boot
kleinere
ehe
Quelle
Internet
Pfarrkirche
starken
Beziehungen
Ausstellung
spätere
Sieger
teils
japanischen
##weg
älteren
Züge
1898
gemeinsamen
Gleichzeitig
Besuch
Status
44
Stellung
Rest
schied
Teilnahme
Zunächst
Lehre
Anwendung
ha
##fen
Grafschaft
Tonnen
1890
Kiel
Gegen
Landtag
Schwerpunkt
Heidelberg
Stadion
besetzt
spricht
eröffnete
##me
##los
##to
abgeschlossen
verbrachte
gute
##see
Chicago
übrigen
Ergebnisse
zweiter
kurzen
Untersuchungen
Hersteller
erhoben
verschiedener
Society
Abs
Elemente
späten
recht
Post
##innen
erhält
High
Figur
Metal
mündet
Indien
NS
Nordrhein
beziehungsweise
dortigen
besser
Angriff
##ley
##nden
Gegner
einzigen
##cher
##ys
alles
Basel
##men
800
Klaus
Kurt
##sdorf
Santa
Bezug
Ausland
unterscheiden
Heinz
geplant
Lager
gesehen
##lin
##ismus
Gericht
Werken
Licht
Erfolge
Bern
kennen
Pierre
Förderung
Fahrzeug
aufgeführt
bislang
Mainz
spanischen
1896
##anlage
griechischen
Szene
##ad
1895
##age
##bereich
Entscheidung
##arten
##ze
fuhr
grenzt
##ss
promovierte
gar
##agen
Struktur
Satz
Augen
Ebenfalls
Aufnahmen
hätten
##liche
schuf
1870
##orf
##atz
beschreibt
vorher
Handel
Plan
##ls
Mexiko
Eisenbahn
Fragen
Universitäten
urkundlich
Rheinland
Daraufhin
erinnert
Schleswig
Sicht
##lichen
##co
Infanterie
Wechsel
angegeben
Stern
versehen
Flügel
aufgebaut
Schrift
Zustand
Besetzung
##ium
Software
Essen
1897
Minister
Mehrheit
unten
Klosters
Charts
##ell
Sankt
betrachtet
Amtszeit
südwestlich
Herkunft
wir
gelegene
Waffen
Chef
parallel
zählte
Bistum
1871
südöstlich
Show
Neuen
##lt
Arrondissement
##ld
Arbeiter
ungefähr
Großteil
wissenschaftlichen
Komponist
Super
geb
Alben
Lake
El
Roten
Charakter
##wa
##tte
österreichischer
verurteilt
hoher
ältesten
Jakob
schweren
##ius
Bundesrepublik
fällt
damalige
wissenschaftliche
##ystem
Patienten
einzelne
Einrichtung
gesetzt
Alten
entlassen
48
derzeit
Songs
vorgesehen
250
Fällen
##reich
Erste
nannte
Brand
Breite
Sender
85
Idee
##wagen
Braunschweig
##tein
39
Theodor
Abgeordneter
nordwestlich
einfach
ganzen
##ō
öffentlich
international
Groß
Klub
Studio
Errichtung
##technik
Flucht
Gegend
##sa
Fort
befördert
Praxis
Besitzer
Vier
Beziehung
gelegentlich
nordöstlich
##verfahren
##he
Zeitraum
Versuch
wollen
Dach
Vereinigung
Zuschauer
##za
Live
Türkei
Monaten
berichtet
großes
Gemeindegebiet
##nn
Halbfinale
Presse
Wissenschaften
traten
entsteht
darf
Regionen
Oper
Institute
Arzt
Fahrer
Garten
Schriften
angesehen
getrennt
miteinander
Weibchen
Krankenhaus
Blüten
Königin
Zugang
eigenes
zeitweise
starke
Label
Arts
Bestandteil
lernte
##ende
Association
##gebiet
120
1850
endgültig
ermöglicht
Bernhard
##rd
ernannte
1893
95
##enden
nennt
Wahlen
könne
Rollen
Halbinsel
entstehen
Dänemark
##mer
Donau
erreichten
Salzburg
Standard
möglicherweise
##ek
1880
gemeinsame
Sendung
Landschaft
Vorbild
existiert
1930er
Dann
Ring
##ina
Verfassung
Don
existieren
##ag
reicht
Gerhard
Filmen
##id
Göttingen
schwedischen
verpflichtet
anfangs
einschließlich
##wald
Black
klassischen
Stellen
Besonders
Kontrolle
##be
Ruf
##chule
Neue
geborene
Ordnung
leitet
##rg
##schule
Ulrich
Gouverneur
ergibt
Bayerischen
Netz
engl
Verkehr
mittleren
1892
mehrerer
Kunden
verbindet
verhindern
Priester
Auflage
56
Belgien
Academy
Güter
Einwohnerzahl
Ehren
erlangte
49
benachbarten
Video
##go
##do
Bibliothek
##witz
Junioren
Repräsentantenhaus
##dt
Auto
Kriegsende
Wolf
52
errichten
British
angenommen
fertiggestellt
löste
sofort
1885
##ssen
Texte
Ausbau
Besucher
##ff
Paar
Ausdruck
##ann
Anlagen
Kölner
hieß
1894
Kammer
Maßnahmen
Weiterhin
kleineren
bestätigt
41
Einzel
bisherigen
##zen
Untersuchung
Tempel
Bay
handelte
Mathematik
schlug
Variante
Gebieten
weder
nationale
Einen
##un
Oberliga
guten
geriet
##ot
Wissenschaft
##sse
1888
##des
Nachbargemeinden
manchmal
Frankfurter
##ens
Schließlich
Funktionen
Hauses
Initiative
43
Julius
Holstein
sowjetischen
1889
Ortschaften
Bund
befanden
scheiterte
NSDAP
Orden
Farben
stammte
Gefängnis
unabhängig
vergeben
Weltcup
Fischer
benannte
gemäß
scheint
Joachim
##ster
Problem
widmete
zumeist
Denkmal
Kanal
Woche
Vereine
produzierte
Partner
Simon
zumindest
Museums
##ard
Widerstand
Ursprünglich
Einrichtungen
##unternehmen
dennoch
bestehenden
komplett
Europameisterschaft
jeden
genannte
politisch
Schmidt
Sicherheit
allgemein
verwendete
##und
1891
##ale
Phase
59
Center
Instituts
57
sprach
Israel
Wunsch
schaffte
Brasilien
##uch
daraus
getötet
entsprechenden
Red
##ft
gestaltet
bot
sozialen
Publikum
Mensch
Konrad
höheren
eng
Meisterschaften
freien
untergebracht
englische
ausgeführt
Zusätzlich
1860
klar
##ba
Dennoch
Bord
51
weisen
##ir
Pokal
tatsächlich
47
46
Rot
##gesellschaft
Generation
le
überhaupt
##raße
Veranstaltungen
##zentrum
gekommen
o
Historiker
Front
##band
1874
Gründer
außen
Feuer
00
Farbe
oberhalb
##ly
Aktivitäten
britischer
ursprüngliche
Nachfolge
Z
##elle
Volkszählung
Eröffnung
Eduard
Zweck
Bedingungen
1866
Orchester
##dienst
##eim
stellvertretender
schwarz
Bronze
Altar
Vielzahl
Je
Football
versetzt
italienische
rot
notwendig
Party
Street
Architekt
Militär
Science
inne
King
Orten
dt
Gewalt
Angebot
##ti
Ebenso
nächste
Rio
Vorgänger
offiziellen
g
Arthur
Behörden
Verbindungen
russische
Gewinn
##weise
Bereichen
zufolge
Erich
treten
ehemals
1875
##ha
umgebaut
Volk
##les
Dorfes
54
Brief
##ug
Gemeinschaft
Afrika
Adam
offizielle
Behandlung
Männchen
Produkte
österreichische
Alpen
bildeten
fünften
umgeben
ausgebaut
gelangte
Grenzen
erscheinen
1867
1879
Mühle
unterlag
Reste
1920er
##llen
erzählt
Strecken
Handlung
Gipfel
Pro
Verhalten
desselben
Design
Entwurf
72
1887
weshalb
Bundes
##J
Herbert
unterscheidet
bestanden
Group
trifft
einiger
Dörfer
geweiht
unterstützte
##ons
Vergangenheit
endet
1872
Gottes
##ae
96
Anerkennung
##of
##ny
Reiches
Münchner
höher
##pe
Deutscher
Physik
1886
Flächen
Zahlen
##lage
organisiert
feierte
anders
66
Distrikt
58
Etwa
Lösung
Operation
Lee
Kader
Online
Frieden
Smith
Big
1884
Eigenschaften
dürfen
Portugal
##ität
nämlich
jüdische
nutzen
Grad
verhaftet
Monat
heiligen
Gemälde
Kommando
##ol
Altstadt
Vorstand
eingegliedert
Und
Posten
##je
Spielklasse
##all
zentralen
VI
Mauer
Pop
technischen
Modelle
1868
##one
Weiß
Nationalsozialismus
Magdeburg
1873
zogen
1500
weißen
kaufte
Festung
basiert
chinesischen
beigesetzt
Morgen
Les
States
##ist
Edward
bieten
##zug
Tom
Würzburg
Rathaus
ließen
militärischen
Kassel
Route
Namens
wichtigen
Menge
Rede
Senat
brach
Anhalt
67
1882
Van
beschäftigte
68
nachgewiesen
1881
Transport
Bühne
Norwegen
privaten
Andere
deutschsprachigen
solchen
Tunnel
Herausgeber
erhöht
wirtschaftlichen
Sängerin
Bildhauer
José
Gestaltung
niederländischen
Kino
Insbesondere
Einer
Pfarrei
Wege
Francisco
hierbei
Künste
einst
abgerissen
Neu
schreibt
lehrte
Staates
Kern
Methode
Jürgen
##gruppen
Reaktion
Al
beschlossen
behandelt
Anhänger
ermöglichen
liegenden
1878
Aachen
Sinn
##ana
Verkauf
##ht
verfügte
Zukunft
Neustadt
lokalen
Service
Hause
debütierte
Allgemeinen
Beispiele
Hitler
Niederlande
Dichter
Internationale
Naturschutzgebiet
Stefan
Jungen
Mecklenburg
verstärkt
Entfernung
98
Karten
erworben
möglichst
##arbeiten
110
Abend
##ment
vorbei
jener
entsprechende
##kreis
Herz
Streit
Prinz
Management
anhand
##eren
beendet
Suche
Drittel
schließt
Erwähnung
Verbreitung
bestehende
##lla
1883
fungierte
bezieht
##hn
Beruf
Datum
lautet
Schluss
Gefahr
zentrale
Organisationen
700
höhere
bedeutende
Magazin
##port
Wesentlichen
1815
eigener
Erfahrungen
Wehrmacht
##punkt
aktiven
größer
1876
Mary
fortan
53
Texas
1861
Freien
Thüringen
04
Siegen
womit
Krone
Abstand
Original
schwere
breiten
Kamera
moderne
##mi
Werte
Albrecht
Sturm
Register
Tages
Marke
##gesetz
Tübingen
lagen
Übersetzung
Oscar
Fürsten
Master
88
Niedersachsen
86
anlässlich
Auszeichnung
99
Kombination
##ser
sicher
bekanntesten
Corps
Schwarz
kW
sagte
##amt
Diplom
mittlere
Best
Pläne
beschloss
holte
Viertel
##im
Klassen
Blick
folgen
##ent
##eld
Stücke
62
1869
Play
Übernahme
üblich
Anspruch
##verein
1864
Strom
definiert
69
Regionalliga
seither
##ischer
##ica
länger
Gesang
1865
Jack
Journalist
63
##tes
Hugo
Firmen
Träger
Umwelt
Ferner
do
1862
Konzert
Führer
Flugzeug
infolge
Unterschied
##ies
Komponisten
08
Entstehung
##eck
solcher
gelegt
Niederlanden
1849
92
engagierte
offen
Rücken
Methoden
Bronzemedaille
Ukraine
Studie
Offizier
Engagement
durfte
ausgestrahlt
soziale
Bands
##cke
Hill
übernehmen
angebracht
Plätze
09
Kandidaten
Europas
05
stärker
gewannen
Stimme
France
wirtschaftliche
offenen
Assistent
zusätzliche
Töchter
##ham
74
Amsterdam
##linie
1877
verändert
Wohnung
begrenzt
Karlsruhe
Heer
forderte
Unabhängigkeit
Augsburg
##preis
Graz
militärische
##í
76
Interessen
Franzosen
##ty
zieht
eigenständige
Denkmalschutz
b
Autobahn
Ruhestand
Hauptrolle
Oberfläche
Erweiterung
##tag
fallen
East
Bass
Weltmeister
Technischen
begleitet
Aussage
traditionellen
##by
staatlichen
##isten
benötigt
##ierte
Nationen
Ägypten
Dom
##scher
erfolgten
erlaubt
Veränderungen
Rechts
schließen
hören
verboten
SA
Gemeinsam
Griechenland
frühere
Sekunden
betreibt
Bericht
Objekt
betrieb
Darmstadt
Sir
Milliarden
Meinung
Eingang
Herr
##ic
zweier
Englisch
Expedition
festgelegt
KZ
unterschieden
##ay
Büro
Funde
Gang
eingeweiht
78
Geschäftsführer
Damen
Klein
errichteten
##mittel
Systems
Amerika
Klavier
beeinflusst
Jena
uns
erfolgreichen
Ersatz
##ice
Motoren
angeschlossen
Qualität
##iger
Dauer
##auer
zugänglich
Prinzip
##di
c
94
Inschrift
93
gleiche
Existenz
evangelischen
besonderen
79
Klima
anerkannt
unterschiedlich
##ky
Europameisterschaften
89
##industrie
Mission
##zahl
klein
Tier
82
Computer
mehrmals
sonst
Ziele
71
Fraktion
Sebastian
Lübeck
Temperatur
##buch
##ino
Gebäudes
Abgeordneten
Konflikt
entwickelten
Medaille
83
##rten
ältere
##her
Boston
73
Freiheit
##gt
etc
bringt
1800
Mount
Exemplare
##aum
Auftritt
##lo
Beschreibung
Unterricht
##halle
stellten
speziell
Leo
Hierbei
##eit
##mt
Baureihe
Nachrichten
1863
veröffentlichten
Nationalsozialisten
reiste
vorgestellt
Spieltag
##gs
Mündung
jährigen
Western
Drehbuch
übersetzt
Beiträge
Konzerte
Fach
Freunde
Nikolaus
allgemeinen
##wert
Hügel
Möglichkeiten
##ordnung
vierte
Unternehmer
Minute
Malerei
Herzogtum
Dortmund
Kabinett
Somit
Verhandlungen
Major
Ordens
Kardinal
Botschafter
Mannheim
77
Abt
Antonio
Fernsehserie
Stadtgebiet
Anne
##hi
##leiter
Helmut
61
aktuellen
Fassung
Baron
Columbia
Umbau
Kreises
Rumänien
##är
Alte
verlängert
##ellen
entwickeln
übergeben
ziehen
Lokomotiven
ausgebildet
##nitz
freie
gelangen
Pariser
bereit
Höhepunkt
Blues
gedreht
##piel
führenden
langer
darstellt
tief
Erhebung
Geburt
Sprecher
christlichen
wiederholt
könnten
Green
schaffen
Kommandeur
Rostock
eins
White
##ring
Ensemble
##zeichen
letztlich
eingemeindet
##ks
Innenstadt
Leichtathletik
Konkurrenz
italienischer
##turm
##tten
Ball
Krankheit
Sonne
erheblich
geringen
Herrscher
Rundfunk
##ai
##mühle
Venedig
Ingenieur
07
Kantons
Produkt
maximal
Fahrt
##q
##wesen
Übergang
Verlust
Bundesstraße
ergänzt
treffen
Anders
erfolgen
Bachelor
##ate
Jagd
änderte
Zwar
getragen
Madrid
##brücke
You
Seinen
##ji
##stelle
Gewicht
Tourismus
##ule
Flotte
84
Heimatstadt
##om
Promotion
Ton
geblieben
##geschichte
Baum
81
Irland
andererseits
sprechen
setzen
Ereignisse
Löwen
##ak
Projekte
unterstützen
Wind
Besatzung
dänischen
verteilt
aufgegeben
technische
Verlängerung
diverse
##erung
1856
gelegen
Stahl
Reserve
##cken
beteiligte
1840
Leopold
machten
##verband
wichtiger
unterteilt
Virginia
überliefert
Planung
##ild
Kilometern
Kirchengemeinde
Alt
Breslau
gaben
einfachen
Serien
beider
Bill
Ben
reichen
Anwesen
1806
##ul
bedeutendsten
Athen
ähnliche
##teil
gezählt
EM
Jura
Juan
Oberst
Ortsteile
ergeben
beschädigt
Szenen
beobachtet
private
kanadischen
My
einerseits
rein
Haut
Glocken
##ov
NHL
##adt
Jedoch
Maschine
unterstellt
Joe
##fe
Matthias
bekommen
Nun
##end
##ver
1859
Weil
Kinos
Umsetzung
##anlagen
Woiwodschaft
Prix
##ber
Code
Premierminister
Mittelpunkt
Koch
Blut
städtischen
##verkehr
stattdessen
türkischen
Bundeswehr
Nationalpark
Wissenschaftler
Williams
Reformation
umgewandelt
Zeitschriften
Archiv
größtenteils
unternahm
##fabrik
Südafrika
m²
Innerhalb
Deshalb
Love
Schneider
Rechtsanwalt
##zer
Tat
Partien
vertrieben
Mailand
gezogen
breite
Unfall
unterschrieb
Schritt
wichtigste
abgelöst
Berge
Lord
##nis
87
Verteidigung
Ansicht
Barbara
eigentlichen
Säulen
DM
Franken
schwarzen
Systeme
Rücktritt
##hl
Real
fielen
wandte
Renaissance
erlebte
DVD
evangelische
y
nennen
Religion
Jahrzehnten
organisierte
Ideen
Haft
Waren
Landgemeinde
siegte
Navy
Force
geschlagen
Seitdem
Arnold
##ou
Earl
nutzte
möglichen
Gottfried
Kollegen
Umfang
Spiegel
untersucht
Test
Beteiligung
##gel
Dieter
Dynastie
Bergen
Wand
##ý
entschieden
##zone
Ursprung
erforderlich
maßgeblich
Emil
täglich
##betrieb
jüngeren
Saisonende
Doppel
aufgeteilt
Barcelona
Ob
Trennung
Harry
diesmal
wissenschaftlicher
##jahr
Bestand
Viertelfinale
Regeln
Brown
Plänen
Gemeinderat
staatliche
Christen
##bel
##ose
Bucht
One
Straßenbahn
gründeten
##chaft
##pa
einfache
wirkt
gesprochen
Fehler
##nes
Grünen
Berater
vorhandenen
Männern
Wissen
Korps
Albums
Horst
Ausstellungen
Christus
Gitarre
Ali
##res
97
##ln
vermutet
Bauwerk
1803
beschrieb
##nger
Weißen
tun
Carolina
Me
##stadt
Gestalt
91
##igkeit
Wende
offenbar
sorgte
Ford
verletzt
Brunnen
integriert
wollten
Blätter
No
Geist
01
1830
Urkunde
1854
Fürst
Eigentümer
Bob
Landkreises
Feuerwehr
Ausstattung
Bereiche
Central
Erstmals
Blau
Geschwindigkeit
Bauten
Long
##án
derselben
fahren
nunmehr
Schwierigkeiten
europäische
Basketball
##isierung
Fabrik
Analyse
unbekannt
Jones
ermittelt
polnische
1857
Veröffentlichungen
Monte
gefördert
entspringt
voneinander
Weiler
1852
1855
dreimal
06
aktive
kurzer
Stamm
Tschechien
geleitet
Toten
Treffer
entgegen
reduziert
Ex
Parallel
Tanz
Nordamerika
direkte
Samen
Verdienste
##ford
hierfür
Spuren
##cker
Florida
##ant
usw
Wein
roten
Port
##per
Y
Was
##familie
##ierten
Inneren
direkten
Jurist
##führer
Karte
EP
umfangreiche
Dissertation
##höhe
Fassade
Stationen
geändert
Meyer
##ven
1858
spezielle
##smus
Bekannt
bauen
Potsdam
Witwe
##forschung
verwendeten
Provinzen
meistens
Leipziger
dienten
Auftritte
ausgewiesen
Streitkräfte
bedient
Rechtswissenschaften
Erster
Wagner
errang
Saale
Michel
Onkel
jährige
nochmals
Massachusetts
Kaisers
langsam
eingebaut
Rose
Innsbruck
bayerischen
Silbermedaille
Hauptort
zugunsten
Begriffsklärung
gefangen
##off
Gebrauch
Typs
englisch
UN
##park
Falle
finanziellen
Haltung
##tischen
##leben
##reis
Scott
örtlichen
entdeckte
grundsätzlich
Kräfte
verzeichnet
at
##wechsel
Zoll
Anlass
sichtbar
gefertigt
##si
##sh
Bergbau
Masse
Vogel
Keller
Geräte
wählte
##ue
Mord
sämtliche
Kritiker
Wiederaufbau
##yn
abhängig
engagiert
Fünf
Ernennung
Mac
Regensburg
Kauf
Versionen
##ßen
erzeugt
datiert
hinein
Trier
Seen
##markt
##erie
Tiefe
Ausbruch
##ise
besucht
äußeren
##druck
gezwungen
Victoria
##ón
##gebäude
lehnte
##icht
verlief
unterrichtete
Linz
kleines
geringe
Eishockey
Wales
Königsberg
Gewässer
Line
##erte
3000
Synagoge
Instrument
Hit
1845
ermordet
durchsetzen
Gast
##tadt
##eg
anschließenden
Castle
Kapitän
Marburg
Schottland
1813
Aufmerksamkeit
durchschnittliche
Ohio
Wir
sang
wies
1851
möchte
Weber
Bruno
##kopf
Österreichischen
Zimmer
wächst
Beitrag
##uer
kritisiert
##ahn
positiv
Brücken
Siedlungen
Flusses
##kt
Erscheinung
##netz
Zellen
voll
menschlichen
##ins
persönlichen
USD
Konstruktion
Ausgaben
abgelehnt
##theorie
##nz
Jacques
Änderungen
qualifizierte
Mike
War
Ruhr
Petersburg
Reihen
sicherte
##ps
Zuvor
stehenden
erhältlich
all
Französischen
Blue
zugelassen
Pferde
1847
Versorgung
##ī
##field
Jacob
Marx
Argentinien
Umfeld
François
restlichen
Lehrstuhl
Eisen
Produzent
Erfurt
##ere
##ans
Toren
Varianten
Premiere
Katharina
Aussagen
Aktion
zusammengefasst
bedeutenden
Moritz
##eite
darstellen
FDP
Strukturen
1846
Ist
Gemarkung
Studiums
Tabelle
Dietrich
##ini
Galerie
Pass
AC
verwenden
Goldmedaille
##wand
Zerstörung
Felix
##barkeit
eigentliche
erstellt
sechsten
japanische
dürfte
Val
##lichkeit
hundert
Abkürzung
Rund
##bewegung
inneren
gekennzeichnet
Schild
näher
Flug
Vorsitzenden
Geschichten
Platten
kämpfte
Kaufmann
angeblich
Auseinandersetzungen
##thal
1816
Öl
Abtei
Bibel
Symbol
Budapest
vieler
australischen
##wasser
##politik
##alen
gestaltete
läuft
Streifen
getroffen
##lager
üblichen
Horn
Komposition
Befehl
Sekretär
Abstieg
##ux
##rk
Research
mittelalterlichen
eingetragen
##orm
1853
Fertigstellung
1818
englischer
Veranstaltung
Schacht
Runden
keiner
erfolgreiche
##gasse
##ano
Hinzu
bekleidete
Gletscher
aufmerksam
Oder
herausgegeben
Samuel
römische
Bahnhofs
##ette
Dienste
weiße
Meistertitel
natürlichen
Österreichs
André
Reisen
Manager
Highway
geplanten
Schwestern
Liter
##lan
European
besiedelt
präsentiert
Bus
Lizenz
03
Warschau
beschränkt
Road
bezogen
##berger
##are
beginnen
brachten
##aft
Bogen
1814
Maximilian
Betriebe
##holz
Luxemburg
##kraft
Spiels
Finnland
allgemeine
##rin
zweites
richtete
Ehemann
Eis
antiken
##ide
bestehend
Fusion
Personal
ungarischen
Kupfer
durchaus
westliche
##stand
Persönlichkeiten
Mengen
angeordnet
Army
##lehre
Sound
geeignet
First
Tür
Auseinandersetzung
Positionen
aufgehoben
##arbeit
umstritten
ums
längere
ermöglichte
##träger
ausgeschlossen
Jahrzehnte
Evangelischen
lebenden
aktuelle
Golf
innen
welchem
Fest
Kommunikation
Anbau
Werft
Rekord
Einstellung
verfolgt
berichtete
##onen
Pennsylvania
Oblast
Räume
##ci
Vorsitzende
Anforderungen
Francis
umgesetzt
Verbreitungsgebiet
leistete
ausgewählt
weibliche
Young
##tisch
Schäden
Jerusalem
##ände
Davis
##Y
Gedichte
Block
Zusammenschluss
##hr
Jesus
Elbe
Stockholm
äußerst
erbaute
manchen
Selbst
Künstlern
Urteil
liegende
ferner
südliche
Folgezeit
saß
Neuseeland
Infrastruktur
Messe
Rektor
Weiter
beauftragt
##ock
##nischen
Sitze
##fest
##spiel
##häuser
Eberhard
##ds
Himmel
Sand
mögliche
spanische
Stephan
Botschaft
ausgestellt
Darstellungen
Kapitel
daneben
Istanbul
Amerikaner
gefärbt
Weimar
Kindheit
Glauben
Blatt
Ausführung
Treffen
gestorben
##ian
nördliche
begründete
Wohnhaus
Dresdner
Asien
Nachkommen
##kel
gelingt
erfährt
Jesu
Werkstatt
jap
##orn
Papier
##ère
##programm
diversen
Giovanni
Wilhelms
geringer
auftreten
schlossen
regionalen
Demokratischen
##fläche
beinhaltet
##nten
Spielzeiten
##änge
02
##insel
Kooperation
Reform
Manfred
Artillerie
Lange
Briten
Christi
reichte
Studios
##tische
Free
##ms
Sprint
Konferenz
Haushalte
Tokio
Verleihung
900
##rand
Dreißigjährigen
Strand
dauerte
setzten
Erklärung
Goethe
hinten
Wer
Hagen
Brüssel
##rad
ergab
Ihm
min
Versuche
##museum
erhaltenen
sog
1843
Jäger
erkennbar
Gegenwart
entstandenen
abgeleitet
sächsischen
Ämter
klassische
Schnitt
Heide
Charlotte
Vorteil
1832
Windows
hängt
Stunde
##formen
Durchbruch
Panzer
natürliche
Rote
Auge
Einsätze
Schülern
Häusern
Kathedrale
Henri
1844
Brauerei
##nberg
##gang
Illinois
Effekt
trugen
Anti
Adler
Sowohl
##werke
Dafür
1842
##film
##del
Chris
Takt
Stadtrat
1835
trafen
Musical
##aten
vorgenommen
praktisch
Boote
##od
Brigade
Metall
##sis
Roger
##trieb
Verbesserung
##mo
ZDF
130
##tät
elektrische
abschloss
Q
Ministerium
Awards
##nte
Exil
Lehen
##ea
Kontakte
rasch
##ó
GT
verstorbenen
180
Ober
Netzwerk
##liste
Muster
Steine
Spielfilm
Europäische
Volksschule
Höhen
dicht
schützen
##han
finanzielle
religiösen
Vorläufer
##ichen
schwarze
gleicher
Pflege
entsprach
##nder
oftmals
Klinik
##ć
königlichen
Sprung
##horn
Einsätzen
Oldenburg
vgl
freier
NGC
##rte
Buchstaben
kurzzeitig
Tennis
Ursache
starben
Gedanken
##ula
##uf
Hang
Iran
Hollywood
Becken
Publikationen
Glas
##ura
##pen
Media
verfügen
Markus
Tschechoslowakei
festgestellt
bezüglich
SK
1810
##sk
Prüfung
geschützt
##organisation
evangelisch
Eroberung
Johnson
Bezirks
##bildung
##mar
VII
entscheiden
Französisch
enthielt
Steve
Hütte
Kohle
Erbe
übte
1837
Interview
Institutionen
abgebrochen
Verordnung
Weser
Stärke
Tournee
Committee
Schlosses
Flugzeuge
Spielern
PC
Palast
Gebäuden
Council
Folgende
##unden
Motiv
Indianer
Abstammung
Chile
gegliedert
##bo
zahlreicher
##gg
Maß
Not
Heeres
Hinweis
no
Sun
##uss
bewusst
Zeitungen
1838
##irche
##weiler
Grundstück
Inhaber
Professur
Verwaltungssitz
Günther
Tieren
Inhalt
Kurs
Oxford
ja
Tirol
Regiments
Ray
Böhmen
Victor
suchen
Preußischen
ständig
Toronto
##tum
woraufhin
Preise
Kolonie
Distanz
geschickt
##ruppe
Engel
Technologie
Bruch
Anfangs
Rosa
versteht
Knochen
Kopenhagen
genaue
Stock
herum
zeichnete
Journalisten
Eigentum
Stellvertreter
Wetter
Fans
Parlaments
Arena
Freiherr
Jugendliche
Verantwortung
##kow
besetzten
##ara
São
##zi
gering
AS
Geschlecht
erzielt
##abteilung
350
##fer
Produzenten
Justiz
Grundschule
##fall
lokale
Insekten
Power
DB
Fleisch
Genf
Auffassung
eindeutig
1841
##eln
Schlüssel
##fahrt
Parks
Sektion
vielleicht
erschienenen
habilitierte
Fähigkeiten
Sydney
Flagge
Belagerung
California
Dur
Luther
1839
Produktionen
kündigte
##urm
Therapie
Fortsetzung
letzter
verlieh
politischer
seltener
Bremer
Austausch
Schlagzeuger
Doktor
##ums
##est
berücksichtigt
##sberg
Schicht
Definition
Beamten
Ausschuss
Leute
darauffolgenden
Jersey
Zustimmung
beherbergt
##bus
Geburtstag
1836
##old
Episoden
Philadelphia
Änderung
1834
Abbau
angesiedelt
Formation
Knoten
Auswirkungen
persönlich
künstlerische
Felsen
umliegenden
anderes
Bedarf
Eier
verpasste
Angst
Du
##tsch
br
Einzug
Luftwaffe
halb
Solo
geplante
Heirat
Dass
Dan
Pseudonym
frühe
##oren
schwedische
Schwarzen
Psychologie
musikalische
gesichert
Rumpf
Langhaus
Diözese
angehörte
Graben
typischen
Freundin
Vizepräsident
stattfand
Sam
Ulm
fehlen
Gewerbe
stammten
##ín
erhaltene
historisch
Cambridge
Vorstellung
Marc
verstanden
befasste
Prinzessin
betroffen
##hren
Wild
Eva
1821
sowjetische
männlichen
erfolglos
SG
Aufstand
Risiko
Gas
Eindruck
Lewis
schottischen
Romane
erweiterte
Tatsache
Antrag
Duo
##dy
schreiben
1200
##acht
Douglas
##ogen
##logie
Piloten
bedeckt
##bild
Champions
1820
gearbeitet
Las
indischen
Todes
cm³
eingestuft
behielt
Jänner
persönliche
##ure
Sees
beteiligten
##reihe
Bündnis
p
Winkel
IC
##kommen
Frankreichs
##ata
stieß
teilnehmen
offene
Games
Series
Tony
Kap
Vorschlag
Besonderheit
##iden
Gäste
Orchestra
Ansatz
Enkel
ans
Signal
Sciences
heißen
Zulassung
Wiesbaden
Taylor
Leser
Volksrepublik
erfüllt
Beschluss
##nummer
Portal
##eil
KG
wirken
Junge
Ostpreußen
musikalischen
verstehen
befindlichen
erneuert
Landgericht
##wirtschaft
Format
##bare
Partie
Saal
Life
durchschnittlich
Carlos
##ire
Erinnerung
Reiter
Peking
Oliver
verfasst
Ministerpräsident
helfen
alter
##ätze
##ufen
Vermögen
##wo
erinnern
sichern
##ings
Gesetzes
geschätzt
Generalmajor
Game
Stattdessen
Niederösterreich
Mode
##haft
abgebaut
Straßburg
Karls
Schauspiel
Loch
160
##don
Günter
lat
legt
Verfolgung
##lis
genug
Merkmale
vielfach
regulären
Zone
Grundriss
seinerzeit
Gesundheit
Territorium
ähnlichen
Erzählung
bezog
##ab
Londoner
Kategorien
Glaubens
Bühnen
Verhältnisse
sagt
Million
Mittelmeer
begründet
ausgerichtet
künstlerischen
Stars
jüngere
##usen
##namen
entworfen
101
##aal
##rich
##à
Stift
Jackson
Bischofs
1831
Ortsname
Centre
##leistung
Redakteur
gewisse
Aluminium
vermeiden
##tus
##funktion
Trio
komponierte
Río
1812
##lauf
Komödie
erzielen
Dozent
##aden
Jahrhunderte
Bier
Konzern
preußische
Jeder
Handball
wichtig
Einzugsgebiet
Mario
##lli
##ite
realisiert
##rechte
üblicherweise
Sandstein
beziehen
Vorbereitung
erlitt
Legende
Kandidat
Wiesen
##rer
Durchführung
bisherige
Freundschaft
angepasst
Zweite
Funk
Corporation
Busch
Journal
Gallen
antrat
Restaurant
Express
f
##material
steigt
Römer
Plattform
Roth
Mandat
##produktion
##ola
wer
Angelegenheiten
Materialien
achten
bewegen
Element
Bundesstaates
belgischen
Erfahrung
Profi
katholischer
intensiv
Unterschiede
It
aufweisen
##ı
lieferte
Zweig
##rücke
unterrichtet
bekannter
Marathon
veranstaltet
Zusatz
Eishockeyspieler
##jo
Vorpommern
verlegte
müsse
gefährdet
Church
Pommern
gefolgt
##latz
Annahme
Drama
Act
Regierungsbezirk
##ria
##nau
Wilson
5000
männliche
Old
geteilt
typische
Neckar
Patrick
angebaut
Wurzeln
##chten
verblieb
##tti
Gegenstand
suchte
eingezogen
Beste
##ionen
gehörenden
Forst
Vorstellungen
Angehörigen
Draft
mir
Gebirge
Ostsee
unterschiedlicher
fährt
1808
Nahrung
##verwaltung
##vertrag
Schreiben
1817
bester
Bistums
Mond
ersetzte
besiegte
##kirchen
Soldat
##möglichkeiten
russischer
##äuser
jährliche
Anordnung
weiblichen
Banken
##titel
elektrischen
les
##baren
Platte
Staats
Amtes
Ablauf
Duisburg
restauriert
Mitarbeitern
Weimarer
bevorzugt
identisch
Bauer
kulturellen
Schiffen
SED
Dritten
Ärzte
Point
gewidmet
Opern
qualifizieren
Foto
1833
##ereich
ausgesetzt
Stufen
hinsichtlich
Eric
traditionelle
Kavallerie
Jury
Bochum
Ausrichtung
##ausen
Kriegs
begleitete
##unde
Verständnis
erfuhr
##auf
Mehrere
Zahlreiche
##ene
Festivals
Herzogs
Geschäft
##leitung
##we
Times
rechte
empfing
bezeichneten
Außer
erhebt
1828
##rum
drehte
Gründe
##schutz
##ah
##öl
solle
enge
Town
105
##ord
Präfektur
beruht
wachsen
##ong
regionale
1825
norwegischen
##flächen
fehlt
Schichten
begraben
Werks
Areal
Instrumente
stationiert
ausreichend
versuchten
spät
Information
stehende
Wahrheit
zählten
erklären
verbliebenen
##bank
##ac
anstelle
Time
Hochzeit
diskutiert
##tta
##plan
Male
Grün
May
verwaltet
Country
##ez
##ris
Dame
##blatt
kulturelle
jene
##direktor
##ndorf
häufiger
entwarf
Hammer
angrenzenden
Beach
Wesen
##mmer
schlecht
existierte
Arm
traditionell
##els
Bald
weg
##gut
Pflanze
Stab
übernahmen
Bezeichnungen
nötig
verhindert
Forscher
##lar
##kosten
Demokratie
Schicksal
##daten
selber
Trotzdem
Alternative
Golden
Zuschauern
Schuld
Sophie
##vo
Benjamin
Mr
Besiedlung
entstandene
Rückzug
entsprechen
Glück
1807
Kanzel
internationaler
##ye
verfügbar
FA
Schatten
##lose
Zusammensetzung
##š
speziellen
Jung
Verteidiger
Finanzierung
Anteile
Islam
Vize
##tis
Südamerika
Identität
Gesellschaften
Antike
Bestimmung
verwandt
Uraufführung
bedeutete
Carlo
##ho
Völker
Gattungen
Haupt
1809
Beweis
vergleichsweise
Hauptmann
Olympia
griechische
Okres
Marken
Kreise
dokumentiert
Bit
Hinweise
Nassau
Eugen
140
Championship
##Q
Schlesien
##welt
Hauptbahnhof
Untergrund
Programme
stammende
Sturz
Abgeordnete
teilte
##ore
Angehörige
unterbrochen
Blumen
hl
Gabriel
Mathematiker
Erdgeschoss
##gas
##elt
Erforschung
KPD
Typen
wohnte
nowiki
circa
umfassende
Vorsprung
##cal
festen
Anwalt
Day
##chi
##kammer
Wall
portugiesischen
Winterspielen
Fuchs
##eben
Zugehörigkeit
lautete
##llo
einziger
Sonntag
Überreste
Gießen
Speicher
1826
Reichs
obere
Quadratkilometer
##klasse
Geschäfte
##aren
##baum
Roland
##ille
Armen
bessere
##ane
Mühlen
Diskussion
Besitzungen
##iel
ref
##zellen
Verluste
HC
älter
mich
Koblenz
Waffe
Mont
Auszeichnungen
##graben
Umgang
Entdeckung
innere
religiöse
DFB
retten
m³
Siedler
Summe
##ahl
leisten
Mitbegründer
Braun
1798
gelb
erhöhte
Erkrankung
Helden
##asse
qualifizierten
##chor
befasst
Lebensraum
Rande
durften
Claude
bedingt
Mehr
##kommission
Sports
Jugoslawien
##bert
Nebenfluss
Triebwagen
##olitik
##nge
Florenz
Haushalts
Nation
Model
Jim
Historic
##ā
##nia
Atelier
Bernd
Vögel
Garde
Neapel
Michigan
Schach
Worten
linke
verbundenen
sahen
Bäume
Früchte
hielten
Bekanntheit
Fellow
##chte
Night
Handels
Court
letztes
Zweiter
Hierzu
vorübergehend
Kompositionen
1829
Südseite
Reihenfolge
Großvater
Entlassung
hinweg
zeigten
Bar
übernimmt
Einkommen
Stufe
##so
erfahren
sucht
hierzu
unmittelbarer
Wirtschafts
1822
##ppen
Saar
EC
1824
1802
Theologe
Ecke
betreut
Zeichnungen
Stoff
Hospital
Statistik
Herrn
##musik
Kleine
Wohn
Glocke
Ruine
Gleis
gefeiert
Gitarrist
Benedikt
##ron
Schwert
Bauarbeiten
erkennt
Ursprungs
nationalsozialistischen
Grundlagen
Inzwischen
Gesamtwertung
Büchern
Siegfried
Weiterentwicklung
erfüllen
ausgerüstet
Höhle
##tin
Kämpfe
Ross
Salz
abgegeben
wären
##ast
grün
Museen
darum
Gesetze
rote
paar
Gesicht
Milch
Lebensmittel
Moderne
verzichtete
Last
erfasst
Saarbrücken
Sache
Betreiber
Little
Chance
##rie
Yorker
Schriftstellerin
##sheim
Web
Flugplatz
Osnabrück
Alan
##kapelle
Testament
Landtagswahl
Adel
Fälle
Lyon
Labor
Aktien
CO
##räume
Skulpturen
griff
niederländische
##ete
verbesserte
erfolgreichsten
Mannes
##zt
Bände
extrem
Singles
à
Residenz
##nie
Allen
Mitteleuropa
Bundesregierung
einziges
wovon
Lang
Training
Dritter
##las
Law
Valley
Vertretern
Planeten
Great
America
erkannte
Hände
Ereignis
Manuel
##kampf
Fahrzeugen
##wahl
zugeteilt
erschossen
Verbände
Offiziere
Napoleon
Rolf
Originaltitel
Fotos
Aufhebung
Versammlung
Gulden
Verleger
Südwest
Verbandes
##ec
##erten
Hamilton
##nk
Aufenthalt
zusätzlichen
Wohnungen
##owski
weite
bestätigte
Mans
Brian
##tel
Täter
publizierte
1819
Gelegenheit
verband
Dank
aktuell
Sieben
gesellschaftlichen
##äre
Brust
eingeladen
##ologie
bekommt
Kim
Hohen
Gräfin
belegen
siebten
bestimmen
##inen
1811
Schiffs
Bevölkerungsdichte
##ani
wirklich
schwach
sammelte
Zentimetern
##länge
Schwanz
Keramik
##rate
östliche
##felder
##teile
Pfund
##linien
##tik
Hals
Maße
##og
nachfolgenden
Box
Beton
ansonsten
berühmten
Fast
Oberbürgermeister
verkaufen
Anwendungen
Andrew
geschlossenen
Hoffnung
DJ
##ses
Sauerstoff
##züge
Seminar
Erhaltung
Gewinner
Lediglich
Fred
spanischer
Kreisstadt
##ble
worauf
Erziehung
zurückzuführen
##geschäft
lateinischen
##erin
Kontext
Aufklärung
führende
Bundestag
verlässt
Naturschutz
##jan
dank
samt
verbessern
Beförderung
geöffnet
Lebensjahr
Autorin
Ruhe
vielmehr
versuchen
erreichbar
Forschungen
Platzierung
Mischung
weiten
Fisch
vorne
Salzburger
untere
##ios
##well
denkmalgeschützten
Kleinstadt
##tzen
Integration
bin
Mitteln
Krebs
Conrad
Becker
reich
Flüsse
Hinter
vollständige
Vorsitz
überraschend
Berichte
##ären
sank
UEFA
gewissen
##losen
##pel
entstammte
Schlagzeug
ARD
##tätigkeit
##cus
Plätzen
Rohr
Siege
Heim
Darin
Eines
##ße
Slowakei
Landrat
Fund
Oft
Diesen
as
Steuer
Clubs
Innere
erschlossen
Gerichts
##chef
1805
Zwecke
1827
Opposition
##chs
##eis
Zucker
zwanzig
verbreitete
fördern
##gi
##änder
Nick
alleine
Bielefeld
Küsten
stillgelegt
Verbot
chinesische
Moor
x
Marmor
##ors
##lingen
UNESCO
Bulgarien
russisch
Nordwest
##führung
Amts
##mannschaft
spätestens
Bürgerkrieg
1801
Edition
Pferd
Tätigkeiten
NATO
vorerst
Hoffmann
Lissabon
##ud
Hot
bewohnt
arbeiteten
##stoff
wesentliche
##dae
Harvard
##nische
besaßen
umfangreichen
Holland
Lippe
Zugleich
##gemeinde
Costa
##ges
##kunst
geschah
Beck
##itsch
besuchen
Schwerin
##ok
Hauptrollen
Alliierten
Manchester
nutzt
braun
Mars
##nahme
Begriffe
Dörfern
Endspiel
Vizemeister
Minnesota
##ank
is
Bernard
##esen
chemische
Mund
gelangt
Berufung
Bildern
Gedicht
Theaters
Fiction
##wood
##ett
Phasen
Debütalbum
Sohnes
1793
Creek
äußerte
geregelt
Statue
Komponenten
Temperaturen
Willi
Amtsgericht
##stellen
Comic
befindliche
Business
Hut
Badminton
Kapital
konzentrierte
Palais
Grube
Railway
125
rückte
Drogen
arabischen
Kunststoff
kritisierte
##lagen
Sammlungen
Bridge
111
Johanna
##ów
menschliche
Problemen
Landesregierung
Prince
jüngste
unweit
Willen
maximale
Nordseite
Unterscheidung
Nördlich
##echnik
Prozesse
Helm
Hochschullehrer
Sterne
##viertel
##cs
Up
Dreharbeiten
##nlage
Abwehr
Lorenz
Thron
Manche
Getreide
##förmig
Jugendlichen
Tim
christliche
Entscheidungen
##iv
##typ
Di
Zeche
umfassen
Dinge
goldenen
namentlich
Index
1804
##uk
positive
Gespräch
##winkel
großem
##nne
Regen
Ski
Sanierung
verbinden
Danzig
unklar
Übertragung
Nachweis
Friedrichs
Gebiets
Sklaven
##theater
Erzählungen
##rung
kaiserlichen
landwirtschaftlich
Zufluss
Vorkommen
Alters
Back
Rajon
Pionier
handeln
##ald
Katholiken
Voraussetzung
Lady
##cy
rief
##enberg
Fell
Endrunde
unterhält
##reise
##ari
Kurfürsten
Patent
Georges
##dach
Powiat
Haar
Chefredakteur
fliehen
##cha
schlechten
Staatsexamen
##gau
On
Touristen
Loire
Hubraum
##telle
Nordost
Klang
Frequenz
##eiten
Kommune
Inc
Erben
aufnehmen
##llt
Zuletzt
keinem
Spur
Münzen
1823
Export
Vorfeld
verlaufen
##ück
Koalition
##unterricht
verteidigen
automatisch
BGB
##lag
Space
manche
stammenden
Ken
schneller
demnach
finanziert
Kommandant
Regional
Ausgrabungen
Heilbronn
Peters
Abkommen
##и
##bt
Oskar
Fels
Verletzung
Alkohol
Hotels
Hund
Gen
erwies
erneuten
Details
Nürnberger
Begründung
##beck
Umbenennung
Arbeitgeber
##sser
mag
Georgia
Kriterien
Zylinder
Rainer
etablierte
r
kämpfen
DNA
Kämpfen
Cross
Nationalversammlung
Falls
installiert
Zweitligisten
Dialekt
##team
Verletzungen
wahr
Cover
Pilot
normalen
Alex
Links
##krieg
stattfinden
Tisch
trotzdem
Nacional
Eigenschaft
antreten
Urkunden
Könige
gerufen
Marsch
Elizabeth
ausgelegt
Verteilung
Turin
Turniers
blau
griechisch
Schreibweise
endlich
##raft
Aufführung
Niveau
Verbands
Grande
Vereinigte
bezeichnen
schwierig
1790
Fan
Fulda
Wellen
##hagen
##bene
bekannteste
115
Begegnung
Vorlage
Oslo
Forderungen
##region
##ack
Mineral
Regelung
Angriffe
Veränderung
landwirtschaftliche
BMW
Bauch
orientierte
streng
Erzbistum
1600
##ender
hinteren
##ase
bestellt
Norm
zugeschrieben
##kin
schwerer
112
##mal
beobachten
medizinischen
benannten
Bester
Begründer
seitens
1940er
##üge
##ehen
##satz
Gebietsreform
Zerstörer
Ten
Priesterweihe
Vereinten
Genre
##loch
Racing
Weinbau
Li
töten
##stedt
Tafel
Russischen
Königreichs
Andrea
1700
##eur
Elementen
Bamberg
##zahlen
überführt
Höhlen
Ankunft
##ringen
BBC
Allianz
##mm
Sechs
kandidierte
Nachfrage
versorgt
dortige
codice
BA
Lande
Erstligisten
Voraussetzungen
Hits
Tel
bestattet
tot
Heilige
##nbach
Ausgangspunkt
##rbeit
Regime
beenden
laufen
##ew
Vermutlich
Miss
##up
Texten
Seele
zeichnet
Abenteuer
Interpretation
Wachstum
Zehn
türkische
Moment
vereinigt
Drehbuchautor
Anführer
##hin
Dialog
Romans
##ess
vornehmlich
##yer
Motive
inklusive
Vordergrund
##nus
Ausdehnung
Disziplin
Häufig
109
Wärme
erhebliche
##net
unterzeichnete
literarischen
Gefangenschaft
Telefon
Hauptsitz
Clemens
Musikern
Kessel
DS
##ät
##quelle
Gebietes
Monats
Hop
Experten
IT
Miller
Kugel
##garten
Howard
Tatsächlich
Hochschulen
dänische
Il
Stürmer
Dance
Sky
Steiermark
Obergeschoss
Lou
Gerät
1794
104
Nationalen
Antwort
Farm
##prüfung
meldete
Grafik
Anstellung
Dokumentation
Porträt
Roll
Ozean
Derzeit
##sitz
Wuppertal
Etappe
Benz
Haushalten
Pest
Forderung
Kleinen
Jede
Hard
legen
Death
Überlieferung
Premier
##ick
Verlags
vorderen
Davon
Stadtbezirk
##urs
Vorrunde
Server
Hinsicht
Erlangen
Ohne
Rad
ersetzen
Vorlesungen
Talent
Allgemeine
Reinhard
Landtags
los
bedroht
##ée
Kai
##ala
ÖVP
Ontario
Irak
Erz
erneute
verkauften
##ions
Akt
##tern
Antrieb
##sierung
116
Ludwigs
landwirtschaftlichen
Montreal
Umzug
##owa
Home
108
Modus
Sicherung
Sex
übergab
Kraftwerk
längeren
Bauwerke
##spor
vorhandene
aufweist
vergleichbar
##ua
dritter
Harald
##tand
Via
studieren
Athleten
gehabt
Bruders
##äume
Chemnitz
Admiral
Episode
geliefert
TSV
zusammengeschlossen
Redaktion
gebildeten
junger
Fox
##ammer
Daraus
bewegt
Senator
quer
Umsatz
Freizeit
Bell
##hersteller
Außenminister
Reichstag
gerne
welchen
Luis
Wird
Kroatien
Soziologie
Jörg
technisch
betont
##kreuz
Kulturdenkmale
##erk
Konservatorium
eingeteilt
ATP
verkehren
##shi
Kennzeichen
Anthony
fünfte
Einflüsse
spezialisiert
Teich
Gefangenen
Durchschnitt
SPÖ
Schlag
zwischenzeitlich
Pastor
##kultur
Felder
Innenraum
tiefer
Südost
Dokumente
##tation
gemessen
Dessen
Thüringer
Traum
Teils
gleichnamige
akademischen
##ade
Forum
107
lesen
Krise
Nachlass
abgehalten
Oberösterreich
Aspekte
Umständen
Humboldt
betreiben
Pedro
Kreuzer
Dekan
102
Motors
##bi
##gan
grünen
Buenos
Generationen
auseinander
Vertrags
Barock
verließen
Wirklichkeit
Schaden
##ii
Aussehen
Vorjahr
##halten
geehrt
teilnahm
voraus
##ührer
##sammlung
Missouri
Planungen
bewaffneten
Marcus
Römischen
Luzern
wissen
##hilfe
gefallen
Darunter
##gemeinschaft
registriert
##po
Satelliten
##bteilung
Leiden
Geschlechts
Ö
##uß
allmählich
dauerhaft
beinahe
Friedens
eingenommen
Aires
Verbrechen
Titelverteidiger
Medaillen
##uft
##nnen
Prinzen
Mein
verursacht
mittelalterliche
Fernseh
##seite
Wettbewerbs
##ruppen
guter
betätigte
Studioalbum
##ras
Affäre
zeitgenössischen
Paderborn
sofern
Heck
Harz
engen
Foundation
gedacht
besonderer
Stephen
Stanley
Periode
Strafe
Flüchtlinge
##lehrer
Umgeben
deutschsprachige
Spenden
Alice
besetzte
Bett
Marketing
René
Güterverkehr
##spieler
##flug
USS
Senats
Fame
Propaganda
##fähigkeit
Achse
750
##line
typisch
Zentrale
##our
##name
renoviert
Blei
Reis
##min
Südlich
103
##oy
##ühle
##eister
##modell
kommenden
Julia
plante
##ona
Han
Asteroid
Vereinen
Freunden
Neuzeit
##ebene
Schnabel
offensichtlich
Kompanie
Kleidung
##sky
##zo
Faktoren
Pflicht
##town
Genehmigung
##werte
Turn
Township
Automobil
lösen
äußere
##sel
Helsinki
##grad
Roy
Rosen
Kolonien
Is
Faust
##rennen
##lia
teilt
erkannt
einzeln
Befreiung
finnischen
Inter
Haltepunkt
Konflikten
Kurfürst
Denn
Stone
Exemplaren
erzeugen
##dra
##ain
Nachwuchs
##maßnahmen
empfangen
##wski
##sbach
aufeinander
publiziert
##losigkeit
Sommerspielen
dunkel
Lothringen
Größen
Ausrüstung
##latt
sitzt
Konstanz
komplette
ad
Zell
Götter
bat
##prozess
##dauer
Verbund
Hunde
Beendigung
##ofen
Physiker
Glasgow
Louise
flachen
seitlich
gemeint
##vi
Akten
wesentlichen
Flecken
Bataillon
Senioren
gebunden
Lexikon
Hin
End
gehandelt
verzichtet
Adams
Trasse
Fähigkeit
Peru
Europe
Kurzfilm
transportiert
Wahlbezirk
Probe
##richt
Départements
Schädel
Mythologie
Leutnant
Textil
##ès
Gene
1789
1792
Fair
##con
##grund
##frei
Sockel
natürlich
Achtelfinale
französisch
Schnee
##sta
Brüdern
bedeutender
##olz
Vorname
##ive
Schließung
Ausscheiden
450
davor
besseren
Marco
HD
vergangenen
Lokomotive
jüngerer
Düsseldorfer
berief
##größe
##maschinen
##fa
Generalsekretär
Fürstentum
Zar
umfassenden
orientiert
Per
Kette
Erdbeben
Colorado
##ska
Mauern
##sson
##op
##geschwindigkeit
Projekten
Germanistik
wirtschaftlich
Thailand
Erwin
aufzunehmen
Schulden
##osa
Eintritt
erfolgreichste
zerstörte
Feier
Kommunalwahl
Ferrari
##ats
Damals
117
##hütte
Vorhaben
Na
Willy
Verkehrs
plötzlich
sozial
Institution
daß
ansässig
##pf
markiert
Kirchspiel
entschloss
Syrien
tschechischen
Ressourcen
Absatz
Stuttgarter
##platten
##yl
Gegenstände
##liga
Westseite
Acht
Autos
Schnell
ähnelt
Leib
##bäude
Faktor
Kuba
Wohnsitz
Kampagne
Mini
Johnny
halben
Herrenhaus
befestigt
Motorrad
Gran
##ücke
heran
polnischer
##plätze
Boy
grau
Behörde
Erstausstrahlung
Küche
Festland
Gemäß
##ffen
angegriffen
Janeiro
Mitgliedschaft
kirchlichen
Jane
Bildungs
Gleise
deswegen
Welle
stiegen
Aufstellung
Burgen
##hofen
##etz
Website
galten
Gehäuse
##läche
richtet
##mmen
Ehepaar
##ous
Kuppel
##jew
Jimmy
Austragung
##eitung
Austria
Siegel
beliebt
Be
Generalleutnant
Bemühungen
##ittel
##ark
##rei
gegeneinander
Mainzer
Raketen
##sport
Verwaltungs
medizinische
##sion
Orts
Entwicklungen
##ros
Gerichtsbezirk
vermehrt
##eten
Standards
Einnahmen
##istischen
District
Schienen
Latein
Jordan
##tet
Inhalte
wechseln
Bewegungen
Tatort
CSU
Vol
Schmuck
Kaserne
##systeme
verliebt
Litauen
Kindes
##ku
erhöhen
Evangelisch
Elektronen
Ausbildungs
Zeugen
Teilung
verarbeitet
Gordon
Go
Communauté
Vincent
Serbien
Board
with
Feder
Märchen
Marien
Ortsteilen
Nominierung
##biet
Stämme
gekauft
Anlehnung
unabhängige
##chutz
##phase
Aktionen
##äge
Erreichen
Stipendium
##ena
Leder
feiern
Gregor
geprägten
##iten
Böden
erwartet
##ngs
Special
##ost
Nikolai
Evangelische
Abhängigkeit
##kanal
Wittenberg
##ting
##zeiten
##ucht
reine
Seither
Gärten
##tar
114
Landschafts
Immobilien
Chemiker
Personenverkehr
Sportler
LP
##wettbewerb
unterwegs
Brot
##ves
Manga
Landesstraße
Unentschieden
##runde
präsentierte
normalerweise
Philippinen
Ermordung
UdSSR
älterer
Händler
Detroit
Baumeister
##nik
gewöhnlich
Infolge
laufenden
Pius
urkundliche
##gung
hinterließ
##č
Kapazität
Verkaufs
Do
Beute
jeweilige
Mercedes
MS
FK
##bund
##änger
##uhr
Zürcher
niedrigen
Hamm
bestritten
Hahn
Spitzen
Airport
Linden
Kulturen
niemals
eigenständigen
eben
Borussia
##eichen
keinerlei
übertrug
Siemens
kritisch
zerstörten
Junior
Fische
Charlie
##nda
spendete
##reichen
liefert
Hip
Ansiedlung
##hase
Hart
Sternen
Bischöfe
geraten
untereinander
Tageszeitung
Gastgeber
Petrus
Khan
##strecke
Abraham
flach
chemischen
##echt
##nal
sorgen
Nachricht
wählen
kennt
Flora
zurzeit
Fe
##usik
Individuen
VfL
##val
NRW
These
Mayer
Greifswald
##rf
##ator
##anstalt
Queen
Continental
Paulo
##dorfer
Fußballnationalmannschaft
befreit
Dokumentarfilm
voller
Strategie
Nutzer
##lein
Stadtteile
Meeresspiegel
Dritte
Lok
##voll
qualifiziert
fertigte
##tter
gründen
IF
Australian
Maurice
Briefe
Adels
##bs
Hochwasser
Schuss
verbessert
vertritt
Sozial
##osten
leichter
jährlichen
litt
angesichts
Dampf
Protest
Wettkampf
##ira
nahen
##bruch
##ind
einzelner
angekündigt
Direkt
Cheftrainer
Public
Finger
soweit
national
Wisconsin
zeitgleich
Wälder
NBA
Bürgerschaft
##tu
Kärnten
Erhöhung
Bande
Archäologie
überall
Insolvenz
Anwesenheit
Adelsgeschlecht
##ran
Kaffee
##isen
##richtung
Will
kanadische
Blütezeit
op
106
Passagiere
Rechtswissenschaft
Luftfahrt
##äure
Wunder
Kreuzung
##ères
anti
Mittlerweile
Hanau
Prager
Geschwister
Werbung
Siedlungs
##su
Christopher
Sei
Händen
Wähler
Wladimir
Paulus
Volumen
Verfasser
Haag
Programms
Vorteile
konzipiert
1799
com
ausgesprochen
Wenige
viermal
Billy
eigenem
##prache
malte
Diego
##acher
Theatre
Darsteller
IS
betreute
Sternbild
Staffeln
Staatlichen
Berger
##wil
beschreiben
Reederei
Auguste
Hirsch
Monarchie
Erkenntnis
Philologie
Atmosphäre
Absicht
finanziell
by
Amateur
##ecken
Duke
Dirigent
Bären
floh
verteidigte
Lokal
häufigsten
Spielbetrieb
IX
verpflichtete
Spannung
Weiße
Karosserie
Good
Rückseite
angestellt
abermals
Polizisten
VIII
Erlaubnis
Königlichen
Schlaf
Ostseite
##licher
Del
Abbildung
##karte
verwundet
Höfe
ausgeliefert
größerer
taucht
Deren
VfB
We
TU
##ührung
Philip
##ora
stirbt
abgebildet
Québec
Ur
Unterseite
Final
Diplomat
Entertainment
Vancouver
zustande
Restaurierung
Beine
1797
##ager
##gh
Gymnasiums
Florian
unabhängigen
benötigte
ausdrücklich
polnisch
Francesco
Christ
Allein
vorzeitig
vergrößert
feste
Mittelfeld
entfernten
MW
lebende
hohem
Kenntnis
Ministerpräsidenten
Bayer
Verwandten
Bewohnern
##kan
##att
SP
Handlungen
Mississippi
angewendet
gegangen
Inn
Mi
gesammelt
##ça
##dan
Kunstgeschichte
Santiago
Can
zugewiesen
Ihren
Gera
Schaffung
##rechts
Wood
Nova
jüdischer
Marcel
geschieht
Wiedervereinigung
##tan
Moschee
phil
Volkes
nationaler
##stellung
Sarah
Flur
##oni
Riga
Moore
Schwarze
sagen
beheimatet
Haute
Gleich
Kabel
##aben
Nachbarorte
Wehr
etliche
Metz
##grenze
Abteilungen
##orden
Elektro
Dave
##ić
Stifts
inhaftiert
falls
überzeugen
Reichweite
Abriss
Erwerb
annähernd
Lehr
Bestimmungen
leichten
Ltd
katholisch
anzutreffen
Abgrenzung
Verhaltens
Digital
Werkes
##endorf
Fahrrad
Klage
Projekts
German
Adresse
Rasse
bestes
Hubert
Räumen
Kindergarten
Roma
RS
produzierten
Null
unbekannten
volle
##handel
Anstieg
Luise
Freie
genauer
Clark
eingeschränkt
Out
##enbach
##kon
##artigen
Non
##körper
Kansas
##einheit
Campus
eigens
Pre
Buches
##geld
gänzlich
Jh
He
zugrunde
Atlantik
Mountains
Granit
##ía
##fahren
beauftragte
Zweifel
verkehrt
Vorfahren
Schall
Erkenntnisse
Edmund
Jedes
Länderspiel
schmalen
bürgerlichen
Frucht
gehörende
gelungen
Gegenzug
Memorial
##lus
Walther
Epoche
##alle
##ller
Metro
Auflagen
wendet
Unmittelbar
##unkt
della
erteilt
##ida
langjährigen
##punkte
hingerichtet
vereinzelt
Weiden
1795
Stettin
wissenschaftlich
Achter
Verfahrens
##ub
Aufschwung
##oden
stetig
Melbourne
##egen
gestartet
Ruth
Bayerische
##eo
Kent
##és
1300
unmöglich
Gottesdienst
CH
##ity
##pieler
Komplex
Mail
Krieger
##unst
Sultan
##nacht
##quellen
DC
Vermittlung
Women
Dick
landete
förderte
RE
Mangel
##way
Order
##iche
Gruben
ländlichen
1780
##oli
gesperrt
Fischerei
erwähnte
Hildesheim
##zel
Pflanzenart
Kalk
Ketten
Stadium
Ähnlich
wolle
entscheidend
##rath
bewertet
Range
Bundesstaaten
Lösungen
Jesuiten
Lüneburg
Meist
Finanz
Disziplinen
Moskauer
erlernte
erfolgreicher
170
##ū
Speyer
Sea
Oberflächen
##macher
Fotografie
Edinburgh
Demo
Playoffs
Gau
##ole
Wahrscheinlichkeit
dorthin
Erfinder
##isiert
##eller
Aufsteiger
notwendigen
behauptet
innehatte
News
HMS
##kette
Baudenkmäler
untersuchte
##litz
el
Head
eingesetzten
ansässigen
Lothar
Belgrad
geschaffenen
Katalog
Beat
By
selbständige
Hauptquartier
verstärkte
Universal
Bomben
##oe
gewählten
Turnieren
##nce
##fenster
Hl
geklärt
##born
ergaben
Rugby
verliert
Ei
Delegation
##ations
SD
Raub
Human
Melodie
Letztere
Pacific
Camp
Goldenen
lutherischen
Bischofsweihe
Berechnung
Invasion
##wein
Nationale
Handwerker
verabschiedet
notwendige
EG
##ufer
Rates
Liedern
Abu
sammeln
Gesellschafter
##üsse
Zoo
Kult
##als
##eri
Militärdienst
Porto
##pitze
deutliche
Stadtmauer
ethnischen
Eichen
Prototyp
Wahrnehmung
AB
Iwan
Dichte
##schichte
##ile
OS
Bart
wider
vermittelt
##ral
##ero
Zentrums
##eiter
Grau
veränderte
ungewöhnlich
Technische
Angriffs
Relief
Holding
Ems
##ampf
absolviert
Ehrenmitglied
identifiziert
##itt
Gotha
##fels
zuständigen
##manns
Microsoft
Südkorea
Vorstandsmitglied
Kiew
##tau
Biologie
Forest
größter
vorn
zurückkehren
Lern
Ruinen
113
##lung
Porsche
schoss
##kes
##dia
aufgelistet
Palästina
Breisgau
Weihbischof
unverändert
##wertung
Öffnung
Mönchengladbach
uraufgeführt
Maine
##use
Feldzug
##era
Lausanne
##istische
dauert
Mörder
Comics
1796
##ru
Four
verschoben
kontinuierlich
##ú
RTL
Stoffe
Jo
Anderson
trainierte
Realität
Sizilien
kanadischer
##ão
##ance
Bäumen
##ova
heiraten
##din
Sat
fein
##rus
Nutzen
Gefecht
liefern
Schmid
Indiana
Höchstgeschwindigkeit
Bewertung
Nordsee
Meeres
Apostel
Maschinenbau
##ada
Dublin
Mönche
Vers
einfacher
Posen
Giebel
Listen
Château
Christine
Hongkong
Inschriften
mehrheitlich
ändern
Darauf
Steuerung
wonach
Phänomen
Heinrichs
Schwaben
##kte
gesellschaftliche
Standorten
Schiller
Story
ungarische
reinen
Entsprechend
AD
Konstantinopel
schlägt
Künstlers
DIN
##rischen
Bukarest
vorherigen
Conference
HK
Kilogramm
Hoch
Au
##basis
Übersetzer
Guy
saniert
Bundesautobahn
literarische
Emma
Sendungen
##ultur
tiefen
Tennessee
Vorort
generell
4000
##säure
Laubblätter
##version
Jahrhunderten
Copa
##har
gebaute
Gestapo
##ausbildung
preußischer
fertig
Minderheit
A1
Kulturdenkmäler
Schiedsrichter
##chiff
Künstlerin
obersten
gemeldet
erwerben
derer
Synthese
Baby
##rig
Sakristei
220
Stadtzentrum
Rue
AT
##bogen
fuhren
Car
gebauten
Punk
Politikerin
Aktiengesellschaft
##cia
Leber
Gesangs
Technology
Goldene
Gründungsmitglied
##club
##sin
Opera
Normandie
Verfilmung
Pfeiler
Trans
Systemen
##hal
##eich
##rio
Magazine
Länderspiele
Tests
Organ
BSG
##paar
ü
Soul
regelmäßige
Olympische
Damm
absolute
Aufzeichnungen
unterstand
bekamen
##uen
mexikanischen
interessiert
Lincoln
Brenn
3D
Europameister
##ella
Meilen
abgesehen
Kulturgüter
erlaubte
Uwe
SM
Giuseppe
islamischen
##chel
Folgejahr
##ahr
Abbruch
Sage
Perspektive
##heimer
1791
Käfer
Gewölbe
Elite
Erhalt
Ära
##iere
Konzerten
Kenntnisse
behaart
Beschäftigung
Robin
##mel
CS
##platte
Regelungen
Lübecker
Denkmalliste
Anlässlich
auftrat
Bakterien
interpretiert
Pedal
##fahrer
##ieg
##älle
mitunter
Videos
Bond
me
##oss
##aut
abgesetzt
##rsdorf
Press
##ches
Beispielsweise
Ablehnung
Antarctic
##verbindung
westlicher
Brett
1750
IP
##anz
Liverpool
1784
brasilianischen
Gerd
dieselbe
Minen
Lloyd
Dienstleistungen
Titeln
##maschine
Kreisen
Chi
##fach
##ball
Tar
Niederlagen
##aison
äußersten
Gras
genauso
Bug
Amerikanischen
Reformen
##tra
##typen
Arme
École
Wander
benachbarte
Turner
##ding
##yo
Motto
Zeichner
Übersicht
Anbieter
entwässert
Ermittlungen
Schatz
Moll
##lte
Leichen
wichtiges
sitzen
Naturpark
Staatsanwaltschaft
Erscheinen
neunten
Langen
zentral
##rau
##rot
meint
Professoren
Airlines
Merkmal
##tier
##san
Himmels
##meter
##mont
konservativen
Worte
historischer
Philosophen
Namensgeber
Ala
##amen
##entwicklung
Vertretung
Disney
##reform
schenkte
falsch
Bein
Standorte
erheblichen
Bevor
betroffenen
##reiche
Gramm
barocke
Balken
voran
Konzentration
Türken
Zucht
Student
Acker
1400
Mediziner
Theorien
##keiten
Philippe
Norbert
Ausnahmen
zurückkehrte
gliedert
Sprach
Hohe
verschwunden
CA
schickte
Connecticut
benutzte
irischen
Mu
Pont
Iowa
aufnahm
wahrgenommen
Zahn
Ed
##ute
##ass
Syndrom
Spanier
Kanonen
##kehr
Stade
##pass
mittel
Vorschriften
städtische
passiert
Viktor
##du
verkörperte
Gewerkschaft
ausländischen
##ese
Steinen
Kriege
##karten
etabliert
Kranken
##schicht
negativ
Obersten
Kongo
Katholischen
Chief
##ă
##ode
SE
Partnerschaft
Sainte
##urt
##ning
Mine
##idae
##rolle
##ult
Kalender
##ix
Down
Hinblick
Café
Techniken
Ann
##ätzen
Audio
Vorder
Bruce
Cottbus
römischer
Ma
##ister
##och
Axel
Wohnhäuser
Bebauung
Auftreten
##gewicht
Deck
wachsenden
Salon
Häftlinge
##vereins
Betriebs
##ote
absolvieren
Department
berechnet
Mer
Türen
##nken
kehrt
Stammes
##örper
##mark
niederländischer
Lagen
División
##gy
Leon
Verpflichtung
Militärs
##dung
Dreh
Obst
bedeutendste
Nest
Körpers
##wer
doppelt
Nummern
negative
##ney
##hu
Ursachen
Getriebe
schwedischer
Agnes
##ö
##verbandes
##figur
organisierten
hessischen
erhob
Friedhofs
Maximilians
Held
Donald
##rücken
breiter
Stammspieler
Kamm
berühmte
Handeln
Mrd
etablieren
Inszenierung
##ont
Bekämpfung
Ph
verweist
Jon
##rien
Arizona
richtig
##ş
fortgesetzt
Königlich
##ott
##schrift
Olympiasieger
schnellen
vorkommen
Ausstrahlung
UK
Performance
Nicolas
live
aufs
fordert
Morgan
Legislaturperiode
Schiffes
Riesen
Angel
angewiesen
japanischer
Hell
##ary
##van
entscheidende
zurückgezogen
durchquert
Ferien
##hoff
Operationen
Eintracht
##ücken
##firma
Franklin
##shire
Renovierung
Stall
eingewechselt
Social
Luftlinie
erbte
Ebenen
Sierra
Nachbarschaft
gerettet
Eck
Nelson
Russen
Haushalt
Bauzeit
Uruguay
Java
Dorfkirche
##ildung
##ache
##menge
vorgeschlagen
Ansichten
##ysteme
Bürgern
##gewächse
verglichen
Spannungen
starker
Vertrieb
Wäldern
Gefahren
begab
Uran
regelmäßigen
Abfahrt
Vielfalt
Realschule
Trainings
Fokus
Modellen
##landschaft
Kunstakademie
Hauptstraße
Bilanz
Tower
Nachkriegszeit
Früher
Benutzer
Teilnehmern
warf
Geistlicher
##ängen
Fächer
zeitweilig
Popularität
Einweihung
Apple
##zene
Laura
##low
schnelle
deutsches
Porträts
Kämpfer
Fern
Angreifer
Angabe
##tur
Zusammenbruch
##geräte
##sha
Söhnen
##licht
Gattin
juristischen
wahren
##ried
verbreiteten
##rkt
communes
Schäfer
Fire
Captain
Anklage
leichte
Sara
Leonhard
##bal
jenseits
Margaret
Teilchen
aufbewahrt
1785
Ki
##iga
Begegnungen
zugesprochen
Abschnitte
##cks
Konstantin
Off
##ammlung
befreien
Harris
gesendet
Kevin
Fernsehserien
##α
glaubt
dominiert
Decken
Volleyball
Möglicherweise
Torhüter
##mes
verfolgte
trennte
kleinste
Edgar
##ram
##nburg
Departamento
Sub
enger
Grundstein
Ansehen
Vorgehen
Staatssekretär
Ansbach
Kaufmanns
Pi
Pause
Bauweise
half
Staatsbürgerschaft
freiwillig
Notwendigkeit
Kriegsgefangenschaft
##lu
Unterarten
##gelände
Westlich
elektronische
Caspar
Ice
##my
Plateau
Pazifik
Sprachraum
Hütten
Cruz
überlassen
##oi
##mie
hinzugefügt
Pokalsieger
Gemüse
Schwarzwald
Lob
entscheidenden
Zelle
ziemlich
##ppe
Krankheiten
##hart
Chronik
Afghanistan
Datenbank
Eingemeindung
##usch
##twicklung
Mountain
##bauten
Normen
Municipio
Gräber
Denis
##ui
Kandidatur
Hallen
rumänischen
meinte
scharf
Basilika
Bodensee
1770
##mund
##illa
Umland
Profil
Schein
Wohl
Gelb
Konkurrenten
Benannt
Truppe
Färbung
kommunistischen
##ama
##ters
Kritiken
geschlossene
Tausch
Rache
Wiederherstellung
Generals
1787
hell
##lm
zeitgenössische
Gerichtsbarkeit
Worms
##achse
amtierte
##trag
##folge
##turnier
##gabe
nachweisen
Uhrzeigersinn
##enen
Südtirol
Schuppen
Coburg
##mauer
eiförmig
Magnus
Gitarren
Atlanta
Informatik
Diesel
ORF
##station
Stewart
Filter
Antonius
##arm
festgenommen
Rotterdam
##tri
belegten
Philosoph
##zu
##una
Antwerpen
Überlegungen
Wolff
##ommen
juristische
Rassen
Est
Bo
##ceae
360
Urban
Shanghai
Solar
Pianist
Of
##tions
Abstimmung
Freiwilligen
##ckt
Denken
Wandel
Taiwan
Ansprüche
gefahren
erobert
bittet
Sächsischen
Ganz
Stausee
##armee
tropischen
Weiss
Logo
Dynamo
##opf
produzieren
kirchliche
Countys
Kronen
Wassers
Ecken
Krakau
##fs
Nachbarn
moderner
kommend
Monument
Place
##einheiten
Holocaust
##gne
Apsis
Global
stürzte
##а
nachweisbar
Broadway
##iter
Miami
konzentriert
Konflikte
##fel
AL
Wissens
Christentum
nutzten
Rapper
Prä
gültigen
Trauer
##dor
te
Verfassungs
##row
Neo
Erik
Hills
Solche
Universitäts
Uni
Neumann
Aufwand
Area
##länder
eventuell
Matt
##ori
rechtlichen
Fantasy
Andererseits
##vin
Tote
nordöstlichen
Störungen
Österreichische
Bio
Türme
Zähne
nördlicher
Ad
Ursula
Bundesland
##iner
Politisch
hohes
Clara
Theo
befahren
Einladung
poem
Kennedy
genügend
Hubschrauber
Fernsehsender
na
Grunde
Amtsbezirk
Zwerg
Kapellen
Sur
endgültige
Sitzung
##ars
Wertung
##ial
Pit
Komitee
Boris
übliche
##orte
##bad
archäologische
Dokument
Erfindung
letztendlich
Stadtverwaltung
bar
Rückspiel
vormals
##lied
betragen
Parlamentswahlen
orthodoxen
Railroad
Spring
Bel
##zeitung
ausländische
##now
Claus
prägte
erschienene
Schulzeit
Tabak
Hochaltar
##elli
vollkommen
Zeichnung
##more
##hafen
Ländereien
siedelte
warum
Pakistan
Sparkasse
veranlasste
Östlich
ordnete
##verbände
überzeugt
Ohr
Zügen
Baus
##hs
Southern
Beobachtung
Berner
Australia
elektronischen
Arbeitsgemeinschaft
zueinander
Informations
israelischen
##uten
Wirken
Kommissar
seltene
Schwerpunkte
Empfänger
##vor
Wände
Mais
##sy
Grant
Senior
Match
Erfolgs
Braut
Bassist
##kern
Malers
##artig
##SA
##versorgung
Liechtenstein
Tabellen
Landesliga
Jens
Elf
Or
Hartmann
Phil
umgestaltet
Immer
Beschäftigten
Ju
Zurück
Wettbewerbe
Kirchengebäude
gestiftet
##ela
Reichsbahn
Betreuung
neueren
##ž
##det
eröffneten
Bayreuth
zumal
Benennung
derart
##händler
veröffentlichen
südwestlichen
Wahlkampf
Nebel
solches
##pur
Verlegung
Aufgebot
##itel
Pfarrhaus
Erstbeschreibung
1786
##rahmen
Altenburg
##ront
ex
Knie
Kings
Platin
CE
Handwerk
##muster
##aner
##sellschaft
##lau
##cho
Erkrankungen
onlyinclude
Drachen
fern
Skulptur
##ieb
Slalom
Russell
greift
Bedrohung
Protein
Gross
Shin
Turms
Light
Produkten
##ois
Gerichtshof
württembergischen
abgetragen
Bahnen
Kaiserreich
Gegenüber
Decke
Bologna
niedriger
Wurzel
zunehmenden
Busse
##ichtung
Italiens
##dale
Germania
##tellen
##chau
Hawaii
Lebensweise
genehmigt
Renault
##olo
südöstlichen
Flensburg
Stücken
fliegen
Lukas
##rm
bemühte
Volkspartei
##farben
heilige
1788
positiven
Auschwitz
##gar
##ath
verlangt
Platzierungen
Feind
Bearbeitung
##ndi
Innern
##uppe
name
Bismarck
##jäger
Lea
Estland
BR
Effekte
DE
Wieder
Gotteshaus
begangen
Pol
Elsass
Kaiserin
Budget
##aktion
informiert
Arbeitnehmer
tiefe
Boots
DA
Moderator
##tze
Turniere
Tank
Pole
Kanzlei
##lon
Graham
darstellte
Nationalrat
Sommerspiele
Astronomen
verziert
goldene
blauen
Rebellen
Ni
Mosel
Mast
Klöster
demokratischen
##systems
Kiefer
Ausgang
##mme
Forschungs
Mönch
Dark
##verteilung
ukrainischen
Oberstleutnant
##iff
Spektrum
Soundtrack
Meißen
##ruck
##tedt
Korn
Reaktionen
##eder
erstellte
Pseudo
Hessischen
##ika
Tiroler
##iste
ausgelöst
##dar
Julian
Protagonisten
##kos
Regierungszeit
Rittergut
Matrix
demselben
Puerto
NN
Steuern
Russlands
Verdacht
##alt
mithilfe
Engländer
Kentucky
Landstraße
erhöhten
##nin
Folk
Ernährung
Charaktere
ISO
Ausländer
Wol
Steinbruch
Canada
##én
zugehörigen
Lawrence
Bundestagswahl
vorbereitet
##erz
Reifen
##ufe
Vietnam
Aktivität
Berücksichtigung
Frederick
##verbot
schien
Antoine
##zy
Kairo
umgekehrt
regional
Level
Büros
Ari
##enz
Peri
EN
Kastell
las
Agrar
##uren
vollendet
Wörter
Marseille
Orleans
Neuer
Sofia
##esi
##asser
Klubs
Virus
Verhältnissen
Wahlperiode
Ca
Kalkstein
##pin
Seelen
Office
##lügel
Schulter
Bois
Geschlechter
##bedingungen
##ater
Landschaften
Messer
Laser
erwähnten
Stuhl
##alter
240
##ssa
Zypern
Unruhen
##ico
##ruch
##dem
NFL
off
Rauch
Prediger
##ν
Logik
Larven
geschaffene
Englischen
lateinische
aufzubauen
Water
Rats
trainiert
sorgt
Richtungen
Erwachsenen
vergeblich
1783
Action
Job
Bestände
Tu
Singapur
##inseln
Ä
post
Challenger
2020
##ämter
kritische
Sportverein
##sie
##schaften
verlaufenden
IUCN
Rinder
inszenierte
Lyrik
nad
Versorgungs
Werkzeug
Balkan
grundlegende
##ński
##nu
mechanische
örtliche
Malta
##sburg
##lock
History
Emanuel
abgeschafft
Ballett
##tas
Instanz
Abfluss
##iedlung
Tai
Lucas
Prinzipien
Fußballverein
Commonwealth
##zustand
Ereignissen
##MA
Ausgleich
##ws
diejenigen
gesungen
Tempo
startet
erweiterten
nordwestlichen
Schröder
Niedergang
Gliederung
##kum
verbundene
Katzen
Habilitation
Stollen
Neffe
##nan
Vorträge
Operations
Beobachtungen
variiert
selbständig
or
Dagegen
##achen
Umwandlung
MA
Folgejahren
Base
zitiert
##kas
##eter
Statthalter
Lisa
erwiesen
##pielen
schriftlich
Wu
Kirchturm
##verhältnis
Bosnien
gebraucht
Havel
Riesenslalom
Fu
Allee
sterben
Mantel
##hon
##meisterschaft
Schweizerischen
##anteil
##auen
Laufzeit
anschließende
Ernte
Tee
Massen
##isches
##gebiete
spezialisierte
##ima
Magister
Substanz
Marokko
##mitglied
##projekt
Laien
Bürgermeisters
Bush
##welle
##dien
Genres
australische
Persönlichkeit
Nordischen
Verwaltungsgemeinschaft
##zentren
Leiche
Achsen
Ähnlichkeit
sportlichen
##pi
Landeshauptstadt
##nat
Zink
avancierte
Gitarristen
herangezogen
beeinflussen
##verbindungen
##ár
Unterfamilie
##rke
Ban
##hus
Menschenrechte
wiederhergestellt
Ole
Caroline
Chu
##therapie
Ionen
praktische
Minden
##hy
##rre
Emeritierung
Flugzeugen
Fassaden
Erd
Kaiserslautern
Bergwerk
##angen
überquert
leer
Erzähler
Läufer
Designer
Alois
##mpf
Kommunistischen
angetrieben
Boys
##dit
behauptete
besiegt
gefordert
##scha
zweit
Magdalena
Ir
ordentlicher
Schützen
Bedingung
##rische
WDR
Bestehen
##karriere
Beachtung
Vieh
Mitkonsekratoren
süd
Seil
Alpes
un
gedruckt
##änden
##verhalten
philosophischen
beginnend
##yr
massiven
betrachten
Erdöl
Einnahme
eroberte
verlieren
##qui
##cum
Metropolitan
##gramm
zunehmende
Stan
ägyptischen
Haltestelle
basierte
##rsch
Alb
einbezogen
Pan
erzielten
Diensten
##rbeiten
bestimmter
Rhône
Biathlon
##teilung
##afen
ihrerseits
Erneuerung
studiert
Piano
Grüne
Hunger
Beobachter
Andy
##vel
Si
Bauart
Oberlauf
Gilbert
##ib
##car
versteckt
##serie
Laden
starten
Aufsicht
##iz
##laden
mitten
Wo
Bremerhaven
normale
gotischen
Kolumbien
Markgrafen
Independent
##ais
Bahnsteig
Aufsehen
##tage
Fresken
Berges
übersiedelte
gelöst
Rechten
##nas
Over
Linke
Frey
##orum
µm
##wi
Pilz
Masters
##iro
unterhalten
Paare
Naturwissenschaften
Kanzler
##iegen
stärksten
##eau
Bewusstsein
tat
Kommunisten
afrikanischen
Entwickler
Debatte
##zin
As
Modern
IG
Tiefen
grüne
Walker
Mar
##ė
Ville
Springer
##ex
##ame
Oberseite
##ndung
genutzten
Schönheit
##tzer
Run
staatlich
Übersetzungen
##richter
SR
endgültigen
##lassen
nachträglich
südlicher
Aussterben
Lig
##rogramm
schen
stattfindet
gesetzlichen
Hat
Auftritten
Darm
Großstadt
gewinnt
Demokraten
trennt
verschieden
Angebote
gelangten
Repertoire
Befehlshaber
Maryland
##figuren
Traditionen
Sumpf
Satteldach
Blättern
Arbeits
##ju
Griechen
vollständigen
Mittelalters
lernen
Bindung
Lichtenberg
Nordafrika
##zimmer
Resultat
Europapokal
Wiederwahl
rechtliche
Bomber
Franco
entfernte
Wissenschafts
##lächen
angeführt
Evans
Früh
Musikvideo
entkommen
Rechnung
Anbindung
primär
kostete
Wüste
Set
Diskussionen
1775
Blüte
Minderheiten
Johan
from
Apostolischen
Lahn
Indonesien
##ragen
stimmte
##tone
Einteilung
Agent
Schweine
Schmiede
Gehirn
AV
##kademie
vorkommt
Besuchern
TH
inmitten
Begriffs
##fassung
zahlen
antike
##etzung
halbes
##chter
Umlauf
Durchschnittseinkommen
##ohn
##nds
##inden
Überblick
up
Coast
teilen
abseits
Kreuzes
##yi
Sud
Jr
Empire
Heft
Passau
Rosenberg
Exemplar
##lde
einstigen
Begleitung
verstorben
1772
##artige
vernichtet
benutzen
Roh
##tive
Hauptrunde
##trom
Palm
Girl
Teilweise
##rode
Stadtteils
##kunde
deutet
##ele
Charlottenburg
Track
Passagier
Erstellung
BM
##arte
Nu
Zentral
Parker
##gericht
##ati
Möbel
Nigeria
wofür
XII
Kantone
##ösen
Fertigung
##schiff
Tiger
Houston
gebe
Tagebuch
festgehalten
##lot
Einbau
Re
Neun
##sst
Anstalt
populär
Geistes
Helene
sechste
Sant
Kommunikations
Abzug
##bu
zufällig
Stuart
For
Polens
Nieder
Cooper
Aufführungen
##lien
Chan
Bevölkerungszahl
Valentin
Dichtung
Ja
##partner
##worth
hölzerne
Mur
niemand
dunklen
durchzuführen
Offensive
linker
##fi
##anten
Kelly
Ba
Bundesländern
Boxer
##uz
##luss
Samstag
FIFA
##ystems
##vogel
ermitteln
##ban
Korea
beachten
##ügel
##rben
Zyklus
AM
vorgeworfen
aufgeben
##ita
##wiesen
durchgesetzt
Messung
Kant
Avenue
Aufträge
##rz
Legion
230
SO
Mari
Carter
Ch
Eisenbahnstrecke
Regierungs
CF
Maus
Planck
##gehalt
lokal
anstatt
einzig
Zuordnung
Sa
runden
Pädagogik
durchgehend
deportiert
##wan
##ado
##ș
##äufer
Streitigkeiten
##kau
Jonathan
dahinter
To
zehnten
europäischer
Gitter
Begleiter
##hrer
##е
Second
##lers
Denkmalpflege
AR
Nationalspieler
Pauli
Ralph
herrscht
Wahrscheinlich
##ester
Wahlgang
##oten
türkischer
Verträge
vorrangig
Schalt
Alles
Ringer
Ortsnamen
Übergangs
brannte
TA
##teuer
##por
oberste
Ortskern
Mindest
Westküste
Vorgang
weichen
Hirn
silbernen
Mir
Stralsund
nord
##gl
Quartett
dünn
Your
Ryan
Wenig
Genua
##lasse
montiert
##sz
Sind
##its
Schwimm
Sammler
Ernest
##einrichtungen
lateinisch
freigegeben
königlich
##gie
Landung
##hain
direkter
Feste
Schreib
Engagements
##hauses
Konkurs
##haltung
Orientierung
Wettbewerben
UCI
vermitteln
ragt
Lebzeiten
Gewässern
reiche
Spanisch
Klosterkirche
bayerische
abgetrennt
Volker
##wen
analog
Ron
archäologischen
schriftliche
gewertet
##arkt
gerichtet
Jeff
besuchten
Volks
Juristen
Franziskaner
Weide
Reparatur
##dichte
Ehre
##krise
Sitzen
##meinschaft
##lei
Synonym
##nga
Stimmung
Überwachung
Schulz
Dorothea
##amm
gestalten
geführten
Statuen
##hrt
1776
gerechnet
ausschied
Places
Eich
Französische
romanischen
Quartier
Ata
##organisationen
königliche
barocken
1782
ma
wohnt
Lehrerin
Fernsehfilm
##isi
romanische
##abe
Hitlers
Double
Mozart
AN
##mon
Quer
Wiederaufstieg
wechselten
##xa
##ziel
##lten
##ften
##ques
Ter
be
Umstand
##ichter
zeitlich
Low
Comedy
Verbraucher
Bolivien
Kalten
Gelehrten
vermuten
Canadian
Delta
ernähren
##ali
Ku
MC
##ght
Maul
weitergeführt
individuelle
einsetzte
RA
Heil
Klassenerhalt
AP
##fahrzeug
##ato
gelben
abgekürzt
Raymond
Hauptdarsteller
Automobilen
##euer
##let
##ktion
Homo
##ormen
##förmige
Abwesenheit
berichten
##wege
##hard
##fte
unserer
Verschiedene
Raupen
##verordnung
misst
Oberbefehlshaber
Kontroll
Stifter
offs
kurzfristig
##struktur
Louisiana
wohnten
Publikation
verwickelt
Restaurants
erlangen
Liebes
Entwürfe
Elb
kommunalen
Geometrie
Pensionierung
Lima
Interviews
Boeing
##sam
Lade
##igung
kritischen
schräg
Sicherheits
Limburg
Ausschusses
Witt
Linux
rechter
Nerven
moderierte
Preisträger
Veranstalter
##utz
CV
nannten
Col
theologischen
Detail
anerkannte
fehlenden
Bienen
gestrichen
bewarb
Freitag
Challenge
Fachhochschule
stiftete
##ila
Modernisierung
##allen
Rückstand
Dam
##ther
Kate
Privat
##org
Silver
verbracht
seltenen
sportliche
formal
##alis
Kurve
regierte
Talsperre
Schlangen
interessierte
Spree
Instrumenten
##piele
1777
Ohren
repräsentiert
##eisen
Werbe
Augsburger
erlassen
##zeichnung
##stil
gewährleisten
Heimspiele
Contest
##leistungen
Weltrangliste
untersuchen
Vertrauen
Orange
Börse
Transfer
Salvador
Development
##house
angeklagt
Mare
Sorten
Pension
##lf
gewährt
SI
Ethik
Industrialisierung
##ätte
Republikaner
Logistik
##shausen
##nta
##ante
Madonna
hart
Unterrichts
Lie
Autors
##bergs
Autonomie
Konfession
Finanzen
Austin
Konsul
angefertigt
Koordinaten
##chsen
Engineering
##wort
Fernando
##ndo
Mess
Bull
Billboard
Santo
##brunnen
Lac
##dis
Alabama
trennen
Rechtsprechung
Morris
Aussicht
Adolph
öffnen
wiedergewählt
##TA
##pflanzen
Vorarlberg
Bisher
##ilm
##rde
Algerien
VEB
fehlende
Nor
Moon
beruflichen
Atom
höchst
Zentren
MP
gestanden
Breiten
Beratung
Maßnahme
##tzt
Marshall
Treppe
Regisseurs
unterzeichnet
Hexen
Gutachten
Fi
##truktur
Roche
Regierungen
intensive
Stiel
Rap
##qualität
enden
Triumph
##rock
erbauten
Verarbeitung
liberalen
gelblich
Gary
##pp
verlaufende
siedelten
Weltrekord
Japaner
Bundesministerium
Unterart
Mc
gotische
steil
##ill
Marktplatz
Eisenach
scheiterten
deuten
Alaska
Tochtergesellschaft
Halt
##glas
Uhren
##lz
##hardt
scheinen
##zell
ne
Kurse
Lech
Erinnerungen
Baker
##gio
##air
teilgenommen
reguläre
tausend
gewährleistet
Oregon
##pflicht
Gottlieb
Selbstmord
##nkt
Gemeinschafts
Abschied
##management
##ndet
scheinbar
##bauer
Ti
dick
Gelegentlich
kürzer
glatt
Statt
Slowenien
Zagreb
Survey
fusionierte
Spar
inspiriert
Herstellers
Pfarre
herzustellen
Zwangs
Northern
Italiener
Stapel
Sri
Ce
Vertreibung
Demnach
Vogt
Sinfonie
PA
##waltung
##das
##cio
Fang
Auswertung
Burgund
Tante
Segment
Guts
schlechter
Mega
Asyl
zuständige
##eien
Franchise
Forstwirtschaft
angelegten
Yu
drohte
angelegte
Stängel
Rückgang
Niederlassung
schlagen
Stadtbahn
##strom
anfänglich
Privatdozent
650
##00
privat
Gerade
Räumlichkeiten
Offenbach
1760
##assen
Schaffen
Weiterbildung
widmet
Dekanat
verfolgen
##win
##schlag
Gewerkschaften
Übergabe
Weltraum
gefasst
##nach
Medium
##ugh
Kriegsdienst
Ian
##motor
Glockenturm
erweitern
Dallas
Krim
wachsende
mein
Tele
Katholische
##fragen
herausragende
##ohr
Westfälischen
Oswald
übrig
vereint
Vermögens
##eid
##fahrten
flog
Wichtige
##uri
Kapitulation
Geologie
geeigneten
Multi
Gärtner
##ierungs
Wintersemester
Besondere
Proben
Neffen
Innen
Rade
Vergabe
##å
Gewebe
Belle
Zwölf
RB
Stirn
Crew
##behörde
diplomatischen
1100
##boden
verheiratete
Kurze
Aufsatz
##wall
falsche
##nna
Kirchenbau
##ede
##produkte
Farb
Dre
unbedingt
##unktion
Schiefer
Anker
135
##truppen
gezielt
Fehlen
Kirchenschiff
Jay
##feuer
Elektronik
Electric
Baseball
##äumen
Schallplatten
Millimetern
Thompson
technischer
Kosovo
Heu
Wang
Referenz
##ieger
##räumen
online
besonderes
1778
Dirk
##ativ
wörtlich
Massaker
Fahr
Pilger
Echo
Joan
Nau
##rl
Elster
DR
Baudenkmal
Pietro
Heilig
dunkle
Lars
Yo
Schwer
Eddie
Book
Schwan
Aspekt
via
schrittweise
Studies
Shi
Kreisstraße
##ret
erringen
Spanischen
Berkeley
eingebunden
##anbau
einander
behaupten
Nachkriegs
Administration
Agenten
Zeilen
##maß
XI
Gesellschafts
kombiniert
Agentur
##wirkung
##kus
Bordeaux
##bilder
beibehalten
letztere
##walde
schmale
Cousin
Bänden
Let
bemerkt
gesucht
Norman
##eins
gesagt
Malaysia
aufrecht
Batterie
initiierte
weitestgehend
Brooklyn
Bekannte
Bunker
##sar
he
emigrierte
Miguel
##gerät
##eide
westfälischen
Vereinbarung
verehrt
Anpassung
olympischen
MB
Kommunen
Protokoll
Campbell
Alternativ
##kov
Oberschule
##lands
##sgesetz
zweigt
God
Sogn
Rob
##offizier
beschäftigen
DG
##listen
##dern
Datei
Augusta
betrifft
1763
Umgestaltung
entscheidet
Hauptwerk
Filiale
##num
##igur
zweitgrößte
ehemaliges
digitalen
##pol
Gesundheits
##rom
niedersächsischen
ES
sozialistischen
Gedächtnis
gesundheitlichen
Journalistin
##sverfahren
Denk
##arbeiter
fasste
MG
Aue
##xi
öffentlicher
Engels
grob
Parameter
ausgeliehen
##ühl
Mittleren
wahre
Freiwillige
##rna
flache
Thriller
stattfindenden
Schuh
Fotograf
##etrieb
Neuordnung
Historischen
benötigten
Os
Ansätze
##waren
ost
Sonnen
##osen
stattgefunden
längste
Islands
##neu
einheimischen
##eus
Sal
Richtlinie
##uli
angewandt
bricht
Network
Voll
Menschheit
verdient
eingeleitet
##ube
Ruder
Nahe
Gouverneurs
Slam
weltweiten
##gent
Rekonstruktion
derartige
Vorgaben
##risch
treu
Allgemein
verzichten
langjährige
Nationalparks
##ax
Zimmermann
##dal
extra
Muslime
1740
##ahren
ähnlicher
Fonds
Käse
Labour
Ensembles
Käufer
2000er
1774
Schriftstellers
Augustus
jenen
Herzen
Empore
betriebene
Magen
Stadtgemeinde
##deutschen
renommierten
Gottesdienste
Saarland
Bonner
Belastung
Münchener
sche
Österreicher
Ortsgemeinde
Gift
Aserbaidschan
Shu
Cape
anzunehmen
Wochenende
betonte
behalten
Stuck
Semester
Command
Betrachtung
herrschte
betraut
Tibet
Oberhausen
##roduktion
NE
Petra
MTV
alliierten
Dessau
Rückrunde
Spezial
##ungs
digitale
##icherheit
##alten
geschehen
Koe
Demokratische
Betten
befreundet
Pod
Erscheinungsbild
Erwartungen
Diktatur
Glen
ibn
##korps
Kle
stellvertretenden
ausgegangen
aufgegriffen
Karibik
genutzte
Spitznamen
verhältnismäßig
thematisiert
Unterbrechung
Höchst
##höhle
Normal
Hy
Abfall
##siedlung
##til
##ü
##ský
##prinzip
ständigen
Cleveland
forderten
Venezuela
Grundsatz
##öfen
##iers
vollzogen
Anhängern
##flügel
##eine
verschwand
angebunden
Vi
##szeit
##oll
Salt
Rallye
Freistil
Born
heutiger
Zonen
Trinkwasser
Sätzen
Schul
Hochschul
überarbeitet
kinderlos
Umbauten
Lohn
Baptist
Unterlagen
Ingolstadt
ausgespielt
Frühling
Diagnose
##wellen
U20
Tief
geführte
Untergang
##gte
##fisch
Klassiker
Berlins
Zahlung
Su
Inbetriebnahme
Kameramann
##ener
Börsen
##inie
übersetzte
Valle
Schreiber
SL
Betrag
Manhattan
Caesar
komponiert
protestantischen
FM
Vegetation
Konvent
Fuße
praktischen
Professorin
Häfen
Herausgabe
Taschen
fungiert
Brothers
Bowl
Kristall
Mo
##stätte
beschriebenen
Field
selbständigen
erwarten
Verhaftung
sowjetischer
Nazi
##tig
gerät
Sattel
Container
norwegische
Duell
Winterthur
Vorwurf
erteilte
Casa
Clan
##chse
schafft
##last
Lambert
erkrankte
Russisch
Müll
Gründungs
##nlagen
Gemahlin
folgendermaßen
##irektor
##ias
Reit
Meta
Nil
Barry
Reinhold
Dimension
Verbandsgemeinde
##sko
Fürth
##stischen
##ingenieur
##transport
runde
1773
Segel
Enden
zivilen
belgische
##marke
Umstände
Rhythmus
Mixed
Lehm
Angestellten
Flüssen
internationales
##nehmen
##ct
##becken
verlangte
Fett
ST
Ha
Konsum
Robinson
Munition
##gon
verknüpft
Göttin
##versammlung
##enburg
Alltag
Sim
Ronald
##head
##affen
Werden
geheiratet
Systematik
##halt
verfügten
hinauf
Gehalt
Armut
unmittelbaren
Sportarten
Grafiker
nachts
kostenlos
widmen
##tia
##nka
Botaniker
angegliedert
Fracht
wechselnden
Maha
Brut
inner
bauten
XVI
Wy
Warner
Schlachten
Territorien
Staatsstraße
Klagenfurt
Anliegen
kaufen
Gros
erheben
List
Are
Kaplan
BB
Vila
grundlegend
Dream
##ces
Matthäus
Bibliotheken
##hlen
Organe
Fahrten
##brand
Noten
Lust
GB
##analyse
Swiss
zeichnen
Widerstands
Konzentrationslager
##yu
Produktions
rechtzeitig
##zig
##bra
Warschauer
zwang
inter
Zugriff
##geber
Indian
drittes
Ivan
komplexen
heimlich
Konvention
Anschlag
##out
ur
entstammt
1781
Hu
Gesamtfläche
Leinwand
Wolfs
Vulkan
Treibstoff
Vierer
reagiert
Herman
##etten
##über
Pa
##orschung
Martha
offener
##stische
Bezirke
berühmt
Wayne
Außen
##freiheit
Quadrat
FF
Cole
Bir
##fuß
##fu
Terror
##versuch
legten
Mut
Längen
##cz
ändert
verwechseln
engeren
March
Ziegen
Sekunde
##uck
umfassend
Trocken
anerkannten
Gil
Kredit
Ried
unterhielt
Motorsport
Ana
Taunus
Arno
##sau
IN
##temperatur
##ente
Wachs
Humor
Gedenk
professionelle
Kre
##räger
##reuz
unterstützten
schlechte
verändern
Rain
Murray
Kies
##förmigen
Republikanischen
Theologen
abwechselnd
portugiesische
Luigi
##üter
halbe
ME
Wasserstoff
Kanals
hervorgegangen
elektrisch
##zan
Prosa
Jason
Auslands
Staatsbürger
Nancy
Rein
Fortschritt
##ners
berufliche
Marianne
Hub
Ara
##rr
##ington
späterer
Biel
schmal
konkrete
##uth
Homburg
##lug
Wenzel
Folgenden
reduzieren
Verwandtschaft
Tommy
Services
Jonas
auftritt
trockenen
##jährige
Filmregisseur
Ve
Säule
Abschaffung
einheitliche
Richtlinien
Englische
Bas
Kelch
Einwanderer
##waffen
Isle
##how
reformierten
Commission
##tück
mächtigen
jüngsten
anwesend
Zinn
Bürgermeisterei
##öffnung
##felde
Flandern
Ackerbau
##eth
Plastik
Ethnien
##rohr
##laufbahn
##iges
##oka
Aufteilung
weswegen
##ø
zeit
Utrecht
Te
Celle
##oper
Hohenzollern
##aceae
Blasonierung
Teilstück
Garnison
Bobby
##ös
##dl
jemand
Schwefel
Seoul
Heart
##not
##decke
hilft
Wrestling
Jochen
##stoffe
Mikro
##sbe
gültige
individuellen
##tre
verkündete
Organist
Großherzogtum
Bil
Werder
Lords
##Ö
stärkere
Zeitungs
Schuljahr
Erdgas
1730
gegenseitig
Hörspiel
sonstigen
##könig
Til
hängen
Leichnam
##ensis
Birmingham
##rund
Pier
2500
feststellen
Verse
militärisch
Reichstags
Linken
Hansestadt
hob
Fahrbahn
Schau
Prüf
Liedes
durchführen
Guido
fehlte
hörte
durchgeführten
Experimente
Alfons
ober
geringere
bemüht
Way
Geschmack
Flotten
Kaliningrad
Griff
unbekannte
##ness
klassifiziert
solange
##xe
Jubiläum
##tung
Beurteilung
früherer
##ás
gelassen
Take
Sul
Spalte
Spa
##chtung
Rundfunks
Innenminister
Gütern
Xi
Instrumental
Google
Mittels
Intelligenz
##äger
Eifel
Bär
##nos
Mittelfeldspieler
Mil
##zonen
Julie
##reihen
weitaus
fünfzehn
##schi
Arzneimittel
##ür
Year
Großer
Alberto
Cha
##charakter
Vorwürfe
Besatzungszone
1779
##bro
##masse
nacheinander
Sven
Bang
##essen
Rou
Gerechtigkeit
schöne
Oberen
Zuerst
Herzogtums
EB
Ash
##о
CP
Wiese
##kar
Aachener
##vis
senkrecht
seinerseits
Gesamtlänge
Schumacher
Kohlenstoff
akzeptiert
Tobias
##fo
Ostküste
Dar
Arabien
Vision
##chlag
Fo
Fachwerk
Burgenland
550
Zwickau
Piraten
wiederholte
##eum
Phoenix
Br
##oß
gutes
Option
Ältere
Korb
Ji
##ziehen
spezifische
Wüsten
##tiv
Wahlbeteiligung
Misch
Gleichung
unbe
tatsächliche
denselben
Schar
Sala
Gummi
##eu
Gel
Atlas
##sches
##orchester
Mali
Catherine
Beamte
einzusetzen
Gerichte
Joint
Chinas
Gips
konstruiert
AK
Mitglieds
Jungfrau
##eile
##fonds
evangelischer
Image
##yan
Projektes
erstreckte
Schwager
Machtergreifung
leiten
orientierten
gedeckt
Orient
210
##met
##bung
Part
Bahnhöfe
##sti
hindurch
Versuchs
Alma
Anzeige
1648
Boulevard
Potential
Nieren
ap
Landschaftsschutzgebiet
##eer
Schulgebäude
Kühl
##ury
Nam
Werkstätten
Classic
Italia
Event
##cu
Sz
Gruppenphase
Gemeindeverband
##rger
Handschriften
Etappen
betrugen
Vokal
Natrium
Seattle
Moral
##iegel
##ationen
Zensus
Symptome
##forscher
kommerziellen
##meyer
Wehrdienst
Teufel
Peer
Erstliga
Sehr
Project
Glanz
##verlust
Auswärtigen
verbringen
beschränkte
##aro
Bla
Betrieben
##jährigen
zurückgekehrt
Nations
##etzen
##ahrt
Fro
Ehrenbürger
Bon
Einzelnen
Carol
Schub
Venus
Brandt
Ale
Gedenkstätte
Bud
Amphoe
Portland
Most
##jagd
##bury
Herrschafts
Audi
Meisterin
co
Theaterstück
Muskel
Med
Lind
Situationen
Druckerei
verringert
gegenüberliegenden
existierten
Haare
Publikums
##gänge
Ul
Pays
Cat
po
ni
heftigen
Eingangs
##een
Helen
jenem
Vereinsgeschichte
##ügen
##heorie
Datierung
##ruktur
versenkt
Großmutter
si
Kirk
Gedenktafel
verlängerte
it
##macht
kontrolliert
Nie
Geschehen
sprachen
Mitwirkung
Knapp
##ER
Stark
##bacher
Trend
##este
Schauspielhaus
Natural
##eng
schwarzer
liefen
Bristol
Unterhaltung
Bann
wöchentlich
nachge
Stickstoff
##hel
Kuh
Sony
##bücher
Claudia
Var
Regierungsrat
Löwe
CR
##lls
Leitungs
##via
Geschoss
KV
##division
Vera
Stützpunkt
ausgegeben
Jülich
gelbe
Rangers
Men
Kasten
Kara
Märtyrer
Burschenschaft
Konzeption
Gertrud
Erzeugung
##dorff
Ausfall
Ain
lernt
AE
##oo
entnommen
Viktoria
Tr
##bor
Wirbel
Violine
Vegas
##blätter
Nonnen
##ollen
Föderation
Geschütze
##eam
Autonomen
Ras
Expansion
Schmerz
##able
Trophy
##ě
##ruf
stellvertretende
XIV
Community
##konzept
Scheidung
GS
##aka
Widerspruch
Geburtsort
Race
erfordert
nahegelegenen
nebeneinander
Ralf
Hyper
##red
Staatsoper
Jüdische
Wright
##gger
Anden
vereinbart
Pur
Henning
Überzeugung
Investitionen
Kohl
Justin
MI
Förderer
##block
128
erlitten
gewählte
Mohammed
Baudenkmale
Deli
##oberfläche
FIS
Abel
Leonard
Dutzend
##achsen
erlauben
Vierter
NA
##minister
bezeugt
Mei
##dos
exakt
Falter
überließ
##zelle
Zauber
##ritz
##kamp
Revision
Quell
Studierenden
Leverkusen
Dead
böhmischen
Göteborg
##kal
konzentrieren
Beamter
Fer
Auftraggeber
##eilen
männlicher
Suizid
Markgraf
Experiment
Armutsgrenze
Alexandria
##awa
Kopie
Gedenken
##bände
VW
Differenzen
190
##ä
Giro
steigen
angesetzt
Gala
##bachs
erregte
aufstieg
Unterhaltungs
Schön
Qualitäts
##test
umgebenden
Konzil
Jam
Hardware
##olt
Geländes
Rick
Hansa
Anime
verzeichnen
Jerry
Sar
Grundstücke
Gespräche
##rates
Libanon
seitlichen
Saudi
Ida
w
Pay
##inn
hervorging
Revier
##hafte
Booten
118
##kloster
überlebte
Margarete
Dennis
Görlitz
Grimm
Fehl
CC
##getriebe
besagt
Ko
##zahn
Umstellung
Dai
260
Politische
##uchen
verfilmt
tödlich
##pan
##fluss
Sten
Landeskirche
##truppe
##aux
Substanzen
ordentlichen
Fenstern
argentinischen
Dachau
Heimatland
Dateien
getestet
negativen
Erlass
Nachbar
Harold
Bestätigung
##usi
Radsport
Gelenk
Tin
geeignete
Generaldirektor
Erfolgen
niedrige
Garden
##nko
verdrängt
Zwischenzeit
gelesen
Vertriebs
Lu
Gefühl
##tos
##qa
Rettung
Ol
Elefanten
Backstein
Vermutung
##enge
mi
Philipps
Far
meine
##nig
kannte
##fähig
##ets
##cki
##ík
Planungs
##rche
##oz
##eier
Materie
Sicherungs
##lio
##gesetzes
Neues
Landwehr
Dun
FPÖ
bearbeitet
##dol
Zeile
Primera
Arbeitsplätze
##linger
Hau
Auftakt
##front
##posten
vordere
Hudson
Bahnlinie
serbischen
Mitarbeiterin
Jugendlicher
nachfolgende
Ing
Jules
119
Hass
##heiten
SF
GA
Termin
trocken
Lehmann
Astronomie
##dienste
Störung
Historische
Gunsten
Geschäftsführung
##rium
bezahlt
Weihe
Adi
verwachsen
##die
BC
En
Break
Ay
##oa
Susanne
dementsprechend
Zeitgenossen
jemals
##oro
##häusern
folgend
##reisen
##ates
warten
Bronzezeit
Sabine
Verstärkung
basierend
Handlungs
Lüttich
Stiftungs
pfälzischen
Stich
echte
##kräfte
##erger
zerstören
getauft
Ermland
##ration
##olle
Peak
##az
Chancen
##mäßig
entzogen
dei
##tner
Pelz
sozialer
##ique
Ware
Stalin
LA
Dokumenten
Mara
Prof
Hansen
sexuelle
Hunter
Fundament
Stätten
##nstalt
Ellen
Globe
App
Villen
Ligen
##lösung
##post
Ziegel
Gent
##rade
Valencia
Steven
Luxus
Erfüllung
Ostern
##pu
##fort
Din
Automobile
1720
Tan
SB
Krater
Fernstraße
Landau
Ya
##tiere
Kommunal
Pia
ausgehend
Ra
##iri
dreizehn
##konferenz
##ffe
bekanntgegeben
angeordneten
Landkreise
Konzepte
Einmündung
##tat
Reporter
##bein
Offiziers
Klo
professionellen
jung
Georgi
Bros
##fehler
zurückzu
##gebieten
gewordenen
Vetter
Mes
singen
Atem
Sektor
Röhren
Maas
östlicher
ausgetragenen
Führungs
AI
Medal
Pri
organisieren
Wohnort
Sor
Grammy
ausgedehnte
Lot
eroberten
Aussprache
##ł
veranstaltete
umso
Bra
ausgeprägt
Hi
Chur
##register
massive
au
GG
##irchen
zivile
Po
Mor
##lik
Zier
1768
Fußballer
empfohlen
BS
6000
##iet
María
Lebensunterhalt
Helena
vorge
alljährlich
Kinofilm
gern
indische
explizit
Präsenz
Dor
Cher
##ë
Radar
Nutzungs
geographischen
ausgehenden
Wasserversorgung
Rakete
Ludwigshafen
Rico
Leit
Bezirksamt
zugehörige
##pflege
modernisiert
geprägte
not
kaiserliche
Lutz
Franziskus
angehört
Gefühle
Aktuell
##ré
lobte
Rippen
ähneln
##com
Diener
Dal
sinnvoll
Hofmann
Wolfsburg
Ros
Emden
Channel
Klammern
Dir
lehnt
Vorgänge
unternommen
##wal
Toni
Petri
Ny
HS
Gewichts
fördert
Muhammad
Village
Sozialistischen
ABC
weiterentwickelt
Yi
##uchs
tri
deutlichen
Ebert
Reh
Liberalen
Ortsrand
Proteste
##meisters
Mehrzahl
heimischen
Romanen
Materials
amtierenden
Satzung
Aufenthalts
Zo
##bre
##ausschuss
tätigen
betreten
##mos
Sauer
Kriminal
##RA
Strahlung
Empfangsgebäude
##sto
Tenor
Nichte
Gesteins
1765
Triest
Haller
Filmmusik
##AG
Qu
schweizerischen
Krisen
DP
Castro
Benzin
Flüssigkeit
Finanzminister
Japans
Medical
Geschichts
##ná
##ndes
Lieutenant
Eurovision
steigern
klare
Krefeld
Schmitt
Kol
##partei
Son
##ärke
##ò
ohnehin
Magdeburger
##sand
harte
Oklahoma
Kurven
Kolonial
Asche
##ono
schwierigen
gemeinsames
Wachstums
Vermont
Spin
Syn
Landtages
##förderung
steilen
heutzutage
gewonnenen
Neuere
Beinamen
##lände
Roberto
Hugh
##oje
Dub
Nouvelle
Geh
gefüllt
Mae
Halb
täglichen
RAF
Cricket
wirft
benötigen
Buslinien
##stück
Names
Folter
Berichterstattung
Hydro
Dy
##zität
harten
Heine
Objekten
Sche
Dean
##zon
zugerechnet
geistlichen
##ssel
##kraut
gelebt
Bretagne
finanzieller
Chlor
sub
Präsidentin
##ienst
Galaxien
Feldern
##volumen
Toulouse
Brünn
Zaren
Kr
##uro
##non
angezeigt
Zahlungs
Beau
Hel
Flak
Side
Kong
Anschlussstelle
wechselt
Huber
Quadratkilometern
industriellen
##aja
ru
Erschließung
##ña
##tafel
re
quasi
konstant
zentraler
wirkten
Zeuge
bewahren
Pater
##hnen
gerecht
##unter
##tunnel
gelistet
Wil
##ef
interne
Flieger
Tie
Kunstwerke
##nitt
weißer
geschieden
##ege
gesetzlich
Newton
Import
##akt
wanderte
Dakota
verkehrten
Masuren
Mis
Anregung
##eise
##rne
vermieden
280
##mas
Taler
hölzernen
griechischer
anschloss
frühzeitig
Nickel
Tell
##oc
komplexe
versorgen
dreißig
beweisen
Tun
##ander
Geistlichen
Leuchtturm
##hm
zugeschlagen
Zeitalter
flankiert
Resonanz
Geographie
320
erforscht
Speise
Städtischen
ED
verteilen
Buddhismus
Baltimore
##position
Platzes
Alta
lutherische
Ludwigsburg
Guten
##IS
fortgeführt
Aristoteles
Tol
Porzellan
Abständen
rechtlich
Winters
Torpedo
gebräuchlich
Taufe
Blech
Zivilisten
Private
Tarif
Abgeordnetenhaus
Weihnachts
Explosion
Empfehlung
##institut
weigerte
reagieren
holen
gegenwärtig
##fahrzeuge
##verlauf
vorbehalten
umgehend
niedrig
Ast
##ief
Steinkohle
singt
##bot
eingeordnet
##chicht
Kongregation
Rod
Fein
##usschuss
vollen
Examen
Meier
##kurs
ständige
Ward
Resolution
bulgarischen
Religionen
Montana
Jubiläums
Monster
Fossilien
Benutzung
künstlerisch
Referent
Oh
Stadttheater
Modells
Ham
##tritt
schildert
herab
gegebenenfalls
Ausläufer
##altung
richtige
Steiner
ben
Rück
Schönberg
Kabinetts
Freistaat
##tro
Turbo
She
1753
echten
ku
bevorzugte
beruhen
Putz
Orgelbauer
Fachzeitschrift
##ê
##teri
vermarktet
Jährige
##nier
Tallinn
Tabellenplatz
##ossen
künstliche
Tra
Limes
massiv
Schle
##hmen
Habsburger
Bohr
Lau
Skelett
1771
Titels
##ellung
ar
bewirkt
Labels
Geiger
Niederrhein
##talbahn
##hörde
spitz
1756
Ökonomie
Auslegung
##nter
##chow
Ü
rechteckigen
konkreten
##mu
verhinderte
Landshut
Pittsburgh
##aki
estnischen
##rats
##ction
Tri
beeinflusste
Parade
##eb
Sporen
Belege
theologische
Alpha
annahm
Cara
Grey
Jahrestag
selbstständige
Verzicht
Muttersprache
##ales
##uma
Vorwerk
Barth
##ffer
Nachteil
Mütter
Knight
Provence
Kongresswahlen
##ielen
Bro
Ada
Dreieck
##rst
##hai
##annschaft
Rheinischen
Betroffenen
begeistert
Kurzgeschichten
Filialkirche
Arabischen
wertvolle
Laub
Hou
##änderung
beschließt
##mers
Britischen
Arbeitsgruppe
zuzuordnen
Spital
Altona
teilzunehmen
Verbindungs
##zucht
Blitz
Anhieb
Ott
Motiven
AF
Heiden
##inge
1715
##ware
##linge
##ici
erstellen
Lehren
ID
Eigen
empfahl
Fat
Ankara
##orst
Signale
##boot
verursachte
Strahlen
denkmalgeschützte
Hay
Leiterin
Erwachsene
isoliert
erforderlichen
Rundfahrt
Christina
##lach
##brunn
##yama
##var
Doping
##day
fühlt
Verzeichnis
Profit
beigetragen
Kur
Dorn
##vorkommen
Schritte
Mel
##auten
Schi
Aba
α
verstand
##werks
##reste
Überprüfung
eingesetzte
Querschnitt
Freude
##eli
IM
Außerhalb
Horror
##ema
indirekt
##kten
Kommentar
Handschrift
Vorstadt
Farmteam
CI
Bestandteile
KS
Gasthaus
Brad
##ān
Terminal
##ßt
längst
charakteristische
Gebirgs
einsetzen
Wurf
##vermögen
##sal
definierte
Torf
Thor
beseitigt
Mitherausgeber
Aero
Analysen
schönen
HA
##ögen
##gymnasium
Leidenschaft
Grabungen
Flut
Benediktiner
##bezeichnung
abgeben
Symbole
Primär
Klassische
175
##king
Lichtjahre
Geister
blaue
Michail
fester
ausgedehnten
genauen
Atlantic
Radstand
Bestrebungen
Ausmaß
Stände
Reife
Quadratmeter
1650
Pfarrers
Lep
Überfall
Waldeck
Pau
Futter
Sprachgebrauch
Odenwald
geringeren
Geräten
Drucker
##organ
##aar
##yk
##eh
kommerzielle
##mans
##ießen
Kirchenkreis
Münz
1769
Rasen
##äufe
##wig
##werken
##ob
orange
Kir
Shakespeare
Mehrfach
Gefangene
löst
einheitlich
TE
Eröffnungs
best
Mos
Kunsthistoriker
##ift
geworfen
Betriebssystem
##dom
Vorfall
Scheiben
Gestein
##pt
listet
Udo
Geburtsstadt
Evolution
Beteiligten
Verwaltungsreform
PR
jetzigen
Taten
Maßstab
Hauptartikel
Germain
tschechische
bildenden
Neigung
Henriette
Anhöhe
stärkste
Wi
Mul
Lar
Messungen
angehören
Obere
Landsmann
dato
Yale
Herzegowina
ältester
Songwriter
Jurastudium
Ves
##DA
Linde
Cu
A3
Poker
Kammern
Tochterunternehmen
Mono
Blood
African
##tto
zusammengelegt
Kō
Hasen
Gegründet
systematische
hinterlassen
##rzt
verkehrte
Mariä
Kletter
sonstige
##haupt
Polar
Geschäftsmann
Bemerkenswert
Jin
##itter
Jupiter
Erziehungs
Sachen
Entwicklungs
Bos
##bin
annehmen
Kompetenz
Feinde
XIII
Ortsteils
Kanadier
Ergebnissen
rötlich
Hinrichtung
Cro
BP
Ion
##ito
Stabilität
zukünftige
##tl
Paket
Rügen
Sigismund
künftig
aufgelegt
Weiher
Pulver
##energie
theoretische
entstehenden
Maurer
Iron
Einschätzung
CM
öffnet
##zow
##tals
Russische
Mahl
Beliebtheit
##saal
desto
Notre
arabische
Burganlage
Osteuropa
##xen
Wille
Schilling
akademische
Basler
Verschluss
##horst
Kamp
überwinden
vergessen
Plus
Höhenlagen
Lena
Hohl
##sor
dänischer
Kut
Hör
Säkularisation
Härte
##gebirge
Staatstheater
Link
##sco
Swing
Hochland
zukünftigen
Mähren
##ierende
##design
Who
Such
veränderten
erlebt
Frisch
Kritikern
##nice
##gern
Thai
Adrian
##quote
Unterhaus
Cook
##rts
Flaschen
Einzelne
einheitlichen
Treffern
verkürzt
Aufsichtsrat
850
##bet
insofern
Dio
kommende
Tarn
Bath
Cornelius
geschützten
Erweiterungen
CDs
Eger
Papa
Waldgebiet
##ffel
systematisch
Regimes
1680
##OS
##ping
##isieren
Moos
slowakischen
Ple
se
Leine
##schau
Nar
Hedwig
Autorität
vergrößerte
Rettungs
Cups
wusste
Fauna
Bert
Besonderheiten
messen
Rechner
Breit
tötet
alternative
Geheimnis
##yla
##eiben
##ünstler
Wolfenbüttel
Population
Kali
Gerald
schlicht
Kirch
bereitete
Mora
Birken
Vorlagen
richtigen
Bru
Innenhof
##AC
Tauch
Beer
Schwäbisch
Manuskript
Schema
Cre
Terry
Bautzen
And
jegliche
Wal
Rau
Wies
StGB
Angela
Komitees
Kenia
Gr
Kommandanten
FI
überschritten
Steigerung
Rechen
Jer
##ierenden
rechteckige
Spät
Gesamt
Biographie
Mehl
behandeln
Alm
Lava
##uti
##hoch
unterschied
Bot
##ehr
vergab
höchstens
ansässige
Page
Grenz
##inister
Seiden
Schubert
##sia
Karlsruher
##gue
durchfließt
Schnecken
Braunkohle
##flotte
reduzierte
Zuständigkeit
Wuchshöhen
Berichten
##udium
tatsächlichen
osmanischen
Zensur
Speed
##ahlen
Helfer
##enster
Privilegien
geschmückt
Treue
NSG
Wahlrecht
Fa
##ood
Rudi
Tumor
Monuments
Mala
##rbe
freigelegt
Sergei
Kaliber
Organisations
##eni
klassischer
FS
Apollo
##aufen
Hampshire
Eastern
##lb
Waldes
byzantinischen
langem
fränkischen
Pas
Attentat
Observatorium
Köhler
Bezirksliga
Täufer
internen
Ideal
Sevilla
Rich
Bitte
##yp
Investoren
quadratischen
Raumfahrt
Canal
Verbündeten
Laurent
Ausstellungs
##örderung
Sprech
nah
bi
Under
Woll
##chrift
vierzehn
Wohngebäude
Scho
##tem
fassen
Fluggesellschaft
Berthold
##wind
Scheitern
Total
Ergänzung
##mir
##güter
Festungs
Bai
Himmelfahrt
Gastprofessor
##ç
Realisierung
GE
Stile
Leuten
1766
##ι
Dekret
dich
Gefäß
##can
Vis
IK
##wegung
##ngel
Beitritt
##rang
##owo
##nti
Cinema
##freie
##court
befestigte
allesamt
Kontrast
ausgetauscht
##uto
##gesellschaften
Albanien
Mill
Freiburger
1525
##orten
gestalteten
Stru
##arben
Parti
##llung
Hauptgebäude
##ust
charakterisiert
Championships
##rth
Unglück
Staub
Schlucht
Lund
durchlief
Comeback
griffen
Iso
##reiheit
BRT
##räte
##rle
##lat
##hle
angekommen
##sicht
##isierte
Pfarr
Zivil
Sha
Pat
##toff
integrierte
Tendenz
Ge
##olen
entdeckten
Beethoven
amtlichen
Sparta
Warren
Nationalstraße
Flammen
Lorenzo
Geschenk
##10
##rchiv
##magazin
##fra
##ilder
Aa
nachhaltig
geformt
Wat
Schaf
Marktgemeinde
Fleck
Mexico
##anischen
##handlung
##ond
Weihnachten
Triathlon
NASA
Divisionen
##ands
Privatbesitz
Oberlandesgericht
forschte
Ausführungen
##ichi
TuS
Mythos
Egon
1755
##rtig
gescheitert
Titelrolle
##siert
Treppen
EV
zurückgeführt
mathematischen
270
##trakt
Mid
Fur
##mission
##ied
Katastrophe
Stau
##tieren
zurückzukehren
Viel
##stra
Sonder
##aba
Ringen
Grundstücks
absteigen
Eingliederung
Blind
##ags
platzieren
Miles
##mis
schätzungsweise
##gkeit
Radrennfahrer
Bonus
Heimspiel
##ütte
Weine
Stu
Mülheim
Marschall
Samtgemeinde
Mathilde
Großraum
Sorte
##tab
betrachtete
Erb
DF
##istisch
Vorschläge
Two
1758
Stroh
##achs
Winterspiele
Namibia
##the
persönlicher
Micro
Entwürfen
höherer
Galaxie
##räfte
Vil
Auvergne
falschen
Luc
Binnen
Xaver
Verbleib
Königliche
Gürtel
Kru
Dee
Ted
Marion
berücksichtigen
MHz
belief
Salm
1764
hintereinander
basieren
Ghana
##direktion
Skandinavien
Kaukasus
French
Extra
Stellungen
Lehrers
##hung
Aschaffenburg
NDR
Draht
Fahrgäste
Bundesrat
##nheim
Mori
##rit
Synonyme
Kleve
##ders
Wilhelmshaven
##uil
Madison
##get
konfrontiert
##une
Sagen
Nutz
Mundart
BD
gegossen
außerordentlicher
wirtschaftlicher
car
Dro
wohnen
monatlich
Weit
TR
##luft
Berufs
##öse
##ao
SSR
Mauerwerk
vorgelegt
Trikot
##int
Roosevelt
Malerin
Control
trieb
Spätestens
Wolfram
Hai
Durchgang
Just
Betreiben
Moses
Filialen
plant
Viehzucht
Kongresses
##ple
##allee
Düren
##gu
Walk
##nar
Witten
Schumann
Ermittler
reformierte
Kasachstan
##è
Untertanen
Sach
Martins
Schalke
Fußgänger
Trade
Lands
überprüft
Terra
Gläubiger
Verwalter
Torschützenkönig
Gewinnung
##nel
starteten
mechanischen
##gestaltung
versprach
bo
Eiszeit
Beta
Befestigung
rotem
breites
Bella
Nahrungsmittel
Entry
kroatischen
verwiesen
Leer
Bundeskanzler
sexuellen
1767
##äusern
Lösch
Gaststätte
Ausbreitung
##ürger
Mobile
Core
gewordene
##klassen
dauerhafte
Sus
Ruhrgebiet
Weiters
Sammel
##asen
Sportwagen
Her
Sparkassen
##ätigkeit
##enten
Battle
##nutzung
##has
facto
Vorwärts
Missions
##roman
mittig
##beit
gespeichert
Merseburg
##hammer
Gläubigen
Mitchell
Wissenschaftlern
##mat
betreffenden
##AS
##spielen
##ichten
##brief
IBM
##rweise
vollständiger
verwechselt
philosophische
Montevideo
Branchen
##pelle
##lam
Photo
Karin
Filmemacher
Propst
Ideologie
Gemeindebezirk
##veranstaltungen
Handwerks
##oto
##knochen
aufgefunden
Weißrussland
Sole
Kel
Schenkung
Sau
Marktes
hervorgehoben
Sexual
Osmanischen
Intervention
Age
##bahnhof
Zitat
Wallace
Sing
Scottish
380
Maya
Landwirtschafts
existierenden
Fotografien
helle
Sehenswürdigkeiten
theoretischen
Rabbiner
Zustände
Elektrotechnik
braucht
Herzöge
Bed
##ili
##aler
Psychiatrie
Münch
reisen
Stilllegung
fünfmal
verwandten
##debüt
steuerte
ruft
##wesens
##inde
glauben
Gleichgewicht
Stre
Kanten
unsere
Harrison
Jahrhundertwende
Short
Matthew
Vernunft
Bachs
neuere
angrenzende
Kot
Gui
längsten
##elemente
Politikwissenschaft
Rail
Modul
Director
einbrachte
Sue
##dler
bürgerliche
Münze
Spannungs
Rama
##ör
##einsatz
verwirklicht
Nina
Hanns
##tigen
##funktionen
konservative
Rey
Monaco
Semi
Frei
1762
##zeug
##tochter
heftig
fremden
bewohnte
Hil
Nagel
Hörfunk
Jahrzehnt
##chan
Bewegungs
Asteroiden
##ink
Por
rosa
Schwiegersohn
Kie
Bernstein
##ibliothek
Ministeriums
Mannschafts
##lden
##spiele
Geheimen
Franche
Kost
Wirtschaftswissenschaften
Bou
Einstieg
gestattet
Revolutions
##amtes
Auftrags
##akademie
Vikar
Schlager
Mitarbeit
Kay
natur
olympische
Jahn
wirksam
Umweltschutz
Artikeln
entfielen
This
Wilhelmine
Con
achte
Kor
Joch
ausführlich
Reliefs
Dicke
beherrscht
Tischtennis
begegnet
Verb
Sudan
BV
##ija
Preisen
Abgaben
##reifen
politisches
kehrten
Energien
##nza
Que
Landesliste
##lut
Kirchenprovinz
##studium
Wei
Leistungs
PP
Gedenkstein
fasst
Reb
BE
##lter
Freiberg
privater
formuliert
Abbildungen
Rudolph
##lit
umgestellt
##wissenschaft
relative
Hanse
Hybrid
Augustin
Buchen
##planung
verletzte
offizieller
Meso
Vertrages
Staatsanwalt
##sprache
Saul
Elias
##herrschaft
But
Susan
##rod
##lé
Kontinent
Hal
Walt
Niedersächsischen
Hon
Sowjetischen
Inventar
##oga
geltenden
Utah
Download
Coach
Verurteilung
Denkmäler
##ield
β
beerdigt
MT
Silva
##eno
realen
Mach
geringfügig
Epi
Tetra
Meiningen
Mandate
Ausschluss
##ative
##pert
ZK
Hubble
##kontrolle
dürften
Fri
Austragungsort
gesetzliche
finnische
Kaspar
kommunale
Pascha
Isar
Aufstiegs
##lk
##branche
geographische
gebrochen
fließen
Membran
##antrieb
Hain
##rden
##borg
lo
Blu
Räuber
Library
Begleit
##eler
Romantik
Angestellte
kennengelernt
go
Deutsches
##inhaber
Stell
vorgesehenen
Unterlauf
Handbuch
##nien
Volksmund
Rebellion
Europäer
begrenzte
Sol
##halter
unregelmäßig
Abb
##child
bezahlen
Planet
Isaac
##unt
baut
Bird
Analog
##elo
boten
Tur
Norddeutschland
##Ü
Napoleons
Liebhaber
Ey
At
Quanten
Etwas
##stab
Brauch
Zeugnis
Diana
Stimm
##nor
gedeutet
Paaren
Watt
Ram
##iat
Subjekt
Delegierter
Äbtissin
##vit
bedienen
anknüpfen
Reliquien
Körperlänge
Tempels
Lagers
Bundesländer
Angola
Sächsische
Rath
##werkstatt
Passage
KA
##größen
Taka
Panama
Funktions
Antennen
Abwasser
brechen
Asia
folgendes
Stadtteilen
Pflichten
Landesamt
Ele
EA
##literatur
Baptiste
##äder
Synchron
Diesem
##lbach
entfallen
beherbergte
Uniform
##py
Nebenrolle
Naval
Gör
##bat
nachzu
Methyl
Ka
geschenkt
Zelt
##streit
sta
##urnier
Tunesien
Flach
Calcium
Å
Vortrag
Federation
##ecke
endeten
wenigstens
Marne
##useum
##pus
##schluss
Neuguinea
Frost
Plural
##niveau
Aviv
Alltags
vorangegangenen
verfassten
Wappens
Cannes
interniert
Bibliotheks
##nit
entsprechender
Schauplatz
Note
Kolben
##zzi
##unk
##farbe
inhaltlich
Dienstgrad
Messen
Erlebnis
Alba
erklärten
Kamerun
Installation
Got
Eisernen
Bade
##hip
Zweit
Lehrern
Lehrtätigkeit
jenes
ehrenamtlichen
Weltausstellung
Europacup
People
Landesmeister
Senders
##ST
musikalisch
Küchen
Gray
Lo
##vereine
nu
##zie
##rollen
Wörterbuch
Wahrzeichen
vielfältige
Versicherungs
Buffalo
Bey
Tscha
Trust
Einschränkungen
anzu
Princeton
fiktiven
befunden
Colonel
Vielmehr
GM
Eichstätt
1742
Bock
Lernen
##friedhof
##code
unterliegen
sorgten
fühlte
verlorenen
Sophia
Impuls
industrielle
Cie
Aufklärungs
Apotheker
##rieg
Gutes
Say
größeres
vergleichbare
##ome
##messer
Emmy
##üd
Preisgeld
unterworfen
Put
Gelsenkirchen
##war
mächtige
##nek
##geben
Five
Grundbesitz
beliebtes
strategische
gewechselt
erscheinende
Cal
##zyklus
untersagt
Verehrung
Jefferson
Grundsätzlich
Galli
Charakteristisch
Fachbereich
Geliebte
Cent
Konzerns
Betrachter
##his
finanzierte
Tang
More
Bataillons
glaubte
##ttung
Dscha
geistigen
Grat
Distrikts
Erzbischofs
dazwischen
Stra
Lazarett
Grabsteine
ungarisch
gezeichnet
müsste
Lehns
Geschäfts
Beirat
##mitglieder
##graphie
##erer
vorliegen
ggf
Olga
##chu
wasser
erobern
bedeutend
Unterhalb
##egg
##ap
Arnsberg
weltweite
steinerne
israelische
##vik
umge
platziert
beitragen
Qa
Erzherzog
Erhard
Ansonsten
Angelo
Propheten
sächsische
frz
U18
Académie
Kameras
##witsch
Sci
aktiver
Hörer
Hofes
langjähriger
deutlicher
Wirkungs
Veit
Prädikat
Freilassung
Einigung
Asch
Ablösung
Herzinfarkt
##ē
##back
Biografien
##aße
immerhin
Wave
##St
##herstellung
organischen
Volt
Spitz
Hanna
Krimi
Iris
erlangt
Profis
##piegel
##leute
Landwirt
GR
Differenz
Depot
Butler
##teilen
##nehmer
bestellte
Wohlstand
Net
Handelskammer
Guatemala
verschlossen
Deutung
Theologischen
Strauss
##uo
Île
##ES
##verhältnisse
Fr
##loge
kleinerer
Pfarrgemeinde
Algorithmus
##sees
bundesweit
##maler
tourte
fügte
Werkzeuge
Athletic
ähnliches
Sozialdemokraten
Präsidentschaftswahl
BK
sogenannter
Hirten
kor
Werten
##rechnung
##rab
Bosch
Meine
HP
leiden
Waffenstillstand
Dag
##wärts
Stor
Gegenteil
##politischen
gleichfalls
Oberpfalz
Ligakonkurrenten
ungewöhnliche
Soziale
Sang
Medizinischen
Armstrong
my
Dü
##helm
Panorama
Ostfriesland
Glo
##ägen
##uel
##trainer
Stiftungen
Matura
Gute
Elo
Einträge
slawischen
müssten
Tals
Circuit
hintere
##stern
Ō
Chaos
##freien
Summer
Seh
Laufen
Basalt
entfernen
##versuche
##igt
sen
Edwin
Sack
1759
Seat
Populationen
##sus
mu
dichten
Risiken
Hierfür
gehe
Zen
Georgen
Daimler
##ward
Sarg
Liu
Get
Bergwerks
##hälfte
wozu
begleiten
Längs
Gelder
künstlerischer
Vorstands
Theresia
IA
##uta
YouTube
Seven
Vogtei
Roberts
Impulse
Angestellter
praktizierte
Deep
Schu
Chang
Nase
Endpunkt
Bibliothekar
##rius
gepflegt
Kis
Schöne
Madagaskar
##angebot
##rop
Ofen
##asten
Gur
Zorn
Boss
##par
fing
Trag
Paula
Kompetenzen
Englands
##woche
Naturdenkmale
verdiente
Lkw
Konzession
Hängen
überarbeitete
agierte
Zins
Future
Collins
Brod
verabschiedete
U23
BI
Angriffen
krautige
##tums
Reduktion
##lig
Wirksamkeit
##auern
##dens
verblieben
asiatischen
Umkreis
##roth
##rtung
drehen
Split
Entdecker
Zweige
Widerstandskämpfer
Gou
Einleitung
verurteilte
militärischer
Weizen
Preußische
Plasma
Gymnasien
Machtübernahme
Butter
##pie
Wacker
Sou
Departement
##ändler
verkleidet
gleichermaßen
##ře
##mitte
##dium
überlebt
gebildete
Fitz
Ho
Flanken
Romeo
##trecke
style
Torwart
Nan
Linda
##ppel
Verfall
wählten
Tonträger
PT
Hänge
pflegte
Harn
##universität
Irene
geistliche
Protestanten
##raten
Kraus
Ar
Zirkus
Reichtum
Aargau
##stärke
kämpften
Pai
Reaktions
##ï
##änderungen
österreichisch
VS
Heidelberger
##tür
Äußerungen
eingeführte
LS
##büro
geholt
Schwere
Mix
Entlang
ruht
Monopol
##ober
Welten
Adalbert
Krupp
Chal
Keith
Lasten
Hardcore
##upt
##itze
Chip
Geo
EL
Saisons
##ε
freigelassen
Pfeifen
Jorge
##lder
Sigmund
##haut
##dge
Aufsätze
Lenk
Krankheits
Et
Anger
Montage
##rken
Palmer
1757
##uba
Überlebenden
sortiert
wohlhabenden
Rica
Johannis
##ün
##sfeld
Ill
Honda
Comté
angehörten
Tre
Niger
Hypo
wenngleich
Sorge
##quet
gerieten
beinhalten
umgangssprachlich
Gefolge
Eu
His
Brigitte
##palast
durchzusetzen
Vas
Bildschirm
Rus
CB
Bureau
Bergland
sprang
Ruhm
Our
Neubauten
##mb
Staatsbahn
Sibirien
optische
Strahl
Mechanik
Baukosten
ke
Hauptfeld
##rea
##nisch
bu
Kat
##ordens
Vornamen
Dra
##zentrale
Zweier
Engine
##jahres
lud
Africa
##uni
DI
Nichts
Ak
##odi
künstlich
Py
Mathias
Paz
##produkt
##griff
SMS
##ebäude
##wiese
durchschnittlichen
Stereo
##rup
Wasserburg
Else
##gens
Bekenntnis
##ep
bestätigen
Zement
Sperr
NO
j
Kegel
Ska
beginnenden
Gert
Energy
jedenfalls
Habsburg
Indiens
##xo
##grab
typischerweise
faktisch
Fle
Eintrag
##rme
##iehen
##tha
Spirit
Perry
##zweig
##küste
geringem
Intel
Rapid
kommerziell
Bauteile
##ʿ
Reden
##CA
Begräbnis
Gebrüder
##time
Rafael
Jeanne
##ändern
##methoden
Synode
Porta
Pfeil
Angesichts
Untersuchungs
Fortuna
Dominikaner
##ted
Starter
Geheimdienst
ausgeübt
Gräben
##у
Ämtern
Stabs
Champion
Elfmeterschießen
statistisch
Volkswirtschaft
Tänzer
Steg
Getränke
##eta
Doctor
Unterkunft
Notar
Bag
sichtbaren
1745
##uder
Regio
Fine
Ordnungs
eingeführten
Vizepräsidenten
demokratische
Weltmeistertitel
Investment
Alban
Springen
Jahresende
Flughafens
##nto
Verbandsliga
Stadtrecht
kleinsten
Tagebau
Schah
##elen
##elder
reagierte
Teatro
Lein
Larry
Freundschaftsspiel
##pital
##eifen
gesteuert
Zerstörungen
Société
##hang
Ursprünge
Prize
kompletten
Singer
Liturgie
Inner
Fähre
Maro
Eli
1752
geleistet
Ry
Franziska
1754
##hall
identifizieren
gespeist
##ckel
Transkription
Soll
Kriegsmarine
Kun
Geschosse
chinesischer
Neumarkt
Nachfolgerin
Marktanteil
Fichten
##ilen
Prototypen
Mad
Kernstadt
Fragmente
Biografie
Absteiger
##ländischen
Einhaltung
Cai
Mittelschule
Health
Übersee
zufrieden
charakteristischen
Gewerkschafts
Sai
Pferden
Arsenal
##odell
populären
hellen
geheimen
Bars
stabil
Präsentation
Solingen
Programmen
A2
##gers
##urf
Radiosender
Nicholas
##ope
Nahen
Kaiserlichen
Kälte
##alität
Strömung
Lit
Wach
Reichswehr
##erfolg
wann
gültig
eingebracht
Schulbesuch
Gegenden
##übertragung
Bestehens
weithin
Qualifikationsrunde
##mba
Pe
Kassen
Roß
WTA
Mons
Lotus
##abbau
Mat
ET
Danny
##if
Sig
Brems
getrennte
Norddeutschen
Tram
Rolling
Reichenbach
Bürgerkrieges
##yse
##einrichtung
Magazins
Shows
verbaut
geordnet
Lieb
##feier
ungarischer
geborenen
Trommel
Poly
Els
rekonstruiert
Reinhardt
##ota
Ze
Sko
Sieb
richten
Masa
Cut
Niederländer
Rockband
Chromosomenzahl
Klee
Beleuchtung
Streckenabschnitt
Square
Erhebungen
##klub
Hero
##messung
##ikon
##gal
##logische
##busch
##arriere
Milchstraße
Wirts
Pictures
##eden
Lebewesen
Investitions
Bundestages
Anweisung
1660
Papstes
##tionen
grundlegenden
Toleranz
Alto
##zogen
Traditions
##lanung
Skandal
Assistant
##panzer
can
Oster
Neuhaus
überwacht
Oberamt
##tätte
Jet
##tellung
##ev
Eiche
ro
betriebenen
##sung
##anus
RT
Ly
Hoe
##rans
##anda
verdanken
Zwecken
Salomon
Marina
Gebet
Beweise
hört
Wanderweg
Tiefland
Commander
##eda
Ladung
Indi
Beatles
2n
##damm
altes
##hofer
sichtbare
Un
Tennisturnier
Resultate
Archäologen
##ske
mäßig
Fabriken
Webseite
Polnischen
Georgien
Fotografen
geistige
Trump
Chen
eigenständig
Rhön
verschiedensten
Empfang
Naturforscher
##vögel
spezifischen
etablierten
Bi
Allan
Räder
Arkaden
##ő
Well
weiblich
Grabmal
par
Six
##rä
Kaufleute
1748
##hre
##mung
wiederholen
zeugen
Thun
nebst
ausüben
Ding
Urs
##tle
##iesen
wa
Steinbach
Em
Kar
verschont
Predigt
Musikhochschule
Gay
restliche
darzustellen
Key
##uster
##stik
##qua
ä
Markenname
Hey
ablehnte
Disposition
Partisanen
Lateinamerika
##raben
Che
##kers
kümmerte
Zerfall
Ausgangs
##inghausen
Og
enorme
Ae
##chts
##bes
neuem
##tch
verwandelt
Vorjahres
Vizegouverneur
Regentschaft
Paolo
längs
eingespielt
Borg
Alarm
##besitzer
stößt
León
Kfz
##giebel
Übungs
Ignaz
GP
##keits
bewegte
anscheinend
abgenommen
Herrmann
stadt
abgelegt
Pech
Hong
Einheits
herstellen
entsandt
Ina
Dahl
If
Hundert
Förder
Augustiner
ausgeschieden
Lettland
doppelte
Assistenten
##volle
Opel
##jar
Würzburger
Dichters
330
##ox
eingegangen
##wart
unterirdische
Kalium
KP
##wick
##uda
erzeugte
beteiligen
Verbänden
Gle
Mosaik
Limousine
Hühner
Bratislava
teilnahmen
roter
Nintendo
##bahnen
Tausend
Sin
Indischen
Aufruf
Ky
Flo
English
Sätze
Staatliche
Fischen
##nse
verweigerte
ukrainisch
Straf
muslimischen
Hypothese
Côte
##hara
stattfanden
SH
Bia
Nah
##zwecken
##abend
Wortes
##д
geprüft
Lemberg
Led
LSG
##ebe
##rift
getreten
Alexandra
Nizza
##otor
Hölle
Buck
Rag
Fahrgestell
reg
Publizist
##methode
Libyen
Brecht
mor
frühesten
sichere
Nils
1717
dritt
Niederschlag
##uche
bedeuten
untergeordnete
Vögeln
Domkapitel
##err
##nstein
Vektor
Reims
Codex
Schulhaus
##ieben
Bürgerkriegs
zirka
Strophe
Rott
Bol
Letzterer
Ausschreibung
##setz
Musikschule
Weltwirtschaftskrise
Rücksicht
Family
Coupé
1751
##xt
##vereinigung
##zirk
##text
##scht
OP
Swa
Anatomie
Cis
##rasse
Dei
schön
Klassik
ökonomischen
lehrt
beinhaltete
Pal
Grünland
##zar
Krüger
VD
Sieges
kV
droht
##haften
##yt
##rma
Erwerbs
Isabella
Ehr
Friederike
##æ
Übertragungs
schrieben
Wirt
unmittelbare
Schlepp
Antarktis
##bestand
para
Ré
##kor
RM
zusammengesetzt
aufgelösten
HB
##lea
Ottawa
Kräften
##üt
##arbeitung
italienisch
##chul
Vorbereitungen
Rezeption
Queensland
Plauen
Ful
Education
Apostolische
##kasse
bisweilen
Roboter
Revue
Par
##decken
englischsprachigen
Jen
Bundesamt
vertraut
Palermo
staatlicher
##ersonal
Sil
Gesichts
Doms
tut
Ruprecht
Internat
1550
##ugen
hingewiesen
Ecuador
##ér
Westeuropa
Raj
Edel
Dis
verursachen
Stadtwerke
##periode
Pool
Miet
Fries
Reichsstadt
Brau
Nevada
##bis
Bildhauers
Scheitel
Australiens
##moor
##hau
TS
##modelle
jahrelang
silberne
##vier
##tlich
VR
Padua
Mrs
enthaltenen
besetzen
Wangen
Sk
Betracht
Algebra
##wissenschaften
##uern
globalen
##durchmesser
Bu
Beschäftigte
Brook
fragt
##fang
jüngster
Oberleutnant
Fiat
##bit
beliebten
Kärntner
Call
##zzo
wandelte
verleiht
durchgehende
Review
Clinton
braune
Vorderseite
Förster
Burn
Aka
##logen
##amp
zurückgeht
schwachen
eG
##ą
##af
südafrikanischen
heller
Stolberg
Paradies
##uert
##grün
dunkler
Vorlauf
Innenministerium
Stolpersteine
verbleibenden
genoss
dir
Bor
##ries
##ij
Data
Ziffern
##sey
Zünd
Bae
Potsdamer
zer
Kid
Brest
Kurator
Großmeister
Census
Schweinfurt
Parlamentswahl
##bschnitt
Jakobs
##anal
verteilten
entführt
Tunnels
Leopoldina
Gletschers
Dachreiter
##komplex
##itte
Kreistag
Gol
gegenseitige
Typus
Stanford
Interstate
Diplomaten
Zwischenzeitlich
##ymnasium
Prospekt
1761
##lü
225
Vierte
Verteidigungsminister
Prozessen
Nat
WA
##bek
rheinland
Beschwerden
AHL
Pianisten
Mau
korrekt
Wohnungs
Jude
##fische
siebte
langes
Bul
Schätzungen
Ameisen
##onia
Grundwasser
##oot
Nadel
Meisters
Baku
ti
Sy
##tow
##stor
##portal
##meisterschaften
tschechischer
absoluten
Limited
Jahreszahl
Bäcker
##teams
##star
##regiment
präsent
Temple
Luftangriffe
Prozessor
Nature
##oth
##ierungen
Neil
Congress
##präsident
PD
Bahnstation
##lov
Rausch
Intensität
##nahmen
tägliche
feuchten
ze
gekrönt
Nathan
##vas
##hat
strengen
Kran
hydro
Zielen
Wettkämpfe
Komponente
##mond
dreht
Weich
##orientierte
##aster
Unterstützer
Schloß
Bauernhof
Hertha
##vić
Ochsen
Kas
CIA
1710
##gene
Schotten
Einmarsch
Yards
Ley
Demonstration
##US
##ilfe
päpstlichen
Kombi
Hochstift
##lie
sandte
keineswegs
Verwaltungseinheit
##tempel
##asis
Äthiopien
Zá
145
Mol
Campo
optischen
ermöglichten
Vergrößerung
eingefügt
Zusammenfluss
Va
Rokoko
Archipel
##ühne
Berührung
##qi
verleihen
angewandte
Afrikas
##uin
##ssystem
##drama
entschlossen
Schalen
Trip
Inge
liberale
form
Schenk
Sti
##big
plus
bereiste
befahl
Wan
Ortslage
Entschädigung
Tü
##oh
Perth
Heavy
##lätter
Nacken
Landsberg
##steuer
##né
gi
##ön
besiegen
Than
Craig
##ingt
Wolken
Steins
LKW
unterliegt
Storm
Spielfeld
Lor
Arbeitsplatz
Turbinen
Freising
gemeinnützige
Oberste
##nst
##gemäß
Veranstaltungs
Präsidentschaft
Briefmarken
Gian
Protesten
Nordkorea
Dé
##reiben
beschlagnahmt
Keine
Gouvernement
Eder
##chens
verschollen
Streu
Gästen
FFH
Bene
Notfall
Ani
##emann
Player
Ringe
Korruption
##spitze
##nica
Saône
Reiz
Pyramide
##gle
Schwimmen
Interpreten
Optik
Lack
Platt
Hochzeits
##flugzeug
Pablo
Missionar
Auslieferung
Alphabet
##ähnlichen
##ader
amtliche
stimmten
Wut
Gedichten
Dieselmotor
Adria
Werra
Dill
##ism
##fin
Lieben
Hitze
Großherzog
##AP
Kron
##ritt
med
Streik
Nachmittag
##stände
##ntin
mitsamt
Lücke
Kopien
##meinde
Sende
##oxid
Regina
Radweg
Bögen
##LA
##nung
Tara
Stro
Osmanen
##weite
##quin
##flege
Sonntags
Hue
Steinmetz
HO
Eng
##tad
##nick
verworfen
Kampfhandlungen
DV
Aufstiegsrunde
Gemeinschaften
##lings
##ektor
##ßer
zunehmender
Vie
Pra
eingeschlossen
1741
##yra
Professional
Heimatverein
Kreuzberg
Jar
Bewaffnung
##schnitt
Versetzung
##scho
Verbesserungen
1744
Carmen
schottische
Wings
Sportart
Montenegro
Gebirges
##ů
Rogers
Lese
Griechisch
Einem
rechnen
einberufen
##enze
vermutete
Nordirland
##pit
Sachs
Kiefern
Fla
Disco
##ree
##runn
feierlich
Mulde
##ministerium
##inheit
variieren
eignet
Fünfter
##vice
##sum
##rge
##bie
KO
##rren
Flüchtlings
ausgenommen
zugeführt
Moldau
suchten
Santos
Technologien
MO
##nov
##ndel
geschützte
MD
Flüge
heftige
Päpstlichen
Kammermusik
lès
Wismar
Watson
Leibniz
Bozen
Bangkok
##sekretär
Sozialismus
Op
##zylinder
Landhaus
##weit
Scheibe
Isa
##iss
##dischen
ausreichende
Polo
Colin
räumliche
Söldner
Gültigkeit
##regeln
Rennfahrer
Bedürfnisse
##ähnliche
##inder
##edi
herkömmlichen
Erzbistums
spätgotische
Würfel
Holm
Cur
##oda
##dere
orthodoxe
glücklich
Dirigenten
##breite
präsentieren
Begrenzung
Lille
##rü
Weis
Kanäle
var
Beleg
existierende
Prime
Fahrzeugs
frisch
Ilse
Dunkel
Ausübung
Alp
Ai
##oma
##kind
##bringen
##aga
dünnen
Teheran
Bruck
Fächern
1250
##iler
##chemie
##amin
Opfern
Hua
nordamerikanischen
jederzeit
Executive
Antisemitismus
##apa
Saga
Nationaltrainer
Lektor
##omo
erließ
Unit
Kil
##müller
hei
Konstitution
##eiden
trans
Asiaten
Putsch
Gun
AA
##üche
##lor
lieber
Bonaparte
##bericht
##assung
kontrollieren
Götz
##mei
optisch
emeritiert
##gre
##enko
Fahne
##bon
verbleiben
Lanka
Earth
##konstruktion
normal
Tokyo
Nicole
Illustrationen
Beratungs
schuldig
Meisterschafts
Illustrator
##variante
##rist
Hauptschule
Aquitaine
Apotheke
Demonstrationen
##egion
Source
Kieler
geplündert
Hun
Gesetzgebung
##jer
Ableitung
Glaube
Balthasar
Brom
##örder
neugegründeten
dünne
Proto
Fahnen
Ant
##medizin
verbrannt
Aufständischen
Vorgängerbau
Springs
Nasen
EF
##peicher
Sternwarte
zulässig
mobile
erzählen
Nominierungen
tauchte
nötigen
##äter
ko
Vilnius
Haas
Edwards
minder
Grazer
Würde
##ved
Fre
1747
historiques
einnehmen
Mag
finanzieren
Sé
1732
iranischen
Satire
Pete
##stet
##liches
Ty
Lago
Het
##kra
Poesie
Lane
##denkmal
Naumburg
##nzen
##cen
sichergestellt
Kleinbahn
Gar
rumänische
illegalen
SN
Min
Grammatik
##fried
Saug
verweigert
Spaltung
Oberhof
Kommunalwahlen
##gn
Paraguay
##andel
Titan
Glücks
aufging
Spencer
Killer
##lles
pi
##liegen
selbstständig
##ρ
##nner
##faktor
Manchmal
Report
Sterbe
Prozesses
##TE
Schlaganfall
Italienisch
122
TC
Stoß
Freundes
Filmproduzent
##mä
Stadtviertel
Schnittstelle
Marian
Cockpit
erfunden
Pauline
Fürstenberg
Dolmen
Branche
##haltige
Todesstrafe
##tens
##nahen
verfiel
Quarz
Detmold
Arte
Leningrad
Bekanntschaft
Angehöriger
Reaktor
Lä
Gewichtsklasse
separate
Lehn
Dana
##pot
mangels
hinnehmen
Säure
480
##ulo
##szene
##quartier
erarbeitet
Unteren
##öglichkeiten
##reu
##legen
stießen
Wasch
PI
Jüdischen
420
##gaben
García
Alfa
Strömungen
Gis
##brik
Blattspreite
##iftung
aufgefordert
##osition
hergestellte
Wai
Atlético
##aw
kar
Lungen
Gartens
günstigen
Beerdigung
##programme
##cla
eindeutige
Treffpunkt
Staatsdienst
Spaniens
##möglichkeit
##fell
Vernichtung
Trauben
Jamaika
Care
automatische
Stadtzentrums
MM
##zahlungen
##ssung
Steel
Rie
Liefer
Comp
Cali
Herzogin
Abschnitten
##ersdorf
Offizieren
potok
erbauen
TB
Chirurgie
Calgary
Vertrauens
Gepäck
Antriebs
##zügen
bestraft
Zugangs
##meer
schwache
prägen
Falken
Darwin
1746
##usa
##sle
RC
Komitat
Stö
stärken
langfristig
What
Pflanzenarten
IR
Adenauer
zurückziehen
Kraftwerks
Bri
##tausch
##hut
Wilde
##vers
##atus
getrieben
gelagert
Knaben
Favoriten
Rum
##systemen
Füße
gedient
dos
##itis
Kohlen
##rmen
Mittelmeerraum
Milli
Epitaph
Edith
##zeichnungen
Jenny
##law
Sp
##â
überlegen
Tala
Schulze
##ovice
zweigeschossige
Kleider
ereignete
##lern
Ratten
Nass
Jähriger
Geschwistern
##reit
##rede
##kirch
Porte
unterlagen
##rain
Wilden
Sklaverei
Mühl
bewaldet
Brun
Annäherung
Alf
##burger
##ägt
schlugen
Braunschweiger
Verhandlungs
Tuch
Cap
Westdeutschland
Gre
Ermittlung
Häufigkeit
individuell
Yoshi
Schö
##ngt
Az
##äu
sobald
körperliche
kurzem
Sitzplätze
##opfer
dasselbe
Mona
##tzung
Geburts
Missionen
Kos
Absturz
gewachsen
Three
Luke
Entscheidungs
##sischen
1736
verschwindet
##bereiche
Hofe
laufende
##mut
##hos
Mou
Rode
Lehrauftrag
Cho
Richmond
Mitter
1620
##nah
steigenden
Motivation
Igor
amerikanisches
Nano
Krug
Gruppierungen
Armenien
##kat
##iana
Schla
Petro
Netze
Munitions
Ghetto
Def
Buchholz
markierte
Letzteres
Blanc
##owitz
1735
cu
Helligkeit
Göttinger
Überarbeitung
hervorragende
##lang
out
beschriebene
Reed
Goethes
ER
##lur
Hope
##wn
Schale
##zenen
amp
##õ
Töne
Gasse
##ntwicklung
Stammsitz
Schaum
Studiengang
Still
Elberfeld
Verschwörung
Margarethe
Erfassung
Thu
Territorial
##water
Schlösser
wohin
binnen
Symphony
Shaw
Vel
Sommersemester
menschlicher
Winzer
Irish
##fil
Sopran
Universum
##hand
##dell
ver
Renn
Amtmann
Alain
##rmann
##kommando
elften
Swan
Größere
verwehrt
Bewerber
##tock
Mon
DT
##führt
Bé
Blütenstand
theoretisch
Tea
Magic
Stempel
Hoff
Erreger
##BA
nächstgelegene
Justizminister
Hus
Abgabe
##kation
Tourneen
Puppen
1630
##nbe
##lieder
##iven
Solothurn
Falk
##yne
aufgewachsen
##motoren
##any
Rohstoff
Minsk
##grube
Tha
Schöpfer
##onne
Étienne
ineinander
Synchronisation
Keil
Artist
Abspaltung
202
##hügel
vorliegt
cor
Steck
Burgruine
##aß
reichlich
außerordentlichen
Telekom
Session
Oberbayern
Haupteingang
##stisch
##loster
bedarf
Mana
Entgegen
##rief
##ographie
Territoriums
Kreta
Familiennamen
Zurzeit
Israels
künstlichen
##ürme
##jähriger
##fallen
1714
transportieren
##unkte
##bindung
Oberschlesien
##esellschaft
vergibt
##ο
Saturn
Luftwaffen
##endung
besichtigt
Schülerinnen
Pascal
Konsequenzen
##hor
Trilogie
Niederlassungen
Dela
1743
##uh
Tauber
Brühl
##gefahr
Transit
Shuttle
Montag
##het
##anden
tro
sicheren
Verteidigungs
Infektion
Hunt
Winterpause
Af
127
##immen
Jetzt
Bala
##baus
symbolisiert
irische
Komödien
##ň
##ð
Zi
Ver
Schallplatte
Laurentius
Volkswagen
Scar
baden
Raben
jährig
Pracht
Turmes
Alexandre
vierzig
bewahrt
Vorgängers
##ical
##album
Ungarns
Tragen
Fähr
Wasserfläche
Vorstandsvorsitzender
Kabarett
##deutsche
Stummfilm
Propstei
Scham
Oi
Baubeginn
1530
##fle
gemein
Kalt
maximalen
anzusehen
Sequenz
Shan
Adelsfamilie
pre
Verantwortlichen
lieben
definieren
Bundesbahn
##meier
kürzere
Volksabstimmung
Versuchen
Nachfahren
festgelegten
benutzten
Greg
Fließ
##arzt
quadratische
fremde
Grundsteinlegung
ange
WS
Stoffwechsel
##rauen
landes
That
Realismus
FBI
##cor
Währung
Tro
Progressive
##asi
Pie
Sum
Léon
##rote
verschwinden
gemeinsamer
Ner
Ling
bemerkte
Rolls
1749
##wy
##nts
##lust
herausge
Schleuse
Ihnen
Brenner
1713
angelehnt
Speer
##srecht
öfter
Whit
Kompromiss
##lay
liebt
Scher
Cala
##zit
mathematische
interessant
Justus
##ees
Steyr
Schock
Proteine
Gartenbau
Cop
##erke
verarbeitete
Rennens
Tsu
Teufels
1737
##kur
##ava
##zeitschrift
Rathauses
Kamen
Grabstein
##mit
##kapazität
decken
Volksbank
Fertigungs
firmierte
Wallis
Meg
Bestes
##örmig
spanisch
ba
Plattenvertrag
Parteitag
Bestands
mg
bau
Kastilien
Abteilungsleiter
bekämpfen
Yang
Rec
155
##politische
verkörpert
verwandte
touristische
##ør
##ish
Chinesen
Letztlich
Christiane
Abweichungen
##ichkeit
Hod
Trail
Maxim
Heller
Duett
Card
##hill
nationalsozialistische
Regisseurin
Aaron
Röntgen
Hetero
##rett
Sardinien
Gotthard
##frau
OH
##SI
##fikation
zuge
Neugründung
Hügelland
Commune
##streifen
##ssistent
##rch
##led
Stier
Span
Bö
Aufkommen
überleben
teilten
Langzeit
Banner
1738
Tänzerin
Schwangerschaft
Bulle
##kla
erfüllte
Lü
Krönung
Fernsehproduktionen
##isk
Toyota
Gru
tu
wiesen
begründeten
Wetzlar
Morde
Ableger
##zes
Laa
Gesandter
physikalischen
##sow
Miliz
Geschütz
Gefallenen
gerichtete
##mp
##artei
germanischen
Dachverband
##rtige
Schrein
##grenzen
semi
Rast
##gny
Beobachtungs
dazugehörigen
Staatspräsident
Leicht
Arkansas
##kai
weitesten
Jugendstil
Eid
Astronom
scheiden
Marienkirche
ICE
##ückt
##pers
Pick
Nahrungs
##fri
##far
Ritual
Parkplatz
Höfen
Wels
auffällig
Constantin
Einwohnerzahlen
Boll
lokaler
landesweit
christlich
Rennwagen
Auskunft
verschaffte
verkündet
Wit
Sä
##plätzen
Rö
Leu
##zentrums
##projekte
zweieinhalb
Cri
##ño
erwarben
Genauigkeit
##bur
Hauptfigur
Guillaume
##probleme
##treten
unser
Anzeigen
80er
Pine
Ever
Derby
##ahrer
Renten
Wimbledon
Neuburg
##dd
##bundes
betraf
Wasserscheide
Pers
überrascht
Winde
mitzu
Techno
Seelsorge
gestohlen
##gürtel
Olivier
Landgrafen
Chrom
##SS
##rag
##ieder
M1
##lta
##alo
LI
1540
verstärkten
non
##vá
##staat
teilnehmenden
ausgemustert
Dual
Schutzgebiet
Flughäfen
geheim
Referendum
Behinderung
##alz
Prior
Bourgogne
##frage
grossen
Mitgliedstaaten
Bundesverdienstkreuz
Allgäu
Did
##rainer
Wohnplatz
Tot
Essays
##manager
##logisch
spiegelt
Torre
CT
##teich
Vergleichs
Nachts
Lost
prinzipiell
Transformation
Mao
Botanik
Blas
Bek
##iti
##archiv
Ox
Lucius
##ğ
##jahre
vorgesehene
V8
Soccer
Bedingt
Verona
Rotten
Rajons
##kurse
##erf
Zunahme
Saiten
Advisory
##pper
geborgen
Type
##wka
Titularbischof
1618
Gemeindegrenze
Formulierung
##mani
Machine
Schuster
Roe
Johns
1670
wählt
##wälder
##pfen
##latte
##erre
verteidigt
Pot
Kronblätter
Herstellungs
Genossenschaft
##PA
##nationalmannschaft
Märkte
AW
Kempten
Eisenerz
##ə
##physik
zusammenge
ehrenamtlich
##höfe
vielfältigen
erarbeitete
1690
##wohner
##rojekt
##irtschaft
132
##rra
riesigen
näheren
gestützt
Mura
Besatzungsmacht
##itten
trainer
Montréal
Anspielung
Hauts
maß
indes
erforderliche
Krause
##stung
KF
India
persischen
dicken
Kam
Geest
Wänden
##owitsch
Universidad
##nei
Hinterland
1733
126
##noten
Trink
Gesetzen
fiktive
eingelassen
Stadtrand
##ridge
Chat
##moto
verhalf
dominierte
Karst
Gemeindegebiets
berührt
Wars
Schor
Landgerichts
Einkaufszentrum
1724
##raf
##abschnitt
Kala
biologischen
Schmerzen
Pu
Maske
##hler
berechtigt
Rechtsform
Ligaspiele
Biber
unterirdischen
Zeremonie
gleichmäßig
TT
Füßen
Osttimor
Mun
Lancaster
Koran
##ähe
Prägung
##fan
##aub
datieren
Petit
Jab
Sohle
Maximal
organische
lanzettlich
Lenz
Finn
Buss
##arme
bestreiten
Nachteile
Holmes
folglich
einstellen
Wiederaufnahme
Mik
##pannung
herausragenden
Daran
##té
##entrum
##stad
Unterbringung
Timo
Schutt
Hobby
Hafenstadt
Cad
##verletzung
##uis
##hallen
orientieren
fressen
Rossi
Oak
Baches
Advanced
1721
Armin
Stockwerk
Lehrbuch
Arti
1701
Pavillon
Nou
Affen
##betriebe
Jazzmusiker
Gleit
1520
##ausschusses
you
nennenswerte
eingereicht
angesprochen
anbieten
CN
Boxen
regelt
Gangster
Süddeutschland
Pla
Gegnern
##äden
##tic
Administrator
##ming
vorsah
Mang
Beseitigung
##verbund
##pause
##egung
gezielte
Währenddessen
##ς
##ommission
Stichwahl
Nachschub
Ehrendoktorwürde
Auslöser
feindlichen
##frequenz
##esch
##bia
unterstanden
belgischer
Zusammenhänge
Vollendung
Ingrid
Dimensionen
1718
##ahmen
il
Tyr
##echen
Fragment
123
CEO
Passagen
Officer
##toren
##pläne
Fed
herrschenden
Genfer
Flash
##AM
##ph
##anen
Redner
Klingen
Curt
Ähnlichkeiten
verzeichnete
gefundenen
eineinhalb
Pere
##anisch
##professor
Rai
Halbzeit
##üste
##schung
##asa
##aa
##ude
geheime
Südlichen
Rin
Gu
erlosch
Leid
Kulturdenkmal
Kuhn
Judentum
##izi
hinunter
1725
##λ
##läufer
verstärken
unver
besiedelten
1640
##ngo
ausdauernde
Kha
##bögen
übrige
Ser
moralische
##gewinn
Sean
Buchs
kontrollierte
##NA
##ì
##profil
sechzehn
erleichtern
Blo
left
Serben
Met
Lions
Entführung
8000
belastet
ausbilden
Staubblätter
dominierten
angeblichen
Schrauben
##aria
west
verbliebene
Gor
##stan
Spalt
Moss
Bundesligisten
sam
begegnen
Rotor
kommentierte
typisches
steigerte
##sts
Schifffahrt
Mängel
Gegebenheiten
Monika
Vita
Kolleg
##asch
Ia
Auffällig
durchgängig
Television
Saxophon
Erika
Editor
Ausstieg
##völkerung
##lbe
##inhalt
Initiativen
Dornen
Beschlüsse
##bibliothek
Rupert
##problem
Zweitliga
Durchsetzung
Pul
Eisenbahnen
##wände
##pat
Ironman
Fruchtknoten
Zukunfts
Senatoren
Schleif
Hesse
Gewehr
Claire
##nummern
##lc
##bschluss
zeitgenössischer
Behauptung
##tf
Frühlings
Austritt
##ement
feine
Preises
##ová
##edt
repariert
Wittgenstein
Strauß
Pädagogischen
Plattenfirma
Heid
Haltestellen
Gabe
FIA
Burgstall
##waffe
##ckung
Weltmeisterschafts
Pädagoge
Luca
Amalie
trennten
Zwillings
mitge
Mata
Legenden
##ân
##rar
##bio
Tet
Spalten
Guard
##itzer
Armeekorps
##tsu
##inrichtungen
beantragte
##pfer
##legung
Zusammenlegung
Twin
Raumes
Pendel
##isa
Vorwort
Spielerinnen
Ritters
Grass
Verstorbenen
UV
Fußballmeisterschaft
##ausstellung
Lichten
440
Fürstentums
Denkmals
verweisen
Thesen
Quedlinburg
Bedenken
1723
##wu
##rbeiter
tätige
Waldemar
Charter
##mol
länglich
Ye
Make
Kapellmeister
##käfer
öffnete
erz
erinnerte
Zwangsarbeiter
Fra
##aya
erleben
Hä
Here
##partie
##ndig
Weltmeisterin
Pharma
Palazzo
##kh
##chnik
klassisch
Kirchenmusik
weiblicher
Sozialisten
Kein
land
UD
Kata
Graubünden
inszeniert
Luftangriff
##gangen
##betreiber
Yan
Buche
längerer
einstimmig
beschafft
behandelte
Finalrunde
##äne
##kie
Bour
124
historisches
einstige
Bedienung
1688
##hou
gebeten
Ponte
Bode
##rti
##lly
Tut
Cy
Alliance
Bassisten
##cos
zweithöchsten
Profikarriere
verhalten
platzierte
Behälter
##for
Lesen
Ins
##issen
##heide
Workshops
Signatur
Hilfsmittel
lose
aufgetreten
zeitliche
IL
Hafens
Facebook
Parish
Griffel
Fahrgast
##ringer
gebräuchliche
Tropen
Pala
Char
ökonomische
Sitten
Gli
Dynamik
Murphy
Kri
Brügge
investiert
ernährt
Spruch
Pr
##icherung
Oro
Mob
DL
Bildes
häufige
Argument
##öfe
##mangel
Ultra
Sel
Koma
Bundesgesetz
Mendelssohn
Freiheits
##hals
ga
Katze
##leis
Zweibrücken
VA
Psycho
Mafia
Gers
Friedensvertrag
##ym
##agentur
Spurweite
Honig
Halberstadt
Eisenbahnlinie
##immt
staats
Homosexualität
Unterwasser
Bat
Außenministerium
##sein
geweihte
betreffen
beliebte
Pohl
##ří
weltlichen
qui
Pen
Hilfs
Bur
##dh
fehlender
Tuberkulose
##ypen
Gremium
Fass
ergänzen
besichtigen
Lin
Konstruktions
Kirchhof
schriftlichen
Auszug
##abel
Gal
FE
amtierende
Konservativen
Einkünfte
Bee
greifen
Faser
Faden
konstruierte
Tauben
Playoff
Ahl
##elin
ji
##lith
##kam
##aire
Soest
Siedlungsgebiet
Neuauflage
Nepal
Movie
Kriegen
Gemälden
Basse
165
1634
vermerkt
Rhin
Auer
##stre
##sit
Hei
##ogramm
beides
Voss
1683
##mbi
Forschungsschwerpunkte
Dou
Sak
Höhenzug
Capital
gemalt
beschädigte
Novi
Herausforderung
##less
geologischen
Partido
##ppt
Unterdrückung
Ridge
Lei
Kenn
1739
##sens
herunter
Dreiecks
Ta
Gefälle
Patron
Ureinwohnern
Plattenlabel
##apelle
Stadtkirche
passieren
Stärkung
##ewe
##egel
##ær
##tafeln
##dam
Geschwader
Schieß
Durchschnittsalter
##insatz
##eits
##altar
getan
##ausgabe
Gabriele
Universitätsbibliothek
Joy
Loh
##user
wesentlicher
fortsetzen
Stör
370
Fé
##varianten
aufgestiegen
Stevens
Ibn
##rdi
Flaggen
Erlebnisse
starkes
letzteren
Oberhalb
Trägerschaft
Jas
Giorgio
Elm
1678
##jahren
Anlauf
##historiker
##esse
##dus
Rams
angeregt
Wis
Sanitäts
##yon
illegale
Nazis
Anhang
gewährte
Urlaub
Fremden
Rita
1734
121
##ligen
urteilte
##erbe
Verne
Empfangs
diplomatische
Schna
##indung
verfügbaren
Polizist
Aktivisten
Qui
Erzgebirge
Erbfolgekrieg
##önig
##ect
ste
fi
Willem
Novelle
Cars
Ank
geboten
Chester
##sien
strategischen
schafften
kräftig
##wang
##nsch
##lement
Zy
Gesamtheit
1727
##werfer
ausgerichtete
Stadtgrenze
##ides
gegebenen
Vorher
Stämmen
Magistrat
Zeppelin
Gig
1722
Zivilisation
Mongolei
Mentor
Landesverband
##Ma
##iki
uni
LT
##set
##kauf
entstehende
Öko
lieferten
bauliche
##ällen
##schiffe
##burn
vorkommenden
dienst
Wächter
Kirchberg
Georgs
##sing
##rian
##pter
shi
Tessin
Lehens
exportiert
Zisterzienser
Ruta
Blake
##hop
Patente
Fühler
##ih
kn
intensiven
funktioniert
Langhauses
Churchill
Stiftskirche
Einbeziehung
Century
legendären
Orchesters
Landeshauptmann
##AR
##ohl
ganzjährig
Schwarzenberg
##chnitt
##rose
brasilianische
Soft
Klinikum
Bäche
grosse
gefragt
Zeitweise
Wüstung
Work
überaus
bewiesen
Spe
Pächter
Niko
Gallery
Einkommens
verdankt
beging
Haken
Bin
##jas
##hnt
islamische
berichteten
##sender
##lemente
Steuers
Katastrophen
Esch
Diözesan
##wing
Pink
Nebenrollen
Vorgesetzten
Starr
entstammen
auszu
Feststellung
##gast
künftige
Römische
Moser
Jose
Gauliga
Bent
Arbeitslosigkeit
##list
empfunden
Jüngere
Bergfried
prüfen
Yacht
Ue
Leonardo
Bruderschaft
##gni
kümmern
Einmal
Britisch
Bele
Adjutant
wiedergegeben
Grace
Eden
realisieren
VV
Geschwindigkeiten
Train
statistischen
Sullivan
Neuss
Hannes
Columbus
1712
##ologische
Zentralbank
Orgelbau
Filmkomödie
##long
Prie
##ziert
##aufnahmen
werfen
aufbauen
Einstein
Armeen
##avi
Drehmoment
##jen
administrative
Uri
Dog
##konzert
australischer
Metropolregion
##ń
##bol
Wen
Partnern
Höhere
Zin
##regierung
fach
Prüfungen
Guinea
1632
##hit
dominieren
NT
Kreuzzug
##ami
allzu
##eger
Ziegelei
Völkern
##oj
Mauritius
Eg
Chores
Zeitz
Vogelarten
Schleusen
Parallelen
Mie
Lagerung
Essener
##pra
gemischt
Orlando
##hne
überzeugte
Eb
Allo
##reiten
##filter
Pforzheim
##undes
schönsten
Zan
Tötung
Mani
Madame
Lan
Sensor
Mechanismus
##ebiet
##aterial
Sc
Platon
Kreislauf
Delhi
Rachel
Annexion
Aborigines
##veranstaltung
nordrhein
Luftstreitkräfte
Hen
bulgarische
Zer
##fie
Nenn
ordnet
genetische
gelobt
Siebenbürgen
Com
Cham
After
##eß
gewürdigt
Eure
Belange
##marsch
##elf
selbstständigen
kennenlernte
Respekt
Lindau
Konzils
##ssi
Ravensburg
##zugehörigkeit
##stift
##rp
Shō
Bali
schi
Basen
Amerikanische
südamerikanischen
##ignal
##cle
##bri
bewaldeten
Kanadas
unge
fünfzig
Steppen
Gra
Elternhaus
Sozialwissenschaften
Kramer
##tige
enthielten
Gewerbegebiet
Drehzahl
Cr
Cornwall
##furt
##architektur
film
Provinzhauptstadt
Lay
##inkel
##erien
hergestellten
Senegal
Pkw
Orléans
Levi
Fehde
Cran
Abwehrspieler
1719
##öhe
Trieb
Podest
Leucht
Dil
##SE
##stalt
##kowski
##chin
abgezogen
Religions
Maier
Raimund
Propeller
Newcastle
##zeuge
##gleich
pH
Standpunkt
Ot
Geistliche
Anwender
beraten
fliegt
Lippen
AfD
Ästhetik
Phosphor
Aki
1689
##mitteln
mechanisch
lauten
Reiche
Hae
Filmdrama
Briefen
klaren
Bez
##bos
##bezirk
Körner
Gremien
Evangelisten
##tall
Türmen
Sponsoren
Inspektor
Bourg
gewünschten
Hughes
wirkende
moderiert
NRHP
Landesf
überlieferten
erwartete
Gla
##vre
##anti
Lieblings
Abzweig
##nahe
verfehlte
lösten
enteignet
Nash
Komplexität
überwiegende
gemäßigten
Haber
##funde
Wessel
Ci
Zwangsarbeit
Lak
Insassen
##azi
untersuchten
nachweislich
Staatsminister
Mannheimer
Industries
Grenadier
gefährlich
einflussreichen
Maritime
Guild
##TV
##DE
##pro
##onal
pe
Süß
Hara
Cemetery
Airways
##uter
##dio
entdecken
gastierte
##isation
##dle
welt
lu
Full
ent
Tora
Kehle
begrenzten
Weichen
Afroamerikanern
##lier
##irk
letzterer
beherrschte
Nes
Gemisch
Chin
##jn
##fre
##bauweise
##aufbau
ausgegraben
Südostasien
Beschreibungen
Gänse
Freud
137
verdienen
Hochfläche
Geisel
Bun
##ulen
##ean
Albrechts
null
Industrial
##τ
##cheid
reichten
##flo
ausgewählte
Geliebten
Selbstverwaltung
Pollen
##uerung
flüchtete
Schweizerische
Priesterseminar
Pack
Inkrafttreten
Einordnung
Building
Ore
Cincinnati
Bari
##zio
Mordes
Mehrheits
Fraktionen
##gli
überstanden
keltischen
Schweiß
César
berechnen
Eschen
Vorsteher
Krems
##cin
Gregory
1716
##had
##vorgang
##tanz
##dre
Kulturgut
Einheimischen
##ša
##austausch
überspannt
q
Textes
Support
Rosenheim
Diskriminierung
Betriebswirtschaftslehre
Strauch
Fußballverband
christlicher
Nennung
Kickers
1880er
##ech
reist
Hindenburg
unterzogen
fertiggestellte
Unions
Seu
Pfand
Klassifikation
Gram
Fuji
##orts
##gos
##aud
zweithöchste
Interaktion
Abe
##stock
hu
Harmonie
Rhythm
Beschwerde
Außenstelle
Übersch
dra
Deich
auftretenden
Provinzial
Palace
##triebe
##stücke
Weichsel
1672
vermittelte
reden
kultur
einzurichten
Kan
Jü
Amy
##ress
Rex
Ket
Höhenunterschied
340
1450
jünger
Fertig
1570
##dro
RI
Libretto
##šov
Korrespondenz
Außenpolitik
##pos
##pokal
woraus
Vermeidung
Abgas
gesteigert
Ehrendoktor
1705
Leistungsfähigkeit
##lehr
##icher
Pacht
Leone
##pal
vollendete
geltende
NP
Ke
Halbleiter
Anwalts
1728
illegal
Verkäufer
1350
##ović
##itung
##gebung
Pölten
##hri
durchzogen
##künstler
elektro
Etagen
##ochen
##schäft
Info
##н
realisierte
ju
angetreten
Tannen
Sauerland
Rekorde
Bedarfs
##idi
erschwert
Einflüssen
##preise
##chein
entsandte
WE
Volksmusik
Democratic
autonomen
Sandra
Sande
Fakultäten
##gate
verlagerte
biologische
Turk
Schlamm
Claudius
##iw
Tauf
Judith
Konto
Bergmann
Asa
##steine
Wied
Standes
Fleet
##andes
Stipendiat
Savoyen
Ausgestaltung
Arbeitern
##Pa
##ergebnisse
##enha
Triebwerk
regionaler
getrennten
UNO
Kleist
Abgesehen
##spro
trockene
Gebäudekomplex
DEL
##wissenschaftlichen
##filme
Haaren
Fly
syn
Richtungs
Ocean
Nischen
Preußens
Now
Liberal
Lebensmitteln
Homer
Fremd
##л
Nea
Fitness
Fal
##в
##ues
##hol
schnellste
Queens
Federn
##rektor
##reiter
Vorbilder
Variationen
Cen
##usbildung
##malerei
Maschinenfabrik
Clo
Voice
##gründen
verbot
sinkt
Sh
Pearl
Nebraska
Kho
landesweiten
gegnerischen
biblischen
Wasserkraft
Mitt
How
Dortmunder
weißlich
republikanischen
nachhaltige
erfassen
Lebenswerk
##türme
fürs
Eingabe
##uge
##tzsch
##pflanze
regiert
Ostafrika
Niederschlagung
Lyn
GI
##objekte
religiöser
Marquis
Anleitung
##ils
##gewölbe
reale
Nora
Lama
Cola
Angeklagten
formulierte
Thematik
Pet
##jon
fehlten
dieselben
Versailles
##rac
##olge
##lum
wi
Tafeln
Ok
Nahverkehrs
Kou
Dramatiker
Flügeln
##log
##lina
ragen
kahl
Lenin
Lebenszeit
##bb
geschafft
durchflossen
Radebeul
Ostasien
Hochhaus
Experte
Chaussee
Boo
Bartholomäus
##ís
##ähigkeit
Taufstein
President
Gei
Gag
vereinigte
Wurm
Timor
Sepp
Pfingst
sal
Weinberg
Dialekte
beträchtliche
Stahlbeton
Aktions
Akteure
1711
##sim
vorgeschrieben
Wes
außergewöhnliche
##leitungen
Zuchthaus
Steffen
Mönchs
Lai
schwierige
ausländischer
Untere
Sed
Gutshof
EHC
##rou
Rings
Einbruch
290
##iguren
##erei
initiiert
aufgefasst
Heiz
70er
1709
##hte
##eti
##ace
##aca
Zusammenstellung
Sämtliche
Merkel
Lock
Ela
##lee
##ckte
einher
FSV
##ake
zwingend
ri
Psychotherapie
Antikörper
##federn
warb
Taxi
Süßwasser
Rüdiger
Pokals
Doris
KB
Decks
1729
##zia
##fälle
zusammengestellt
Stadien
litauischen
Außenseite
neunte
Spionage
Hosen
##saison
kosten
Vorrang
Dingen
ausgegliedert
Unver
Straßenrennen
Gos
##lp
schwieriger
Intendant
##unternehmer
Gefechts
Kostüme
Klu
##swert
##oben
##holt
##erklärung
SpVgg
Relation
Rah
Musicals
Inspiration
Bagdad
##wende
##olin
riesige
Zit
Inland
GW
herauszu
Stammplatz
Food
##phie
Rechteck
##risiko
##bataillon
Pfarreien
Bd
##ltung
##liegenden
optimale
gewünschte
Trinidad
SBB
Memphis
repräsentative
Stätte
Imperial
##öffnungen
leidet
glatte
Ace
Abbey
##vollen
eigenständiges
Wanderwege
Anfänge
##machen
Freiherren
Eins
Sitzungen
##uhl
aufwändig
Winkler
Henrik
##herr
##gras
operative
Kartell
Cla
##rater
hebt
Ausgleichs
Gefieder
##vat
äußerlich
ki
##ider
Spielzeug
Devon
##ging
weißem
alleinige
Suco
Ahnen
Ähnliche
erschließen
HE
Seiner
Gebets
Emporen
niedrigere
Toledo
##či
##udi
Fürstbischof
##weiß
Mallorca
##mutter
##felden
aufgezeichnet
Neuerungen
Holger
Cle
Akte
Verpflichtungen
Sen
Sad
Gastronomie
1685
umschlossen
kräftigen
##ál
##ichte
Nashville
Mason
Kronprinz
externe
Depression
Ach
##verkehrs
rau
erstrecken
Vikariat
Rechtsver
Messing
##yle
Tours
Secret
Ries
Präsidium
KI
##ory
##iker
dauernden
Initiator
Extrem
##50
münden
##anken
kontinuierliche
erwähnen
ruhen
ausgedrückt
Schirm
dringend
Arztes
##ston
befassen
Rätsel
Lieferung
Leeds
Gua
1580
##ful
wert
Schwein
##uchten
##dri
Wörtern
Herford
Cru
konventionellen
Pö
Gü
##klima
Schafe
1560
##OR
##roi
Qualifikations
Phillips
Convention
Auswärtsspiel
##box
kaufmännische
Schlosser
##ume
##chy
toten
Reg
Perser
Oe
Landgraf
Hohenlohe
##rekord
Schwa
Kenneth
Harvey
1704
##gler
gesteht
Bombe
##ücher
Treib
Massa
Fieber
##äus
##techniken
##eihe
verwaltete
that
tauchen
hinab
herausgegebenen
Unterhalt
Thrash
##but
##angaben
Monti
Massiv
Hasel
BG
möglicher
eröffnen
Streitkräften
Schifffahrts
Corre
##recke
art
Teamkollegen
Schmelz
Mick
Lärm
Gus
##ř
##spiegel
Weite
Variablen
Tamil
Oppeln
Middle
Melodien
Landwirte
grund
ei
Kin
Germany
Stockwerke
Realgymnasium
##tour
##atur
ausgeprägten
Unrecht
Hebel
##kreises
##esta
abweichende
Verwaltungsgebäude
Cameron
##messe
offizielles
Zufall
Th
Jenseits
Bandbreite
##wat
##familien
Stella
Friedberg
1731
Gin
Markennamen
##revier
##olf
Urteils
Para
Alberta
##ák
##pet
##enti
einheimische
Beiträgen
Abhandlung
Č
Oberlausitz
##ual
##rück
plan
denken
Vakuum
Inselgruppe
Geldstrafe
Erholungs
##tts
Lauenburg
Ester
Bankier
Denver
ausgewählten
abgestellt
Wells
Sla
Generalstab
Freiheitsstrafe
##tischer
##ierter
Seitenschiff
##gend
künftigen
Teleskop
##instrument
LE
Galizien
Frosch
Übungen
übereinander
Fen
##schichten
##chtet
##ucher
##organe
traditioneller
Viola
Strich
Rinde
##stufe
Rheins
protestantische
Beg
verringern
##nol
Sheriff
Maut
##kant
Sommers
Marino
Geheim
Foster
Fachschule
##vu
##papier
Heimatort
Anfrage
jo
günstige
Wahlkreises
##kins
strategisch
gehaltenen
brasilianischer
Herrschaften
verschaffen
bediente
131
Tourenwagen
Luftaufnahmen
Erk
1697
##ören
Ut
##sicherung
stärkeren
durchführte
Sekundär
Domain
##sierte
##lä
provisorische
geflohen
überein
ergänzte
Jungs
Becher
##apo
steigende
Cecil
##seitig
##ktor
zurückgehen
dicke
Tigers
Ere
##versicherung
gen
Walmdach
Tech
Schaffhausen
Gerüchte
##chtig
Erlen
##DS
##sohn
##she
##rät
Buchenwald
##üller
meiste
Behandlungs
Hieronymus
Gasthof
Cul
Cob
Beth
1635
richteten
festes
befestigten
Zeugnisse
Distrikte
7000
erzogen
##urkunde
erscheinenden
Ao
versah
stattfindende
definierten
Wrack
Komiker
Erstaufführung
Basketballspieler
##sho
##lmann
Casino
mo
Raumschiff
FH
310
morgens
Satellit
Profimannschaft
Kiss
Hauptver
Beschaffung
überregionale
verlagert
FV
Böhm
zy
vorherige
gewisser
Arbeitskreis
##ortal
##etti
physikalische
Wirkungen
Schü
Sakrament
Remis
Refrain
Jährlich
Federal
##če
Owen
Dora
Aspekten
Pokalwettbewerb
Pfeffer
system
fertigen
Martini
Drum
Bahnhöfen
Absch
verspricht
Motte
Medici
##eibe
##bewegungen
vorläufig
Nepomuk
Amor
zusammenhängende
##ranche
##joch
Hurrikan
Dragon
Calcio
##nski
Taktik
Pun
Kennzeichnung
su
Roter
Avi
weitem
Eleonore
##kis
est
bewohnten
##eae
gesprengt
Vergessenheit
Kruzifix
Heilbronner
##nic
Reiner
##ines
ernst
Jungtiere
Inflation
überholt
Maximum
Fun
Bloch
##ô
##qu
##partien
##omi
Wing
Vorhalle
Faschismus
##oid
##ello
Titelgewinn
Blockade
1702
##oche
Römern
Reduzierung
Mass
##ngebot
Festspielen
Roms
Pyr
Drau
Demonstranten
##rchen
##ej
entsprachen
beliebig
architektonische
Piemont
Oberhaupt
Mind
##rta
##begriff
norwegischer
Spielstätte
##gemeinden
##cci
Übereinstimmung
indonesischen
Ols
Case
Bischofssitz
##öden
Missionare
Makro
Ranch
Bergsteiger
##gion
Daily
Adaption
Stä
Lutherischen
Bog
ökologischen
populäre
bereitgestellt
Teilhaber
##rka
##gur
Weißenburg
Töchtern
Chors
##darstellung
With
##äste
##ción
überregional
Öz
aktiviert
Ran
Hilde
##ulation
##stes
##mast
verteilte
unwahrscheinlich
##lins
sodann
gre
##11
##eitig
Ungarischen
Ostfront
kreuzt
flohen
Steuermann
Routen
Har
gliederte
aufgebracht
Simone
Schleife
Fossil
strenge
Jennifer
##chluss
Spandau
Brock
1726
1707
##oti
stürzt
Police
##IN
verzögerte
ausgeprägte
Skala
Literaturwissenschaft
Hauptt
Hauptgürtels
##dou
##uan
##nteil
öffentliches
elektrischer
Zehen
##äler
sk
schieden
Göring
Burger
##ätten
##hes
mangelnde
Wesel
Opernhaus
Kog
Guide
Epochen
Arche
sendete
Phi
arm
Tierarten
Gnaden
Fremde
Kün
##precher
##gott
nächstgelegenen
körperlichen
gestellte
außerordentlich
absolut
Einschränkung
Bors
Bela
##formel
##dingungen
##chung
vielfältig
unterschrieben
Obmann
##polis
##ensch
##elm
##dat
zi
umgehen
Zealand
1708
##enne
real
gefallenen
Fahrplan
Ego
Anhand
Ellis
Ausprägung
##abschluss
globale
gest
Funktionär
flüchten
abgeschnitten
Fortschritte
Cos
##echsel
##amo
zwölften
eingesch
badischen
Tischler
Reisende
Geschwindigkeits
Ro
Kana
Gebühren
Adelsstand
##tei
Terrasse
Norfolk
Glenn
Urlaubs
Soli
PL
Mas
##üssen
Bundesgerichtshof
Córdoba
Chassis
Ura
DH
antwortete
Unabhängig
Japanischen
Erbauer
##ross
##gewebe
Gesamtweltcup
##ča
##sitzer
Jou
Fülle
##jat
zuweilen
zeitlichen
Jod
Flugzeugträger
##agt
geschriebene
fordern
Tragflächen
Petersen
unsicher
aufgehängt
TI
Sto
Hierarchie
Bauwerks
pa
mbH
jetzige
Unterbau
Rocky
Rhode
Doll
##yas
##mbo
Like
Langer
##ipfel
Verknüpfung
Grundfläche
Früchten
Canyon
eingerichteten
beliebige
Weltcuprennen
Gehör
##nja
##bedarf
##alm
angegebenen
Untertitel
Unser
ökologische
Töpfer
Olaf
##anische
verwies
beidseitig
Ming
Grenzgebiet
##éra
##assade
Wid
Prüfungs
Dong
ägyptische
beeinträchtigt
##tagen
##alp
Unge
Norda
Borough
##union
umstrittenen
entziehen
Versammlungs
OM
Frequenzen
138
binden
angebliche
Unbe
Remix
##dienstes
Neunkirchen
Commons
höchster
Stadtrechte
Deal
Zuflüsse
Schräg
Mitgründer
repräsentativen
Bodens
##äule
Vorarlberger
Siena
Rep
erforschte
Tran
Rim
Kwa
203
##schin
##helfer
Sortiment
Rookie
Kirchdorf
Isabel
Rüstungs
##logischen
kostenlose
Pin
Centro
Albin
##opo
korrekte
fla
Schöneberg
Perm
Disc
Chau
Arc
fließend
Kraftstoff
Konfiguration
Kirchgemeinde
Castell
1622
Ger
Bildenden
##rechtlichen
##nsk
dreier
doppelten
Strömungs
Schlange
Ri
Edmonton
##roda
Sem
Partikel
Künstlernamen
##sso
##alde
Secretary
##musiker
Kranz
amtlich
Absolventen
pol
experimentelle
beeindruckt
Portugals
Gai
##ologischen
##nä
##ents
verankert
neo
erleichtert
NPD
Kne
Ker
Kei
1699
##reuth
##abi
Stellenwert
Archäologischen
##treifen
##gin
Schel
##quer
teuer
letztmals
Startplatz
Indianern
##ffizier
Schwimmer
##kti
erlag
abgedeckt
Patient
Kometen
##regel
weihte
we
Straubing
Integrations
Hofer
##treffen
##cas
ausgestorben
Unterbrechungen
Konsolen
##nae
Streich
Lew
##м
ländliche
Salem
umfangreiches
gefertigte
Luthers
Leih
Andre
Querhaus
Batman
Anthropologie
##tina
##sische
verwüstet
Xu
Grönland
Gesch
##sla
Pfadfinder
Himmler
Ausweisung
Stendal
IB
##ła
##heater
dunkelbraun
Tomb
Cash
##liegende
überstand
ul
Warburg
Gutenberg
Assessor
##ní
modern
einzigartige
Verbrecher
Vatikan
Stress
Print
Kleinasien
Eugène
Enterprise
##rün
##edizin
Hardt
##mine
fa
Teiche
Goslar
##stri
##sstelle
mancher
Thorn
Reutlingen
Res
Manöver
##jugend
Reisenden
Kollektiv
Gütersloh
Amateure
##ike
ra
informieren
Konferenzen
Associate
kalte
Trinity
Security
Anwendungs
##iu
##gia
##ghe
fehl
Gmina
Buchhändler
##kinder
##aufgaben
Wahlkreise
Vorburg
Portugiesen
Generalversammlung
Dampflokomotiven
Artepitheton
##thi
Ethnisch
Alessandro
Wasserfall
Cas
##lge
##cou
Resten
##ünder
Säge
Dani
tötete
Teu
##tschaft
Teppich
Saum
Aqua
##latten
kra
Verschwinden
Orgeln
Mk
verbesserten
Ural
Schotter
Fußballspielen
FR
##ław
##onis
zukünftig
Versicherung
Pyramiden
Kadetten
Enkelin
sogenanntes
entgehen
Schra
##ray
Voigt
Vienna
Organismen
##km
pädagogische
exakte
Innovation
##niederlage
brandenburgischen
Schöpfung
##logy
##behandlung
Techniker
Stütz
Kill
Highschool
##SC
zweitklassigen
lebens
charakteristisch
Turbine
Oc
FL
Cour
mitwirkte
Tä
Small
Exklave
Delegierten
Dale
Wolle
Westfront
SWR
Sollte
Fundamente
##ohe
Airbus
Adelheid
schmaler
Kom
veranlasst
NI
Kum
Prop
Helga
ablegte
Zubehör
3500
##trasse
Synchronsprecher
##hing
##gru
markante
Plantagen
Parc
Henne
Böse
Antenne
Anal
##staaten
##lian
untergliedert
Tales
Severin
Palma
Zuflucht
Sr
Mieter
Farmer
Emmanuel
##oku
##heil
Works
OR
Jahrtausend
##oor
Kal
Gate
##äer
##kasten
##handwerk
##erne
##deck
Sho
unerwartet
entworfene
Emp
Befürworter
Altarraum
##lem
beurteilt
Chelsea
##ewa
##ekretär
Tränen
Dachs
Clay
##eon
Ste
Kemp
Jesse
Enc
Onkels
Moh
Ewald
musikalischer
gezahlt
Ou
Qua
Montgomery
Map
Infanterieregiment
Nicola
Jos
sin
konsequent
führender
Yorkshire
Sportplatz
Selb
Obama
häufigen
Konsequenz
Karen
DOS
Astro
##ziele
##urz
Frist
WWE
erbracht
Pixel
##IT
##imo
enormen
Zeitgleich
HR
Gestaltungs
Empfehlungen
Bedeutungs
##folgen
Grun
Fisher
Besatzungsmitglieder
Aman
Adelaide
Seminare
Seeb
Rub
Loe
Esslingen
##übergang
evakuiert
Kä
Wee
Gottlob
Amar
jur
Politikern
Kompositions
##kle
##elb
##kalk
##rechen
anlegen
Kelchblätter
GC
##ngi
bekrönt
Oberland
Edo
Wissenschaftlicher
Staatsrat
Hr
##räder
Duc
herstellte
Redaktions
Parma
Jade
Grade
kur
analysiert
Lebensdauer
Kreuzgang
Hygiene
##taler
verstreut
kalten
erd
Mena
Deportation
Autobahnen
Regenwald
Gesprächs
Dampfer
##tio
##münde
Perl
Bundespräsidenten
##nell
##mini
##ituation
ten
Nikola
men
VT
Testaments
Souveränität
Grundherrschaft
Gries
##landes
une
che
Geläut
Cir
Cicero
klinische
Jahrgang
Harbor
Dementsprechend
##trieben
##tod
##stel
weltliche
Wallfahrtskirche
Eil
Angewandte
##hörden
kristallisiert
Eile
##ār
radikalen
##yna
##eiche
##ause
Dol
synonym
Ingenieurs
##anteile
lateinamerikanischer
Sep
Gong
Flüchtlingen
kommandierte
Wagens
Thal
Saarlandes
Favorit
Blum
Aller
Nuntius
##ennen
überdies
natürlicher
Wulf
Piet
Milwaukee
Ingenieure
Grove
Fundort
Cau
Anfängen
freiwilligen
Spätmittelalter
##vorstand
##regionen
##esten
Stromversorgung
BT
nötige
Staatspräsidenten
Nachbarort
Hos
Gee
430
204
##marken
vertreiben
Vu
Lucy
Harburg
Wiki
Weisen
VE
Abschnitts
Viren
Verlages
152
vorletzten
Westminster
Mandel
##holm
Tau
Lat
##lima
geladen
##rik
schlichte
einfaches
Mariens
##upp
klinischen
Urheber
AFC
##kom
angesehenen
Vale
Ligaspielen
Fraktions
Vent
Schwäbischen
Schaffens
Osaka
Medikamente
Cello
Arne
Adligen
##over
##iko
Manifest
Hildegard
Wettkämpfen
Expeditions
Tags
Naka
##xy
##festival
Forces
Buslinie
Stadtbefestigung
Tama
Spaß
Reim
aneinander
##kop
##ento
genehmigte
Rassismus
Both
za
farbige
Fliegen
##rina
##kha
##inus
##bf
##bei
revolutionären
Pil
Neuro
Filmpreis
Angels
geschossen
Nationalliga
Kunstwerk
Gy
Annie
##IC
Überführung
ausübte
Zehnt
Warm
Bänder
Pisa
##paare
##br
tropische
Sweet
Sag
Regent
Bere
Badischen
Anzeichen
##lick
##abkommen
verlegen
Qing
Plattformen
Gmünd
Aurich
Amadeus
##hum
##eute
begeben
Zuges
Scotland
Nutzlast
Katz
Fabian
zehnte
Jaguar
##urn
##side
sogleich
krank
heimische
gehaltene
Store
Kane
Clarke
##uchi
gegnerische
Reichsmark
##я
Vorderflügel
Naturparks
##nsis
werdenden
Währungs
Steigung
Dion
##40
mon
Zufalls
##olis
##iya
schickt
bräunlich
Araber
Aga
Wick
Skiweltmeisterschaften
Ned
Holt
Hendrik
Gens
##éri
Verlassen
Kriegsgefangene
Großbritanniens
Abfolge
##verzeichnis
volks
gerichteten
Juri
Geboren
136
Wag
Typisch
Rome
Grundmauern
Enns
Boom
Bahnsteige
##ido
Mythen
Markenzeichen
Indianapolis
Charakters
##trich
Us
Städtische
BL
1703
##osch
##hend
thüringischen
junior
Seilbahn
Lyriker
Krankenhauses
Ausweitung
vornehmen
repräsentieren
Unternehmensgruppe
Tambon
Singen
##î
Sokrates
##rieren
vollzog
materielle
schnellsten
geraden
Kristalle
Bandmitglieder
##yre
##evi
ser
romantische
meinen
integrierten
bewirken
Productions
ho
Fachzeitschriften
##tiefe
##inien
jähriger
Türk
##tica
illustrierte
João
Aufforderung
##mid
erwachsene
Tres
Schiffbau
Kostüm
Kirchengemeinden
##ästen
sportlich
Klerus
Kit
Fernmelde
Einst
Überraschung
beachtet
Sportf
Jur
Fahrwerk
Lücken
##RS
Hort
Gambia
##artner
bearbeitete
1590
##pre
Schaft
Radius
Lokalbahn
ISS
Bestseller
Aufarbeitung
##äl
feindliche
Starts
Mä
Gefährdung
Auferstehung
Verrat
Bie
##mig
entfiel
Viscount
Drittligisten
begibt
Hopkins
Amateurliga
beliebter
Rem
Hün
Amtsinhaber
stützen
schicken
kreisfreien
##runnen
rege
niedergebrannt
Novo
##immer
begonnene
Girls
##lub
lutherischer
Westpreußen
Schur
Lehramt
Glass
Gladbach
Aufschrift
##taat
isolierte
Round
Dreis
##biete
sendet
abgesagt
Richters
##rap
##erb
Älteren
ren
129
##ession
beschuldigt
Wör
Rundbogen
1706
überlebten
Vermarktung
Ili
Dau
##gna
externen
dargestellten
beendeten
Mosambik
Kl
Goll
Katar
##EC
##hör
TG
Stations
Schal
Bourbon
##lini
problematisch
Wiktor
60er
##nke
##krone
##eigenen
stilistisch
Military
Factor
Direktorin
Garmisch
Eisenbahngesellschaft
##icke
##hua
Schwarzer
PO
Leichtathlet
Kliniken
Ave
##termin
scharfe
Maud
wiederaufgebaut
feuchte
Investor
Cohen
Beckens
##eschichte
##aku
Zustands
Wel
Vizekönig
PlayStation
Kaufhaus
Ek
##tudium
##av
dürfe
VC
regen
Vitamin
Falkenstein
äußert
Fran
Beschuss
wenden
Marl
Kreisgebiet
Hase
Geltung
##überwachung
##nern
##ischt
Verlierer
Kanu
##onnen
bebaut
Tragödie
Ler
##urger
##sat
Willens
Powell
From
Altars
Überwachungs
Väter
##ext
multi
215
bürgerlich
Eisenbahnnetz
##vertreter
Zaun
Wund
Neb
133
Skr
Pho
Flat
Oka
Bestellung
144
##lka
##ehmer
begünstigt
Kunsthalle
##ène
Stadions
Schulabschluss
##с
##scheid
gem
erb
Chart
##suche
stabile
Europastraße
Dorfbewohner
DK
##torf
##mbe
##eichnung
niedrigeren
gebürtige
Lon
Jun
Ausflugs
##üler
Teufe
Geb
##yth
verraten
grenzte
Soziales
Slawen
Happy
durchs
braunen
Zhang
Staatsarchiv
Bod
##problemen
##aj
Tek
Sporn
steile
regierenden
Studierende
eignen
Thessaloniki
Bausubstanz
##eistung
Steig
185
erläutert
Ruhestätte
Lid
Kolonisten
##kä
gestoppt
Vormarsch
Verwandte
Besatzungs
##ło
##ldung
##irkung
ff
umfangreich
sechsmal
Snowboard
Netto
Int
##uben
##objekt
vierter
Oscarverleihung
Niederschläge
Abnahme
göttliche
Vet
Sterns
Sojus
##GA
##ändige
##eht
beobachtete
Unterstützungs
Diakon
##usse
##dai
##berge
leitender
Verschiebung
Substrat
Dmitri
##lew
Pea
Mus
##uy
religiös
notiert
Ordensgemeinschaft
Kahl
Gesandten
##uld
##ransport
UA
Snow
Metzger
Hein
Champagne
Brigadegeneral
##pli
Laboratory
Ahmad
diverser
Geological
Erliegen
##ystemen
Wanderer
Schlesischen
Immun
inhaltliche
hy
geäußert
dauern
Stolz
Kurfürstentum
Japanische
Gottheit
##spruch
##illo
vereinfacht
Fragestellungen
stimmt
Sund
verbannt
fremd
denkmalgeschütztes
Westerwald
WI
OK
Ernährungs
Engelbert
kap
Curtis
Cloud
reiner
Wet
Toskana
Südtiroler
Landebahn
auslösen
Abends
##oso
Vo
Montpellier
##tscha
unterschiedlichsten
Staatssicherheit
Erfurter
Direktion
##ь
ausgestattete
Aufbauten
bewältigen
##höhen
markanten
Kontinental
##mmt
Sheffield
##р
##gnet
##bachtal
Profifußball
Hul
##vertretung
##tragen
##core
Salze
Rivalen
Halbbruder
Brü
gestört
ganzes
Wolga
Inhalts
##ych
##wache
abends
Enzym
##lade
##inski
##enheim
Versprechen
Katalonien
Baumaterial
unterquert
Teenager
Milan
Andrei
##ichs
derjenigen
Schwäche
Reichskanzler
Penn
##röhre
warme
verfolgten
VO
Sey
Industriellen
205
1654
##ři
##gem
Expeditionen
##ngton
##echer
englischsprachige
ausgerufen
Vorgehensweise
Meißner
Concert
Berufe
##werden
##shof
##andlung
Generalgouverneur
##otte
##erle
see
em
##30
Rhetorik
##ments
##indi
beabsichtigte
Produktionsfirma
Kro
Dry
DO
Schreiner
Rotation
Mys
Letzter
90er
##bekämpfung
heirateten
gestellten
Lilien
Honorarprofessor
##üren
drittgrößte
Wikinger
Spielers
Hofrat
1610
##röhren
halber
Torschütze
Sarajevo
CL
Bahnhofsgebäude
##hra
Unschuld
Belo
beschäftigten
begegnete
Snooker
Renate
##rechtlich
##hauptstadt
Weingut
Kraftwerke
Kob
Jemen
Gerard
##phe
PKW
Friesen
Bf
##emi
Originals
Nachbargemeinde
Berechnungen
##mati
Jungsteinzeit
Exponate
Stahls
Staatsgebiet
Naturdenkmal
Gabel
Einerseits
landen
Gebrauchs
Ren
Patriarchen
NR
GD
Class
##ämpfer
professioneller
afrikanische
1675
##metrie
bedeutsam
Melde
Avantgarde
Relegation
##spannung
##dampf
Vietnamkrieg
Geschehnisse
umgerechnet
Uganda
Nobelpreis
Arbeiterpartei
##bsch
sorgfältig
Staatsangehörigkeit
Rost
Poll
Clans
Abmessungen
##volk
##technische
stationierten
Stadtarchiv
SW
PE
Ghost
##yang
##vir
verursachten
Kartoffel
Gat
Dah
Chorraum
1631
aufrechterhalten
VG
Civil
##ME
veraltet
Gir
Enz
##cup
ausgerichteten
Ama
##gehen
##format
besessen
ausgehen
Niederländischen
##erm
Senke
Roi
##umi
##smittel
##ery
durchlaufen
Oberf
Heeresgruppe
Fluor
##sma
##grat
Pieter
Merk
Diamanten
Kni
##80
##tn
bewirtschaftet
abgegangene
Hochebene
1625
##ega
nachempfunden
gu
beliebtesten
Freigabe
##unnel
mexikanische
Herstellern
Dienstleistungs
##bridge
Tschi
Touren
Namensgebung
Lautsprecher
Id
Benny
späte
feinen
Wochenzeitung
Lib
##CO
##ländische
Peace
Ilm
Baureihen
##gleis
einsetzt
Okzitanien
Körpergröße
Bara
##thor
##moni
freigesprochen
Mia
Begeisterung
##run
##gliederung
männlich
Pf
Este
Cousine
Serra
Schmalspurbahn
Gail
##riff
verringerte
nordischen
böse
brachen
Geschäften
##onds
##ketten
Taxon
Staff
Matsu
Archäologe
##west
##vision
##isierten
rec
Richards
Ne
Eigenständigkeit
1661
##ührt
##ufnahmen
vereinigen
Vermessungs
Rü
Leb
Innenseite
Festlegung
Bundesverband
Sale
Sch
Pari
##versch
##kot
##geräten
##best
geltend
Pfad
Palme
Gelege
Gebr
Eheschließung
##ätter
grenzen
deine
Prost
LC
Haftstrafe
A4
1603
##formation
aufwendig
Grundsätze
Besten
134
##peri
kümmert
Underground
Len
Westafrika
Wirk
Straßenbau
Mittlere
Köpfe
##swa
Leslie
Dozenten
Aza
Abo
festzustellen
Standardwerk
Loge
Gloria
##sprozess
##oral
Lesungen
##RO
Ven
Slo
Deutz
1480
Tansania
Oberkommando
##RI
##sol
##EL
aufgestellten
VB
Pel
##ärzte
##sinn
wiegt
Vice
Rheine
Offenbarung
Fai
Apfel
wegge
Weges
Rangier
Herne
Hab
##anto
menschen
Trost
Merz
Gräberfeld
##pri
##nähe
Psychiater
Nico
Hardy
Assistenz
##hia
korrespondierendes
Schott
Mühe
Hack
Cra
Champ
##tit
verbreiten
ständiger
Wohlfahrts
Tribut
TM
Glieder
Dominanz
ungeklärt
ukrainische
Organismus
Nordwand
Koffer
Ah
##ütze
##isto
Trient
Hauptteil
Gris
Eber
Baumwoll
Wasserturm
Drive
##radio
##ario
Jungvögel
Gibson
Bauhaus
##ubi
riss
Herd
Gegenstück
Datenschutz
##yb
##bas
geologische
are
Schwedens
Malo
Kühn
Koro
Grabstätte
Pon
wanderten
interessante
Woods
Tou
Third
Mino
Jährigen
##verlag
vereinbarten
Sektionen
Fasern
Anno
Schauspielern
Lab
##geschlecht
Verwaltungsrat
##FA
##lotte
Screen
##rem
##einigung
umstrittene
bedrohte
Phra
##firmen
##bern
##autor
Zusammenfassung
Wellington
Sponsor
Schulte
Haydn
##äte
##chulen
Vorliebe
Journalismus
Jong
Funden
##uit
##kehrs
intensiver
günstig
Ru
Haiti
##tuch
##sab
##jes
breiteren
##vy
##sic
##pitz
##nant
Mahler
Lebensräume
Kultura
Eisenzeit
indigenen
beeinflussten
Hausen
Befehle
Bayerns
lineare
kommunistische
Gisela
##ünde
Zir
Dienstes
Auen
vorkommende
seitliche
Posta
Haube
FU
##praxis
lit
Jal
Hö
Hufen
Anni
##lok
herausgebracht
abgeschlossene
Ricardo
fra
blut
Rivers
Linné
Electro
Mot
Gruft
Arp
##lokomotiven
uner
originalen
neugotische
ka
Klinge
Hindernis
Chap
ewige
armen
Verdienstorden
Thur
Kart
Jacobi
Check
Stadtbild
Riff
Endstation
durchgeführte
Ono
MR
Dramen
1684
angewachsen
Lö
Teilnehmerfeld
Arminia
treiben
fälschlicherweise
abstieg
Wintersport
Kür
Jana
Hauptdarstellerin
Arbeitskräfte
räumlich
##then
##jekt
bloß
Newport
Nero
Mittelschiff
MAN
Kunde
Bona
##ór
margin
Steil
Gleichstrom
1698
##ður
##cer
beiderseits
allgemeiner
Wölfe
Lux
Know
235
##hur
##gten
##app
vorzubereiten
Vr
Mama
##top
##annung
nm
beschleunigt
Nei
Flossen
Emigration
##enbe
mut
Warte
Nis
Pres
NW
Koh
Guss
##pfel
##kawa
##gewinnung
praktiziert
Wechselwirkung
Sigmaringen
Hecken
Ehen
unzureichend
Verdienst
Soloalbum
Pyro
Brei
Bezahlung
##darf
gesenkt
beseitigen
##tius
Kna
deckt
beschränken
Bryan
##rungen
Umfrage
##utt
Zweikampf
Beni
Arndt
##zwecke
##schar
überdeckt
Thurn
Puccinia
Cox
Sekretärin
Rust
Dob
1572
außerordentliche
alternativ
Schuldner
Levin
DEFA
##anger
serbische
heim
gefällt
Neubrandenburg
Leut
FO
eingebettet
Mate
umzusetzen
Sulzbach
Pumpen
BSC
##ção
##bend
Koordination
Ante
Townships
Staudamm
Cyclo
##usschusses
##dert
Kamin
Julien
##tationen
Heiner
Fie
##EN
##chreiber
extremen
erfand
Tendenzen
Zweigen
Trompete
Nationalteam
Jor
##llig
Hank
Gesetzgeber
Unterkiefer
Government
Fjord
é
präzise
##sver
zurückge
Bennett
Augenblick
1656
##llan
##hofs
É
Triebe
Privileg
Fließgewässer
dichte
Tem
Emily
Bundespräsident
1628
##tiert
verlangen
Innenausstattung
Elsa
Cari
Agency
950
schottischer
Gesteine
erwachsenen
Emilia
Einge
Betty
Batterien
Schaumburg
Ree
Moderatorin
Kantonen
Ino
Hera
##mé
effektiv
Schülerin
Mausoleum
Kubikmeter
Herschel
##ämpfen
##iffen
##chsel
Vá
Stoffen
Neugestaltung
Flügels
Tir
Kita
Kahn
Amberg
syrischen
kombinierte
bedeutendes
bed
aufzugeben
Schwe
Pad
Damaskus
1870er
##sthe
##rmt
still
geometrische
RNA
Molekül
LG
Forts
##rug
Sternberg
Kriterium
Amtsantritt
##phil
abzweigt
Youth
Dud
212
##zza
##unfall
verdeckt
Strophen
##riedhof
##erren
zentrales
tagsüber
rückgängig
Enteignung
##staltung
stimmen
kunst
elektrifiziert
Studienzeit
##tests
##ental
Kau
Diet
Cin
Bram
Algen
##yst
##uhren
Sprengstoff
Heils
Gon
Einblick
##tir
##ebel
Trümmer
SGB
Elektrifizierung
Amazonas
wog
unterdessen
Verlusten
Partnerin
Mile
Hed
1693
##üll
##kler
Urin
Sanskrit
Kirsch
Erinnerungs
Dänen
Arrondissements
##nitten
aufgesetzt
Rochester
Neugliederung
Lösungs
Ell
Balkon
1629
Effizienz
Bambus
##ù
##plattform
##leck
##gehäuse
Drake
Tok
XV
Str
Program
##arischen
aufhalten
Wirkstoff
Wesentliche
Tatsachen
Shell
Scheune
Altmark
##ence
Zittau
Ortsvorsteher
MV
Hz
Bamberger
##oul
##haftigkeit
##ads
##abf
schätzte
fungieren
Sparte
ProSieben
Ostg
Hintergründe
Melchior
Marin
Mah
Justice
Bergs
gescheiterten
##vater
##kante
##handlungen
fragte
Sis
Gaius
Fol
##ulus
##gri
ta
anderthalb
Konstruktionen
Kast
Banks
langsamer
kriegs
Vö
Ortsbürgermeister
Harp
Gew
Finanzierungs
##pes
##mpo
prä
Dh
##ümer
hunderte
Superintendent
Sonn
Rohstoffe
Nektar
Eingriff
Crawford
##bilanz
überlieferte
pl
Uli
Kla
##informationen
zusammenarbeitete
con
##tchen
warmen
Streicher
Spanische
Sava
Rangliste
Endung
##tho
durchsetzte
Ris
Individuum
Witz
Ulrike
Hexe
Grä
Dieselmotoren
Meinungs
Lur
Kunstgewerbeschule
Bevölkerungswachstum
Bergleute
unregelmäßigen
Kugeln
Gestalten
Fünfte
Bre
##uc
##tücke
##own
anbot
NC
Honorar
Begabung
##ladung
##ket
Sidney
Hermanns
Flottille
Blank
##rufen
##onic
Sediment
Saba
Horse
Gleichstellung
##ritik
##lberg
##gü
##fähige
slowenischen
Kurier
Fakten
Arrangeur
Amtsgerichts
275
##ört
##tera
##bli
gesamt
dreischiffige
Too
Reichen
Krankenschwester
Dock
##tori
##ière
gebogen
angehoben
Dunkelheit
Paarung
Kleiner
Kabinen
Hem
Cluster
Castel
akzeptieren
Wirtschaftsgebäude
Plata
Jahrbuch
Gefäße
Erasmus
##xte
##svor
kräftige
analoge
Versteck
Mitternacht
Körpergewicht
Einsatzes
Lex
Erträge
Electronic
##zyn
##gesang
rei
Ligue
##örmige
##unds
Verwaltungszentrum
Lun
Bereichs
Feuchtigkeit
Eugene
Venture
Android
##tell
Öffentlichkeitsarbeit
kontrollierten
Zunft
Opp
Mobilfunk
##klinik
##arn
anbietet
Sle
Karo
##lapp
transferiert
Lauter
beliefen
Vampir
Rog
Regimenter
Förderverein
Betonung
##iso
##cit
nutzbar
Württembergischen
Ritterkreuz
Militärregierung
Vin
Schmitz
Akzeptanz
##zid
Seel
Kontrabass
Gro
Campe
Birgit
Beeren
Alexei
##verd
enttäuscht
Stop
Sanders
Inszenierungen
##zki
##sek
##schine
kontrovers
gold
gewonnene
Volkshochschule
Verzögerung
Sommermonaten
Schwedischen
##ecker
sicherten
mitgewirkt
bekanntes
Tausende
Hinrunde
Hertz
stehe
Trö
RF
schlichten
Linsen
Horrorfilm
Archäologische
1623
##pfad
grauen
erwarteten
Hessische
##Ra
erlangten
Operetten
Kampfes
Geldern
##yd
##leb
starkem
erzeugten
Leinen
Dae
Bata
##rieb
##hie
Schmier
Musikwissenschaft
Delaware
##cat
##ativen
Nuklear
Kath
Joel
Alli
1686
##ull
##aco
verkehrs
Win
Rezension
Phänomene
Blöcke
##stell
##dampfer
verschwanden
Theatern
Pak
NCAA
Lead
Brandenburger
##offe
##mpa
dokumentieren
Tageszeitungen
Partners
Gad
##nhof
psychischen
Trierer
Gegenständen
Essex
Ert
##fasern
bild
arbeits
Begriffen
##darstellungen
unabhängiger
Lies
Katrin
Hari
Flusslauf
Feldmarschall
##wissenschaftliche
##usion
##rste
##lai
##kraftwerk
##ehrer
strebte
passt
Tracks
Moni
Missbrauch
Anweisungen
Also
Abi
Nachnamen
Integral
Giacomo
Fus
Abspann
206
##chle
verfallen
Habitat
##wappen
##enda
tschechisch
ausgebaute
Zähl
Ec
Auflistung
zusätzlicher
schwanger
ordentliches
Stick
Nackt
Eye
##umpf
##nnt
denkbar
Einw
##prung
Weisheit
Mira
Deh
##renze
##brücken
Schlosspark
Motion
Johanniter
Henderson
Giu
1621
neuesten
Fußboden
##ruder
formale
bemerkbar
Stils
Rha
Pérez
Pegel
Glu
Dämonen
##erson
Ökonom
einflussreichsten
Täler
Gutachter
Gef
oblag
Philharmonie
CBS
##route
geo
erzählte
Fix
Bereitschaft
1652
##än
##uhe
##pekt
##pas
##gentur
stehend
flieht
López
BF
##älder
##roy
pan
Wiedergabe
Kasernen
Haager
Enten
##ylo
Weltweit
Price
Brooks
verschleppt
rettete
fortsetzte
Erfahrungs
Dünen
##ture
1664
##rakt
##gis
##12
##umfang
##aupt
profitierte
Wa
Plo
Mandats
Eingriffe
Charta
##verkauf
ausgeschrieben
Vic
Registern
Lori
Št
Gegenspieler
##dig
wohingegen
sp
radikal
naturwissenschaftlichen
Edi
1667
1526
aufwies
Sechster
Katholizismus
##hasen
leistet
Zuschlag
Wünsche
Speck
Sinnes
Rotations
Hummel
##hnung
antiker
angestrebt
Theodore
Gill
ostantarktischen
heiratet
Rollstuhl
Lys
Half
González
Gewinne
Events
Bever
Verde
Studiengänge
##aine
gängigen
erloschen
Erhalten
##chl
Wikipedia
Triple
Sprecherin
Erm
Ces
##olizei
##illi
gedrängt
Ziegler
Regelfall
Korrespondent
Freedom
Erwärmung
##haber
##effekt
erschaffen
einge
Rohrbach
Qi
Milieu
Kanon
Gruppensieger
##uts
##busse
##aug
vermeintliche
Skip
Canterbury
##usz
##uru
gesteckt
alphabetisch
Merkmalen
Manila
Jakobus
Hersfeld
Asian
neuro
Wandmalereien
Persien
HI
Freguesia
Entschluss
Beutel
##bergen
sa
integrieren
##zione
überragt
Pana
##pil
##opa
##jk
Zahlungen
NH
Aussichtsturm
Anstelle
1529
Skizzen
Gleichheit
Assistentin
141
##й
##oke
##enstein
verschrottet
jugoslawischen
Children
Alternativen
##dische
kalt
betrachteten
Warn
Gelehrte
Dha
##mina
Till
Süddeutschen
Subs
abgetreten
Kö
Freiwilliger
überprüfen
Vatikanischen
Smart
Lud
Boi
##card
end
Wiederholung
Filmfestival
##yen
Wide
Ulmer
Beschleunigung
##inheiten
##ffekt
Pioniere
Ireland
Australier
##ime
akzeptierte
Korallen
Konföderation
Gruppierung
##auswahl
bevorzugten
Großgemeinde
Carri
Masch
Jacobs
##kit
feierliche
detaillierte
ausgebildete
Zeller
Schuhe
Panther
Nantes
Lithium
Io
Gibraltar
##kka
1679
##afel
Impact
##ská
Lem
Ig
Client
##rtigen
##mberg
wartet
Untersch
Nebengebäude
Kameraden
##št
##zismus
##rein
##moos
##lad
überwunden
empfiehlt
Pou
Domingo
##eilung
Pani
Kno
Kapuziner
Eiern
C1
Bezugs
Hartmut
##nver
##ivität
formell
Magnet
Jugendabteilung
Forschungsa
##oko
##ior
##hä
Umlaufbahn
##wirt
geleiteten
Sichtweise
Puppe
Greif
142
##rell
##ntrum
##datum
irischer
ch
Puch
Kosaken
Barbarossa
##lsch
liess
Kaiserreichs
Welterbe
##zte
##bremse
wechselnde
separaten
angeordnete
Omnibus
Nordrand
Gutsbesitzer
Feierlichkeiten
1692
##alk
Raab
Milton
Baumann
##zsch
Überlieferungen
göttlichen
Ea
##verarbeitung
##säule
##störungen
##inspektor
gelernt
Radi
Anjou
Anderen
##linik
Memoiren
Hunsrück
##gesch
##angs
dazugehörige
Metropole
Afroamerikaner
##smo
Taxis
Oberschicht
Hameln
##artikel
ausgedehnt
auftretende
Michaelis
1536
posthum
Streben
Nicaragua
Muschel
Genau
##tube
##gestalt
##fal
Step
Sos
Hecht
warm
Atti
##xid
eingehalten
abgeschlossenen
Tam
Amphibien
##20
neutrale
hand
durchge
Aktiv
1694
##ows
bedacht
Talk
Genom
Bub
Bauteil
##element
Kenny
Hürden
Goldberg
Geruch
Burke
##feldern
##fache
perfekt
linearen
Jensen
##ärten
modifizierte
Thi
Ster
##lige
##erst
##aschinen
que
einmalige
Solist
Langstrecken
Etage
Drehbücher
Det
Cuxhaven
##röm
##itäts
Vorhandensein
Supreme
Penis
Konsortium
Grabungs
Flöte
Britische
Befehls
##atik
Gali
Eintragung
blass
Gutsbezirk
Divisions
Baustil
##zek
reicher
bedingte
##ël
Add
##kno
Anf
##inga
li
Mack
Glied
Eller
Cath
Ausarbeitung
##arsch
zweijährige
drückt
dichter
dia
basierende
Steinh
Kambodscha
Grundgesetz
Betätigung
Architekturbüro
AU
1555
##sack
abgewickelt
Waisenhaus
##parlament
##boote
Tatra
Neptun
Judo
Ballon
##erde
##bilität
parlamentarische
Zwillinge
Meh
Body
##orium
##handels
##eal
Richt
Pendant
Buchstabe
Anstrengungen
##hebel
Popular
Furcht
Telekommunikations
Sobald
Schmied
Ringel
Ahmed
211
##chon
visuelle
Hol
Gesandtschaft
Felle
vereinen
ausgeglichen
Postamt
verborgen
konkret
intra
Linzer
HF
Freiherrn
Exposition
##vent
##phen
##lius
Verabschiedung
Thomson
Schütz
Monroe
ed
aufgeführten
Zielgruppe
Ori
Einfahrt
##rá
##adi
chi
abzusch
Sängers
Spreng
Lina
Landgemeinden
##münster
zugehörig
resultierenden
kri
Dialoge
überfallen
Nü
Chromosomen
Ano
222
##äßig
##wehr
Wertheim
Veranlassung
Monde
Lynn
Computerspiel
Bereitstellung
##zahlung
Trompeter
Feststoff
##sphäre
##gard
ungewöhnlichen
Reuter
Kingston
Kasan
Anselm
##aktivitäten
vergleichen
konzipierte
##ę
##stin
vi
steuern
problemlos
Uk
Rent
##igkeiten
vermeintlich
gegenwärtigen
erfolglosen
Sensoren
Heimatmuseum
Erzähl
Coverversion
verarbeiten
NK
Lucia
Landesgrenze
sukzessive
freischaffender
Dauerausstellung
##tärke
String
Luna
Jets
Bam
Andenken
##hlung
musik
Moro
Krypta
materiellen
Beiwagen
##sde
interpretierte
angemessene
Kehr
Groningen
Eigentums
DD
##üro
##utter
Recherche
Landesver
Bregenz
Bildnis
195
##zhou
sicherzustellen
heimisch
Siebenjährigen
Roz
Robertson
Rea
Medizinische
Karriereende
iur
Sec
Reinigung
1676
1633
1626
dachte
Bauform
##summe
##jö
weiterzu
gewöhnlichen
Iserlohn
Dinosaurier
Barre
##rni
experimentellen
erworbenen
Verlage
Stabilisierung
Napoléon
Kreisreform
Bezirksgericht
1547
##uns
Natal
Kirchheim
reichs
Sperre
Schlachtfeld
##kli
geistig
Forschungsinstitut
##ngu
Olympic
Horizont
Endo
umfassten
modifiziert
Universitätsprofessor
Lehrbeauftragter
Einstellungen
Duncan
Deswegen
Chuck
##situation
##altet
eingerichtete
Mazedonien
Kunstf
Gans
Crow
relevanten
knüpfte
Schadens
KM
Dru
Drew
Debatten
##rds
verhält
kämpft
Musée
1890er
143
##lsdorf
Moers
McLaren
Generator
##kranz
Vizemeisterschaft
Havanna
##roni
bloße
Raw
Bundesverfassungsgericht
Atari
##smaßnahmen
kraj
##deutsch
entnehmen
Schanze
Pistole
Fish
Doc
##verbrauch
Guan
Buchhandlung
Ber
Artefakte
##ml
vormaligen
Volkswirtschaftslehre
Symmetrie
Kör
Ankündigung
##labor
##glocke
##aktionen
Wohnhäusern
Samp
Renner
Adressen
Verkündigung
Spezies
Blocks
Bitter
Angelegenheit
##icus
postum
Therese
Radfahrer
Präsidentschaftswahlen
Murr
Lis
Kriegsgefangenen
Erstflug
Argumentation
Grimme
Eingangsbereich
1695
1668
##NE
##lischen
##felsen
vereinigten
Myo
##verträge
Zoologie
Verstärker
Neiße
Historisch
Anfangszeit
##udien
Voraus
Pola
Entsprechung
Bac
Baba
##oin
##nam
##kult
Wasserk
glänzend
Schwankungen
Mayr
##nio
wild
1681
wilden
dramatischen
Kehl
Fußballliga
##show
Öffnungen
sozialdemokratischen
son
Tagung
ETH
Freundeskreis
Erkenntnissen
460
warnte
Träume
Phantasie
us
bio
Norweger
Jac
Grabhügel
Chim
Boa
betreffend
Liszt
Blaue
##chlorid
Verfassungsschutz
Nietzsche
Hierdurch
Gä
##unterschiede
##deckel
##clubs
abgegebenen
Strafrecht
Nordhausen
Malereien
Granat
Flu
weitgehende
sporadisch
betätigt
Schalter
Nos
Mod
Minneapolis
Kama
Akustik
##uke
##tine
##regelung
Zentralen
Wilfried
Veranstaltungsort
Uppsala
Zauberer
GPS
Bildende
##mia
##endungen
Reid
Gleisen
Erdoberfläche
Adress
##weig
##rda
##lation
stu
physische
großteils
eingefasst
Formationen
Davos
Suite
Lipp
##verfassung
durchweg
Zentrala
Naturraum
Dubai
Dip
Dietmar
freiwillige
##ützen
vermeintlichen
Terre
Latin
Hoppe
##fraktion
biblische
andauernden
Hor
Anlässen
147
##hom
Zunge
Oz
1687
1682
##sgrad
Überleben
zahlenmäßig
separat
Martina
##sorgung
##edo
eintrat
bspw
Wonder
Sporthalle
Nissan
Cow
Belohnung
##tek
##prop
##jin
##denz
anschließen
Verwaltungsgebiet
Strategien
Scheinwerfer
Helmstedt
##ži
##ın
##kö
##etta
kulturell
dynamische
Mithilfe
Gesellen
Crystal
Brach
Polnische
Mills
Erneut
Dino
Arms
##armen
vorläufigen
View
Malmö
Lombardei
LB
Grades
##änner
##eiler
geschütztes
eintreten
Percy
Kien
##trukturen
kon
Schutzgebiete
Rodríguez
Rate
Gio
Gerber
Geiseln
Fahren
Ablagerungen
ermordeten
Linear
Diamant
Breslauer
Apo
1696
##thema
##rog
einflussreiche
digital
befürchtete
Hubertus
Cold
überflüssig
horizontale
Wasserstand
Tiflis
klären
Untergeschoss
Katastralgemeinde
Collegium
Schlauch
Fußballs
1665
##sste
passende
fin
Verdun
RP
Karnevals
suspendiert
Gesamtrang
Burton
Banda
ungültig
Todd
Rothenburg
Partenkirchen
Nottingham
##ův
##mak
vorangetrieben
Holzst
1642
##vio
instand
berg
Staatsge
Interpretationen
Friedrichshafen
Degen
##lou
##chloss
##balken
verlorene
Sahara
Reichstagswahl
Goldmedaillen
Gatten
##terial
heil
dell
Zirkel
Glatt
1666
##tron
##srate
##krebs
##gründung
systematischen
Migration
Lop
LV
Brutto
##usstellung
##bezogene
anglo
Traun
Municipal
KK
pflegt
ethnische
##roh
##nac
demontiert
Städtchen
Reparaturen
Reglement
Ferro
##platzes
Steam
Rasch
Mäzen
Lance
##rgen
Terrassen
MIT
Jugendarbeit
Freimaurer
##prozesse
##nommen
##hem
Zigeuner
Puffer
América
Ac
##arbe
Zeus
Schulleiter
Essay
Vasallen
Oy
Kae
Gue
##stag
Physiologie
Patri
Gründungsmitgliedern
Bülow
##gk
väterlichen
Wuppertaler
Ostr
Gö
##verbänden
beschließen
Patriarch
##hari
Nist
Dys
Abschieds
##zieren
##ericht
wiederkehrende
Vereinigungen
Taucher
Dö
Detektiv
Mitspieler
Kronprinzen
Hess
Gi
##texte
##einen
Heilung
Circle
##modus
meiner
Umschlag
Theaterstücke
Porno
##motiv
##mechanismus
##kessel
##jak
##guss
##dj
Tree
Straßenverkehr
Sozialistische
Raja
Hannah
Geheimer
Babylon
1624
##μ
##že
##tse
essen
Schnitz
Satzes
Lé
Arie
maßgeblichen
Sca
Kommentare
Echtzeit
##yj
##pho
##nanz
verstorbene
Sm
Muschelkalk
GL
Dekor
##hauser
##aue
##ande
wirkenden
gewohnt
Ethnie
Come
Chrysler
##heits
überbaut
ruhig
niederge
Wart
Nic
Falsch
Bora
##čn
intern
horizontal
Dienstzeit
Brasiliens
##presse
##emeinde
weich
Staatsprüfung
Somalia
Poul
Furt
##differenz
Vorstoß
Terroristen
Knut
Conte
Bergischen
##tun
##llus
scharfen
Lod
##stadion
##ize
1645
##sca
niedergeschlagen
armenischen
Welche
Selen
1598
##ower
Melk
Etablierung
Eichel
##tere
Seitenschiffe
Pharao
Koll
##rfen
Untergruppe
##vic
##laufen
verbündeten
Schnauze
Kurzform
Dum
Briefwechsel
Ú
dreigeschossige
Kernkraftwerk
Geschichtsschreibung
##gesetze
Mühlhausen
Barber
##sprachigen
##loser
involviert
Rosenthal
Goebbels
abschließenden
Nitro
Masken
Gotik
##tru
##spektrum
##opi
##ayer
renommierte
Wartung
Kredite
Balla
erkrankt
Kirchengeschichte
Karpaten
Kantor
HT
##rey
##nf
irre
##Ba
##sp
##sig
##ringe
##hme
##beschluss
steckt
aufgerufen
Vorherrschaft
Vogtland
Krankenhäuser
Gedenktag
Einzelheiten
Bischofskonferenz
Absetzung
##zins
Mittelteil
Lara
Augustinus
gefundene
Nem
Deckel
1655
gleichem
cum
Vai
Miniatur
##chiffe
ehrenamtliche
Ping
Museo
Flanke
Ans
Versand
Potter
Pianistin
Ip
Frédéric
1644
##such
##nale
##kro
derjenige
Grob
##misch
##elände
bemerkenswert
Zigaretten
Legislaturperioden
Glan
##ission
statistische
Malcolm
Lamm
##tsche
Obern
Kleins
Entscheidungsspiel
##ip
##dingen
versehene
erweist
Lufthansa
Kleinst
##tradition
alias
Dobr
Ausmaße
##lav
Ministers
Bundestags
##feldzug
sozialistische
hi
Kapitalismus
Atlantis
##uka
Schauspielschule
Perlen
Neuf
Eno
156
##geschäfte
geometrischen
Neutralität
Moleküle
Compagnie
stoßen
Moe
##vorstellungen
liegend
distanzierte
Tons
Spartak
Säugetiere
Oranien
Musikvideos
Astra
##omen
##ams
locker
Wiens
Una
MK
##gift
Ranking
Look
Kelten
Wohnraum
Treppenhaus
Erker
Mittelrhein
Kain
Gunter
##türen
##braun
Ordinarius
Koz
Jug
Herzens
Fischfang
##ride
##andschaft
psychische
Wohnungsbau
Uns
Oberhaus
Finals
Emissions
Atoll
##loh
ununterbrochen
symbolische
Zak
Schriftzug
Restauration
Geschäftsstelle
Berufsausbildung
##wes
##rest
##lom
##enau
Odessa
Mailänder
Kapstadt
Autounfall
##real
beleuchtet
aufhielt
auffällige
Rundschau
Plymouth
Operette
1637
1559
##т
vorherrschenden
Zentralasien
Tschechischen
Spinnen
Händel
Historien
Ahorn
##él
##äulen
##vn
##iot
pazifischen
Trenn
Pyrenäen
Krei
Haven
##nki
##alon
emotionale
befürwortete
##zis
##lätze
##gegner
##bett
mol
Sure
Ode
Chia
Assembly
Rothschild
Hochs
Heidegger
Differenzierung
Wä
Achim
Weltcups
Pfaffen
Behinderten
gewi
Zieh
Heiligtum
Bear
##nich
stellenweise
Glashütte
Amazon
##yri
bewaldete
Vä
Verden
Marko
Keyboarder
##requenz
ungeeignet
prominente
Mohr
Irr
##kap
Windsor
Repräsentanten
Alexanders
schützt
koordiniert
hochge
Vul
Spätantike
Gewand
520
##tufe
##nsu
##milch
schwäbischen
empfand
Woman
Rip
Bran
##ég
##orne
##itu
verdeutlicht
romantischen
Seitens
Scherz
Löcher
##kamera
verbuchen
außergewöhnlich
Unabhängigkeitskrieg
Netzes
Möller
Felsb
Chefs
Bal
##lab
Klassizismus
Heiliger
Geologe
Alonso
##char
dokumentierte
Za
Perioden
Oberbau
Filmes
Badmintonmeisterschaft
1612
##riften
##eha
Sit
Porter
1651
##aufnahme
graduierte
einzuführen
Patricia
Gegenwärtig
BH
##şa
##werder
##ký
##ieri
##alli
##abrik
neuseeländischen
Verweis
Staatsgrenze
Eri
Aufstandes
##lak
Tastatur
Quartal
Poi
Mozarts
Aul
Arbeiterbewegung
##ngst
##ibo
Wacht
Corpus
beworben
Sulz
Sander
Luck
Kreide
Gattungsname
Browser
##ON
##ši
##esti
##erl
beliebigen
anst
Westturm
##eut
##arin
voraussichtlich
geschm
Ortszentrum
Muri
ausgezeichnete
abgestimmt
Sik
Rechtsstreit
Nag
Kompilation
Grenoble
Doo
##öcke
##sprecher
sinn
enthüllt
Reptilien
Codes
CG
Ble
##gleichung
Öffentliche
gegebene
Sprachwissenschaft
Spezialisten
Christa
##eto
ableiten
FT
##strecken
##fassade
Š
verwirklichen
jeher
gestiegen
Jä
auftraten
Entwurfs
##TI
##nest
verka
Sechste
Puls
Face
wertvollen
vorläufige
Eduardo
Dier
##essel
ausbauen
Samb
Popmusik
Gospel
Altäre
##gere
##adel
Émile
vermachte
kalk
Poli
Pfleger
Hama
Bl
primäre
Puy
Frances
Fad
##mad
##gno
##anne
beb
Firmensitz
##denken
pflegen
Wohngebiet
ITF
Aberdeen
verschmolzen
verpasst
verlängern
Mille
goldener
aufgestellte
Tei
TSG
Persi
Erscheinungs
Aloe
##falls
steinernen
gemischte
angeschlossenen
Has
Dow
Bertha
##abschnitte
planen
bestimmtes
IOC
Diskurs
##äm
##konzentration
Räte
Nische
Bedeutungen
Ausgehend
grobe
Feldes
Aktivierung
##ündung
##schulen
##enn
Če
verliefen
##AT
##unternehmens
##ship
ve
mobilen
klassizistische
Königreiches
Besiedelung
##jow
##gela
geschildert
autonome
Diabetes
1609
##sä
##räu
namhafte
geschickte
Pott
Neutronen
##01
genießen
Gleichungen
Donnerstag
##anzeige
zurückgegeben
Militärakademie
1636
##etter
ermittelten
Xavier
Suk
Rheinische
Hinspiel
Domherr
Antworten
##gattung
##čice
##tib
marschierte
abb
Rückspiele
Regisseure
Paper
Palmen
Hügels
1643
naturwissenschaftliche
Vierzylinder
Spitzname
LPG
Bäder
rührt
Vest
UTC
Quadratmetern
McCa
Kaunas
Romano
Lugano
Clare
Arn
##sai
##geln
Vogels
Simpson
Schlu
Konfrontation
Hes
geradezu
disqualifiziert
Schlitz
Gebhard
Colle
##ämpfe
##zus
symbolisieren
befehligte
Erprobung
Staud
Sku
Nester
Heirats
Einkaufs
Birk
versteigert
spezieller
europaweit
Zitadelle
Zapfen
Philologe
##rage
##iese
drang
auszubauen
Stri
Kühne
Heidi
256
##oge
##cock
Überlebende
unterrichten
red
kraft
Silben
Lüb
Großherzogtums
1653
##ugs
##echte
slawische
Wasserkraftwerk
Fürsorge
##rtschaft
provisorischen
Korrektur
Gunst
Moselle
Kling
Ausdrücke
##iar
profitieren
gemäss
Transporte
Juniorenweltmeisterschaften
##iums
##gha
eigenständiger
begründen
Titularbistum
Meli
##sio
##barer
##alls
lebenslange
his
Sze
Jessica
Connor
1490
##ehe
Zählung
Tribus
Tasten
Rush
Nowgorod
Kriegerdenkmal
Kreiss
Ausstattungs
1662
1521
diagnostiziert
damaliger
bewaffnete
Privatleben
##Po
ungesch
Revolver
##igh
einführte
Synthesizer
Eben
1663
##widerstand
##ots
ausführliche
Verleih
Konsumenten
Gase
##polizei
festgelegte
chilenischen
anzubieten
UKW
Einzelf
Cic
Aufge
##orgel
Geschäftsbereich
Esther
##rak
Merkur
Kulturzentrum
Krankenversicherung
Fry
##zing
tra
Passion
Kus
##dchen
demo
Olympique
Leh
Italienische
Festungen
Emigranten
##ehn
Zam
Vaterland
Referendar
Parkanlage
Konsens
##hältnisse
hinweisen
Tiergarten
Escher
Chirurg
Beinen
Agri
Abdul
##spe
##mögen
virtuelle
Stellungnahme
Harper
Dampfschiff
##änen
##js
##dnung
poly
Fortbildung
##rfolg
##erna
Steh
Arbeitszeit
##netzes
##iebel
gestürzt
Pitt
Margaretha
##bürger
Güte
BW
##was
##tetten
##fjord
##durch
portugiesischer
ewigen
Rückenflosse
Dylan
##technologie
##politisch
Ritt
Patrizier
Mechanismen
Krie
Ira
Domänen
##kompanie
##kamm
veräußerte
fühlen
finnischer
Toc
Johnston
EK
Dul
##eso
Stadtentwicklung
Scholz
solch
innovative
Lüt
##rechtliche
ut
umliegende
Spann
Ment
Kanone
Collection
##inae
Pok
Argumente
gespalten
Wirtschaftskrise
Sorbonne
Rahmenbedingungen
Credit
Amerikanern
##fat
einjährige
SSV
Rating
Quo
Hermes
Exchange
DW
410
anfänglichen
Tälern
Bret
##kabel
strikt
Zero
Fruchtkörper
##andr
##ahnen
span
Talente
Papua
Nationalmannschaften
Berry
Assistenztrainer
Risse
Kad
Enrico
1638
##shan
##iano
##eicht
sofortige
originale
moralischen
Veteranen
Release
Pakete
Opfers
NVA
Medizinstudium
Cli
218
##wahlen
##gier
buddhistischen
Tonne
Großg
##tele
Zeiss
Rezensionen
Made
Hauslehrer
Diamond
regeln
neugotischen
gewähren
denjenigen
absichtlich
Herrenmannschaft
Calais
##ipp
variabel
kurzes
geschriebenen
ac
abz
Wann
Optimierung
##städt
zwangsläufig
schwarzem
Bli
##vorschriften
##tudien
##lda
NM
Konsulat
Chinesischen
Buddha
Bark
##bou
linear
Zubereitung
Seeleute
ON
##üsten
##scu
##ovi
##amten
Ökologie
Nicolai
Koo
##riz
##atoren
Nad
Loks
Kriegsbeginn
Hali
Domenico
überging
nachzuweisen
jähriges
Tina
Mercury
1528
##ologe
##benen
##arische
##ards
eingef
Azur
1535
##beginn
Unterstützt
Omar
Einzelfall
1542
preis
Unterzeichnung
Schir
Potenz
Grö
Einf
##eyer
vorgegebenen
UP
Skilanglauf
Pour
Gegners
modernes
angefahren
##ndar
geflogen
befreundeten
DVB
##hö
##ebi
Schönau
Nachs
Mittelfranken
Johannesburg
##technischen
##etall
wu
anerkannter
Gesinnung
Common
Ame
1556
Mongolen
Flachs
Björn
wilde
Wester
Werkstoff
Tonk
Nachwahl
Mea
Enzyme
Berufsschule
Aristo
##½
##perre
##asti
knappen
Triebwerke
Plaza
Mom
Gim
geschnitten
Patrozinium
Elena
##ά
##ós
##ntes
Sold
Registrierung
Kreuzweg
Berga
sprachliche
bekleidet
Tango
Picasso
1674
##chka
räumlichen
alleiniger
Springfield
Schulausbildung
Remscheid
##grade
sicherlich
anonym
Keim
1619
##media
pour
Strat
Fraser
Brent
Bildhauerei
##stattung
wiederentdeckt
Wig
Moto
lieh
Publikations
Entstehungszeit
##MS
##aussch
viert
Vorspann
Leicester
Bry
Avignon
Abhandlungen
##rati
zugängliche
orts
Torpedos
Gren
##bandes
reines
identische
errungen
Wirren
Hülle
Frauenfußball
##pul
##mü
Winston
Schutzpatron
Mina
Migranten
McG
Letzte
Beyer
Arta
Loc
Karoline
##rol
##rise
##duo
selbstge
Schula
Fin
Carnegie
##werten
##nalyse
##dichter
##befehl
schwankt
rü
liberal
Brunner
##äglich
##verschiebung
##kart
##ilo
Albumcharts
1627
revolutionäre
Panamerikanischen
Jordanien
Fried
Vinyl
Sitzplätzen
Magie
Eisenbahnbrücke
Anst
##nre
##leit
##erste
##annt
monumentale
Verben
Gezeiten
Eagle
Bes
Baua
##otter
##iva
##blo
Ärzten
namhaften
Stei
##AA
##tschen
namensgebenden
Wanderungen
Sexualität
Schritten
Prat
Mangan
Belgier
Baumaßnahmen
##acker
ersichtlich
Spätere
Persönlichkeits
Kawa
Gemeindehaus
##ädagogik
##villa
##mens
rufen
Tac
Rezeptor
Lebensende
Aarau
##IA
##sorten
##ourt
Michels
##ufnahme
##pektrum
##flicht
empfehlen
Pferdes
Kon
Fränkischen
##б
##wis
##gelenk
##ense
rer
psychologische
gleicht
behindert
Study
Können
Kombinationen
Bindungs
##lop
Superman
Reggae
Erosion
Chinesische
1649
##probe
Verg
Shop
Mies
Manualen
Lynch
Korridor
Capitol
Ausläufern
AO
##ż
fruchtbaren
Verdi
Halbfinal
Diesmal
spärlich
Pag
Mater
Magnesium
##RT
##rtikel
Montfort
##tol
##jet
anzuschließen
Knopf
Gespielt
Eco
Dinamo
Perg
Narren
Lag
Festspiele
Ax
##rb
nominierte
ermittelte
aufgekauft
Nordamerikas
Brig
Bonifatius
##speicher
Pl
Legislative
Ambo
##np
türkisch
hing
abzu
Tempelhof
Rouen
Neube
Lebensstil
Indie
Era
Bezüge
Aldo
##zil
prominenten
gelöscht
Textilien
Priorität
Nicolaus
Leng
Laute
Grosse
##mengen
##hoe
relevante
Sporta
1605
##chä
antisemitische
##bitz
##bea
versch
versammelten
Montan
##ziehung
zurückzog
Vorgeschichte
146
##rtet
##nea
##haar
##büchern
chemisch
Turnhalle
Portugiesisch
Archivar
208
##litik
##angebote
UC
Traditionell
Kurzgeschichte
Kip
Besuche
schufen
Strafen
Neuenburg
Annette
Abweichung
##nius
Tul
Grie
##werft
##arth
Zon
Prozession
Lampen
Karate
Homepage
Bundesstaats
Aug
##poli
##camp
##bäume
Recklinghausen
IAU
inspirierte
gefährliche
Quick
Mittags
Kinn
Josh
Gerlach
Aufstands
Andrews
##zierung
##punkten
Pipeline
Musikproduzent
Davies
##yg
Schlagzeilen
Nara
Minerale
##RE
Südliche
Swe
Höhenmeter
Hippo
Brat
angreifen
Junkers
Ibrahim
##äts
##zeile
##sition
##konzern
prägten
elliptisch
Trin
Straftaten
Nowo
EW
Croix
Aden
##û
hoffte
hochwertige
gezüchtet
flussabwärts
erneuerte
Singh
Schätzung
Rostocker
Chol
Aura
entfällt
Tong
Sergio
Einzels
##oman
##nch
##hier
regelte
Grundfarbe
Fahrtrichtung
Benno
##rks
##nossenschaft
##ipe
potentielle
Länderspielen
Jünger
Imam
##sg
##ieden
berühren
Prozessoren
Gesprächen
Genuss
##uropäische
##sprachige
##mith
##dorn
eingeschätzt
Verfügbarkeit
Shen
Room
ISBN
Gleichwohl
##osi
##eug
##achte
Quecksilber
Hunderte
##zew
##vall
##schel
##erweise
##eran
resultiert
Familiengröße
##EG
##oldaten
##halb
##geist
zuteil
geographischer
gefährlichen
Brennstoff
214
1669
##rache
##leich
##geh
##edlung
HSV
Friends
Folgesaison
BO
##gor
##dé
Shakespeares
Lagern
Kü
Drag
1691
weitergegeben
Yar
Wod
Läden
Kurpfalz
Guardian
##zien
##ichts
##deri
Vorsaison
Norwegens
Motorräder
Cana
CPU
##ieht
##ians
##eidung
langfristige
Strassen
Skript
Setz
Mächte
Inver
Catharina
##ista
zahlte
markt
Cave
Bruns
Bem
1552
##ufgaben
gele
Patrimonialherrschaften
Dodge
##urst
##treue
##swerte
##meri
##enst
zweijährigen
bezwang
Ses
Mönchen
Maru
Fortan
Feuerstein
##uppen
erforderte
Tip
Gérard
Großeltern
Anzeiger
##mühlen
##isse
überreicht
sol
Edge
##wurf
##chrom
ö
zeitlebens
stecken
spaltete
gera
Wim
Sorgen
Ostteil
Kante
Andri
spa
Naturschutzgebiete
MF
Devisen
Bislang
##čka
##pflichtig
##kandidat
##glio
versteckte
prop
mündete
Generalvikar
Einöde
Wirtschaftss
Klassifizierung
JA
Dramaturg
##ța
Sonstiges
Fru
Auckland
##ratung
##fik
##computer
beige
Zeichnen
Sana
RO
MH
Arbeitsmarkt
470
gängige
euch
besiegten
Verme
Asphalt
Ark
wiedereröffnet
hervorgerufen
einseitig
ausführen
abwärts
Mey
Einzelhandels
Doug
##mündung
##graphische
Liv
Kaninchen
Kampagnen
Fußballmannschaft
##hrung
##ewo
Pane
Lehrgang
Güterwagen
##nhausen
nebenbei
berufs
Pope
Nummerierung
Hers
##museums
##iale
verschlechterte
Raster
Himalaya
Blanken
##ämtern
kreuzen
Spannweite
Pig
Neubaustrecke
Familienunternehmen
##xis
##urch
##lal
Stipendien
Parlamentarier
Gemeinderats
Donat
Baumwolle
Ballade
##enb
aux
Lucky
1658
umzu
mexikanischer
franz
ausmachen
Steinberg
Roggen
Luftschiff
Druckluft
Asiens
##spflicht
##iß
zwingen
investierte
handele
emeritierter
Wilder
Sitzverteilung
Kommunismus
##uber
##esh
##ansatz
verpflichteten
Unterabteilung
Todestag
Naturstein
unzu
Waadt
Poet
HV
##fern
Tartu
Rame
Gnade
##setzung
##priester
Rae
Pir
Honduras
Colla
1671
stützte
passierte
formalen
saßen
Tup
Predigten
Fei
##rach
##männer
überregionalen
stützt
Wissenschaftlichen
Weinbaugebiet
Skigebiet
Generell
Fet
Aston
##lende
##iman
eingetreten
Weltkulturerbe
UB
Schornstein
Neuwied
Lil
##stä
##ieu
##dm
grundsätzliche
begonnenen
Ratgeber
Colleges
Burr
##jährig
##center
unterzeichneten
dirigierte
alternativen
Vl
Diagnostik
##pringen
Polit
Ami
##samt
Rechtsbe
Pä
##ego
##dow
Ša
geprägtes
##urse
##reb
##kabinett
##grafie
##gräber
##ehre
jeglicher
ele
brüten
bevorstehenden
Wasseroberfläche
Verwa
Mittelgewicht
Forschungsergebnisse
##gans
##endes
Shah
Rendsburg
Kaiserzeit
Auswanderung
1524
##irt
gefährdeter
beruhte
Rind
Hull
Falcon
Domäne
##gerichte
Durchgangs
Animation
Altenberg
##uine
##ká
##hov
indischer
Vau
Speisen
Panik
Fachgebiet
Erholung
Cove
Arbeitslosen
##āh
Tabernakel
Straßennetz
Lach
##ält
##onzept
cha
aufwärts
Tann
Südstaaten
Deca
Bak
##ummer
##ehl
mono
grünlich
Tsche
Pastoral
Franck
Brisbane
Ache
##uca
##hil
zusammenzu
Wohnen
Wichtig
Verhandlung
Südrand
Sta
Sonders
Manual
verzweigt
Tonfilm
Recherchen
Fecht
Befreiungs
##sre
##sil
vergleichbaren
interessieren
frühes
Simbabwe
Manufaktur
Fernsehens
Duft
Bum
##stätten
britisch
Yas
Vernetzung
Grill
Filip
Demi
Brien
1604
##rho
##fä
bereitet
Unabhängigkeits
Maxi
Hydra
Fundamental
1616
##CC
##zol
##rüfung
##enta
parlamentarischen
akustische
Ship
Salzgitter
Magna
Lateinschule
##warte
##mara
verwandelte
Märkten
Kartoffeln
Hügeln
Garantie
Blog
1657
154
##köpfe
unterlegt
th
Vermehrung
Südfrankreich
Stille
RD
Protagonist
Offizielle
Obhut
Mem
Mada
1534
##zier
##rier
Statuten
Modelljahr
Galerien
Deckung
##lant
gehörigen
Südwand
Nové
Monarchen
Pfeilern
Klin
Anschlüsse
1585
##η
##ignale
##egi
unternehmen
silberner
besonderem
Reichsstraße
Pow
1150
derweil
Versch
Mäh
Lao
Kürzel
Geis
Gastauftritte
Finnlands
##produkten
##fla
##dek
kroatische
dahingehend
Stief
Muslim
Jump
Ella
Barc
##training
##nium
##hers
Lauten
Krä
Bangladesch
teure
fe
Strahlungs
Praktiken
Gore
##üttel
##absch
entspringen
Spielminute
Siedlern
Querschiff
Jona
Ehrenzeichen
Calle
Bä
##ründung
##rganisation
##iele
##ahrzeuge
belehnt
Vere
Sozialdemokratischen
Season
Distribution
1564
##kun
Verstand
Mannschaftskapitän
KE
Griechenlands
325
##änke
weitreichende
Wagners
Galatasaray
Fichte
Alpin
##ttbewerb
##anbieter
gegenseitigen
Aya
##operation
##hold
umgebracht
qualitativ
Unterk
Quest
Höheren
extreme
Schre
Sas
Mö
Malt
Kiemen
Jahrtausendwende
Erbin
Byrd
Boten
Bauwesen
Ausdrucks
##runden
##reite
##pitzen
##heizung
brauchte
Superior
Produziert
Organisator
Nahverkehr
Malle
Kapsel
Kak
Höhepunkte
Artikels
##wörter
san
Zuzug
Zag
Wendel
Spielst
Führers
Erklärungen
##rige
umk
Thie
Prom
Einwanderung
##racht
##aun
erkämpfte
Schwiegervater
Jahreszeit
##ltur
sel
restaurierte
baulichen
Seemeilen
Problematik
Negativ
neuerer
Kerk
Hauptge
Hauptb
Ane
##vol
##steuerung
##erts
byzantinische
Winnipeg
Tübinger
Alla
Agi
##wohnung
##mts
##kali
mitgeteilt
angefügt
Toll
Pfeiffer
Jul
Gänge
Bergisch
139
##wäldern
vertreibt
berühmtesten
Grundschulen
Bá
1527
unterbrach
angestiegen
##ktive
vertretenen
nähere
magische
Uhl
Roller
1860er
##ppa
##leiden
##eimer
##angriff
treibt
gesicherte
Weder
1677
##knoten
##iell
##escu
Popp
Geschichtswissenschaft
##ärts
##nthe
uruguayischen
typischer
beitrug
Schmal
Familienbesitz
Durchschnitts
305
##AN
##staffel
überwachen
ovale
installierte
Verschl
Naga
Kindergärten
Discovery
wiederholten
ai
Rivière
Monc
Generalstabs
##bestimmung
Temp
Rittmeister
Regierungschef
Ref
Aal
Überschwemmungen
einigten
Rennstrecke
Kater
Festnahme
##äche
schwanken
enorm
aufgegangen
Peugeot
Isaak
Hinterachse
##orientierten
##agazin
oberbayerischen
ergriffen
Teller
Landkreisen
##sak
##rissen
rang
Ureinwohner
Sext
Kinderh
Dornbirn
##mor
##fizierung
lehnten
kürzeren
Diskussions
Aff
375
##status
##phi
##erc
warfen
Kreuznach
Kollision
Fallschirm
Analysis
151
##Te
##mpfe
gedruckte
Rückgabe
Landesmuseum
Hauptinsel
HIV
Bewusstseins
##beste
worin
Personalunion
Flugabwehr
Days
##slo
##enm
##eigene
abschließend
Suzuki
Prima
Petr
Compa
##biologie
grafische
befragt
Sünden
Sham
S1
Facharzt
540
158
##vé
##orische
##korn
abgesch
Fab
1575
häufigste
beanspruchte
Umgekehrt
Silvester
Mano
Hefe
Dell
##sda
##iac
PDS
Jahreszeiten
Agen
zwecks
reifen
arte
Rohre
Minor
##enk
val
Wedel
Pt
Kami
Bohrung
Autobiografie
##legt
Verkehrsbetriebe
Moose
Henkel
##nth
##hein
Vorstandes
Mittelsch
Kem
Gemeindeverwaltung
Flying
Child
##ussch
leere
gepflanzt
U1
Paläo
Erzeugnisse
Endstand
Elise
##hio
dec
beachtliche
Bergstraße
##wei
##glia
##flugzeuge
vorgelagerten
melden
leisteten
kommissarisch
gleichzeitige
frische
Infektionen
Hag
Beirut
##ändig
##nergie
Untert
Mother
162
##chos
##aufstand
fortzusetzen
Schie
Karel
Fernández
##ieh
##arz
herausgegebene
Save
Samo
RK
Petition
Lap
Geburtstags
Coleman
Vorabend
Tugend
Blume
##ewegung
weiche
Wildcard
Tito
Defensive
ter
Watch
Maple
Henneberg
Fronten
Einsicht
##ähne
##raut
##bow
momentan
geräumt
Sterben
Schatzmeister
Peerage
Intensiv
Heath
Handballspieler
Aar
##parks
##nens
heben
Thronfolger
NY
Krist
Elternteil
Dein
365
##üre
vergrößern
klassizistischen
Urenkel
Tep
Stadts
Sint
Mün
Limit
Lausitz
LM
Ag
##schild
##chronik
##ataillon
endemisch
bildende
Saalkirche
Raums
Ortsmitte
Never
##ttel
##schwanz
##gat
Đ
bewies
Rok
Dienstleister
##dreh
tan
symmetrisch
Reu
Kes
##wachsen
schlafen
indirekte
Zhu
Sterling
Maxwell
##eme
Plans
Kott
Hood
168
##eria
tre
offenbart
aktueller
Tschu
Saalfeld
Bauingenieur
geschwächt
Ola
Halm
Bewerbung
Baier
##treffer
##hlt
##generation
stra
eingepfarrt
Röhr
Landratsamt
Kurort
unterirdisch
energie
deutschem
Terz
Mose
Legend
Hale
Benefiz
##tm
##efe
##aer
verpflichten
sprachlichen
Sid
Freiheiten
##same
tor
Sounds
Olpe
Drehung
Christliche
Basili
##zd
##stamm
##kriege
Walters
Stachel
Laich
Germanen
Einsch
1523
##reunde
profilierte
mittelgroße
behinderte
Mittelf
Mene
Kerr
##pfe
##ormat
##besch
selbstverständlich
aufgestockt
Hofmark
Bunt
##toni
ausgeweitet
Pakt
Matti
Horní
Aw
##afeln
zahlreich
Yuan
Schmetterling
Dimitri
Bodenf
Belastungen
##reiches
sä
anzutreten
Teltow
Kroaten
##gewalt
bro
Westa
Fau
Devils
##ürmen
##pla
geteilte
Startelf
##endi
##arp
albanischen
Stadtbibliothek
Seeschlacht
Perspektiven
NF
Brö
##chst
hierher
fließende
Unterwelt
Studentenverbindung
Spi
Regensburger
Cré
Außenseiter
##reien
##itzen
##iol
inoffizielle
arrangierte
Fledermaus
Befunde
##oun
nachfolgend
kirchen
Reck
Methan
Kündigung
##rga
##nns
garantiert
Urteile
Kund
##wissen
##graf
Pradesh
Mittelamerika
Lass
Brandschutz
Amtssprache
##sort
Style
##ebo
zukommen
stören
nom
effektive
Hauptp
Clermont
gewe
Niederländisch
Erzieher
Chas
Albany
##verfahrens
##duktion
##boy
auszugehen
aufgesch
Infolgedessen
Botanischen
Akku
##srat
Ž
auflöste
Wurst
Ufern
Feldkirch
Bürgers
Bedürfnis
##urteil
verbringt
hinreichend
herkömmliche
Titus
Lastwagen
Europawahl
Caro
##itet
##brigade
sammelt
andauernde
Untersuchungshaft
Ritus
Körperschaft
1588
1568
##tain
##nou
##geschichtliche
mangelnder
Neuk
Nebenwirkungen
Klarinette
Holländer
Doktorarbeit
##rro
Überwindung
Sami
Russ
Market
Kräuter
Gräbern
Cao
##bul
konservativ
Gall
Apollon
Anh
##glo
##aid
unzufrieden
unterstellte
Wait
Gemeindeteil
Füll
Blütenstände
Anruf
umher
resultierende
lichte
hervorragenden
Stadtrats
Piper
Lug
Lessing
Expo
##sehen
##nfeld
Löhne
Kipp
Finanzministerium
1659
tote
stimm
gleichgesetzt
gemischten
Abzeichen
geografischen
Keyboard
Hare
Bers
##ås
wal
logische
Opus
Modi
1608
##mil
konventionelle
Identifizierung
Gipfels
##mera
##aker
passen
Oberleitung
Burns
##rone
##pta
psycho
os
Straßenbahnen
Record
Punktes
Generäle
Biennale
##keller
vernichten
mache
lädt
Zad
Lösungsmittel
Aufzeichnung
glatten
deutschlandweit
##hundert
VfR
Netzwerke
Erze
Enge
Bekannten
Bailey
1641
##remse
Pyrénées
Ga
Eve
Critics
Brass
Außenlager
1230
Verwaltungsbezirk
Tonnengewölbe
Kontinuität
Haw
Derek
Wohnplätze
Loo
Größenordnung
Fahrzeit
Bron
##yar
tele
Rela
Handy
Flaggschiff
Carls
Bradley
Berlinale
##ßler
##mouth
##fleisch
Tagungs
Scheide
Inspektion
Fü
1673
##dsch
touristischen
ir
Schell
Hee
Gruber
148
##behörden
eingelagert
Griechischen
Buren
##ên
##ufs
##ric
##lokal
##feder
##edien
##darm
Witte
Toiletten
Reichsrat
Privatisierung
Richardson
Brain
##CH
##richte
##cti
stürzen
Versammlungen
Nir
Chase
BIP
1617
##igenschaften
##bier
Wad
Violinist
Tschechen
Peg
Manuskripte
##triebs
##oud
rettet
bedeutsame
Yes
Xbox
Tyler
Regulierung
Landgrafschaft
Kollege
Bogens
Bewirtschaftung
##richts
##kleidung
Objektiv
Ingo
Hörner
Cale
##würde
beklagte
anzugreifen
Wehrpflicht
Wegbereiter
Somme
Operator
Italienischen
Cay
##hner
Streckennetz
Frühgeschichte
##ttert
vorgeb
dynamischen
Meldung
163
##personal
##okal
##offen
##nab
##ensi
unentschieden
schleswig
bestehender
Gastspiel
Forbes
##xie
verhandelte
fixiert
Worcester
Umstrukturierung
Sicher
IH
Hitparade
##ics
argentinische
Rivalität
Pog
NL
Module
Corn
1597
1565
##к
##sweise
unendlich
sämtlicher
pädagogischen
komme
erkannten
anderweitig
Verringerung
Kontroverse
##medaille
regte
Navigation
Geno
Barra
tschechoslowakischen
napoleonischen
Schwellen
Lili
Liberty
Galla
221
##sei
abschließende
Tristan
Senators
Implementierung
Geräusche
Bezirken
Ackerland
##olgen
rückten
ausgezeichneten
Tru
Gründungsmitglieder
##faktoren
flu
Spo
Michal
Korsika
Hauptstrecke
Abba
##matt
geeigneter
fle
drittklassigen
dominierende
Raumstation
Hauptan
##gus
Vegetations
Mathe
Mainstream
##zl
##ulin
##iza
##bte
holländischen
dauerten
Task
Parodie
Kyōto
fließenden
erhoffte
besorgte
ausgesch
Wanne
Personennahverkehr
Literaturpreis
Bevölkerungs
Beh
##sge
gehobenen
Jamie
##tom
##eat
unterlegen
Tagungen
Sachsenhausen
drohenden
Spezialisierung
Dent
Camille
##kens
dis
Suhl
Marines
Laf
Holzsch
Genie
Clear
##pon
##gold
stri
bezahlte
Zusammenspiel
Pirna
Lup
Aviation
##weide
##studien
##sleben
##komitee
##heri
abges
Sioux
Konsistorium
1583
##sdorfer
##quit
##oux
##ird
##inhalte
##erungen
##dent
eigen
Vielfach
Stellwerk
Römerzeit
Medikamenten
Kof
Ap
##stitut
vereidigt
germanische
gekürt
Hur
Anita
##iba
##genossenschaft
##frucht
Öfteren
breitere
Stephans
Cot
1543
Weltanschauung
Schaltung
Pfahl
PM
Nordufer
Lj
Aminosäuren
##rauch
kultureller
Lichts
Konflikts
##niert
##briefe
Nielsen
Intro
Hassan
1611
##besitz
Öls
alliierte
Verbrennung
Stiftes
Lublin
Inhalten
Bör
##wicht
##aris
schlüpfen
Rig
Milo
Kissingen
Galen
Egg
##ihe
kubanischen
gebräuchlichen
bewegliche
abgek
Wissenschaftliche
Variation
Unterschriften
Staatsoberhaupt
##alb
Rotenburg
Bow
##weil
##ogel
##lko
##andi
permanente
Schwarzburg
Reichsk
Profivertrag
Amerikas
##äch
##hot
tiefste
früheste
Servi
Kunstschule
Kostengründen
Holy
Belfast
##ädte
##sna
##reife
##ersonen
konsequente
Pauls
Kett
Kasch
Historismus
Hamburgischen
##ärtner
##usf
##erungs
##eminar
##alin
Ähnliches
Lom
Ess
Betriebsst
Aufl
##ösung
##genieur
##böden
##antrag
informierte
Litt
LO
Häuptling
##haltigen
##gner
versorgte
Mog
Kompanien
Eiserne
##90
##zka
##rant
##genb
zurecht
geachtet
Pli
Industriegebiet
Fem
##krankheit
##elte
##beruf
überzogen
darstellende
ausfiel
Reine
Fanny
##nker
Tampa
Hog
weißes
Woo
Tos
Gri
Graphen
Bürgerinitiative
##wegs
##rmee
osmanische
Wäsche
Vereinbarungen
Lotte
Funktionalität
##stetten
##rechten
##ktiv
##fner
versehentlich
befördern
Verbrauch
Revolte
Plant
Pfosten
Ostufer
MDR
Hui
Feucht
Exekutiv
Belt
Authority
Andersen
##trä
##euerung
liest
hiervon
Truck
Trek
Sae
Konkurrent
Herausforderungen
##eigenschaften
##bens
verzierte
verkleinert
Banden
##obi
Literaturwissenschaftler
Lich
Franc
##teiligung
##gro
Verpflegung
Trent
Säugetieren
Marius
Banat
216
##spolitik
##nsta
##geri
##brück
westdeutschen
elterlichen
Lateinischen
Buk
bäuerlichen
Vergehen
Teresa
Squash
Pilze
Philosophischen
Morton
Jak
Hefte
Germanist
Gama
##umer
##rinzip
##nai
##aran
residierte
kommentiert
empirische
Staatsministerium
Sharp
Riet
213
##wel
##reif
##bst
##beiter
anzupassen
Sü
Rik
Geständnis
Darstellerin
Büste
nordöstlicher
angemeldet
Schwerpunkten
Gauß
Fahrern
Dot
Bluts
##behälter
spitzen
Westf
Niederschlesien
##ül
##onzern
##kurve
namensgebende
beh
OT
Mineralien
##hende
##charts
Potenzial
Abstiegs
##renn
passive
pal
Zwischenfall
##60
##löcher
##leg
Tale
Premierministers
Nies
Krag
Herrschers
##RC
##jubiläum
genießt
einzunehmen
denkt
Schwergewicht
Musikwissenschaftler
Luk
##drüsen
gesunde
feuer
festgesetzt
Reinigungs
Muse
FB
Bui
1613
157
##äfer
##udio
##signal
##gelb
##deckung
graubraun
Tritt
Sucht
Oo
Lim
Grenzübergang
Bestzeit
##tä
##steiner
##ilis
Bürgermeisterin
##gruben
##elles
##assi
mitbe
ausgekoppelt
Völkerbund
Vorbildern
Kale
GO
Babelsberg
Addition
##teuerung
##obo
##nari
##ault
kHz
Völkermord
Sylvia
Kang
Erdmann
##verse
Świ
Weih
Schneeberg
Scala
Instituto
Hymne
Bäckerei
##pä
##pach
mütterlicherseits
Vari
Neukölln
Fortführung
Bachmann
Übergänge
va
eingek
aufgestaut
abgewiesen
##ühren
www
widerlegt
gesetzten
Thoma
Ruß
NBC
Ministerien
Lion
Ganzen
Frankenberg
Franke
Cava
##rek
erschöpft
Zeichens
Verständigung
Stadtverordnetenversammlung
Sinfonieorchester
Pankow
Obstbau
Lam
Kommunistische
Hya
Biograph
Antarktischen
Wider
Spy
Schleim
Niederlausitz
Lieber
Kommandos
Droste
Butt
Aktuelle
##reinigung
##frist
##cre
zuordnen
Tauern
Tak
M2
Lett
Institutes
Doom
Awa
##önen
##kino
##erkrankungen
detailliert
Untergattung
Tess
Ruderer
Memmingen
Maigret
Drängen
##wettbewerbe
##hotel
##chner
##beg
##atten
Übung
erging
Wieland
Spei
Phosphat
Dänischen
Chapelle
Borsten
Abd
##Co
##tzte
Łódź
friedliche
Rice
Ord
Christentums
##programms
##hed
diejenige
Schiene
Metalle
Adventure
verlegten
Myanmar
##pha
##nhagen
spontan
freizu
elektronischer
einzustellen
Direktoren
Dieb
##sätze
##strukturen
##rut
##blau
einiges
Verschmelzung
Oberstufe
Meran
Hemi
Ausreise
##winnung
##seits
##ntal
parallele
erlaubten
betonen
Zah
Kulm
Intervall
Einzige
##nnes
Yves
Multimedia
Gare
Dorothy
Chips
Cer
##lah
##graph
geografische
Klöstern
##phasen
##gener
##eru
beantragt
Monica
Celtic
Bücherei
Academia
##ols
##ehren
##affe
teurer
Théâtre
Fremdsprachen
Beschränkung
001
##reh
##erd
schwedisch
Gesamtschule
Freiin
Dragoner
560
thermische
rumänischer
Platons
Bauf
##teine
##reie
##lion
zusätzliches
liiert
lebendig
Regionale
Brutzeit
##olie
##mov
wirkliche
Katja
##oduktion
##mur
steuer
390
##nni
##mantel
anhaltenden
Sama
Saalbau
Leitungen
Kleinb
Enzyklopädie
Chess
Auswärtige
vernachlässigt
niedergelassen
Sägewerk
Nationalmuseum
Kolo
Klett
##II
##glied
isländischen
Wasserleitung
Saw
Blattstiel
##tiven
erfordern
einzu
abgedruckt
Wallfahrt
Segunda
Rosi
Iz
Häftlingen
1607
##llier
##finger
gelehrt
eu
Kunstmuseum
HM
Euler
Dokumentations
##schuss
##estand
ausgewertet
Vulkane
Oxy
Konsonanten
##pis
Bundesvorstand
Bloom
Rights
Lip
Gedanke
Garne
Friede
Dschungel
##ardi
[...]
